#version: 0.2
d e
Ġ e
Ġ de
Ġ l
o s
Ġ p
Ġ a
e n
e r
Ġ c
e s
a r
Ġ s
a s
o n
c i
o r
u e
a n
Ġ m
Ã ³
a d
s t
Ġl a
r e
Ġ t
Ġ q
u n
a l
Ġe n
i n
Ã Ń
Ġq ue
en t
Ġe l
Ã³ n
Ġ y
Ã ¡
Ġ n
Ġ h
d i
d o
r a
Ġ un
r o
Ã ©
Ġc on
t i
o m
a ci
a m
Ġe s
Ġ v
Ġ f
i c
Ġe st
Ġs e
Ġl os
t e
Â ¿
a b
t o
Ġde l
l e
r i
Ġ re
Ġ in
Ġ o
Ġs u
Ġp ar
ad o
r es
. .
u i
aci Ã³n
e c
l o
Ġl as
Ġn o
Ġa l
Ġ C
d a
t a
Ġ b
Ġp or
ent e
Ġc om
o l
Ġ di
i s
ÃŃ a
c u
e m
Ġ g
Ġun a
Ã ±
d ad
Ġpar a
Ġp ro
Ġs i
on es
Ġl o
Ġ S
Ġ d
i en
l a
Ġ 1
ci Ã³n
l i
er o
c h
g o
Ġ E
N o
t u
v i
Ã º
t er
Ġm e
Ġh a
Ġc u
b i
Ã¡ s
i m
Ġ P
Ġ A
ad a
t r
Â ¡
u Ã©
s i
ent o
ar i
b re
Ġ M
.. .
s e
Ġ 2
r an
Ġm i
c e
m i
Ġ D
an do
Ġ (
0 0
t os
Ġm u
al es
ci a
Ġs o
i st
Ġ Â¿
Ġde s
Ġt o
c a
ad os
p e
Ġp er
ti v
Ġe x
Ã¡ n
or m
c o
j o
g u
E l
m o
Ġcom o
er a
u es
Ġ L
i r
Ġ B
p o
d os
t or
de n
Ġa c
e l
i ci
ic a
Ġ R
Ġs er
i t
E n
E st
de s
t es
t ra
i Ã³n
al i
Ġ T
b a
u s
Ġt ra
Ġp o
am os
E s
Ġ res
p or
q ue
Ġm Ã¡s
Ġ G
Ġa n
Ġ j
l ar
t ar
t en
Ã© n
Ġp ue
d u
p er
L a
i o
aci ones
Ġh ab
r u
Ġt en
d as
Ġ I
m a
u er
Ġv i
Ġl e
t ro
p ar
Ġa r
Ġt e
Ġm a
q ui
Ġ "
U n
Ġp re
Ġt i
m e
c er
Ġp a
o y
or a
p a
i a
u l
v er
m an
c es
Ġa s
Ġq ui
Ġ im
m p
r as
Ġ F
am ente
Ġest Ã¡
Ġ N
Ġso bre
u st
ic o
am bi
m ente
an te
l os
g un
z a
u en
Q uÃ©
u r
i l
c on
g a
Ġc a
m in
Ġsu s
Ġ1 9
on al
Ġ H
q u
Ġp res
Ġ J
de r
Ġt u
t re
g ar
t as
g ui
v o
em os
P or
b l
m os
Ġc as
Ġo b
Ġin ter
l am
Ġa p
or es
ent es
Ġb ien
Ãº n
Ġv e
b le
ab a
ad as
Ġp r
Ġv er
a c
j e
ĠC om
en cia
ec es
Ġ or
f ic
Ġt ien
p i
b er
f orm
Ġ i
ci ones
Ġq uÃ©
l an
Ġm an
Ġa Ã±
Ġp ri
â Ģ
ci as
Ġf ue
Ġp as
am i
Ġdi s
qu ÃŃ
Ġme di
n o
ĠE st
D e
f er
p on
ab le
Ġc o
d r
tr os
Ġc re
Ġ O
da des
Ġm is
ec h
ch o
Ġ V
ar a
l as
en do
ĠC on
S e
Ġest a
ari o
g an
Ġp ero
Ġ2 00
Ġ 3
Ġest e
Ġc i
l es
ÃŃ as
Ġ r
f ici
v en
Ġn i
i z
b r
p os
Ġf in
Ġtra ba
g i
v e
c ciÃ³n
en s
S i
Ġl le
is iÃ³n
ÃŃ cu
ambi Ã©n
g ra
Ġen tre
Ġ Ã©
Ġm o
Ġcom p
Ġto do
Ġa u
Ġ Un
in a
Ġde ci
Ġa quÃŃ
t al
Ġes o
v a
Ġc ar
Ġs on
Ġper s
Ġp e
i e
Ġha cer
ÃŃ s
u ro
in o
ent os
m as
ĠR e
ci al
t ado
c l
a y
Ġf orm
p ues
es ti
l ic
S ÃŃ
ci on
Ġc or
Ġha y
Ġs ab
por t
Ġpar ti
ent a
Ġt an
tiv o
L o
z ar
Ġs al
Ġl u
i dad
Ġn eces
Ġa h
Ġa b
Ġin form
en er
Ġn os
Q ui
M e
Ġt ambiÃ©n
L os
Ġh as
Ġpri m
g r
j er
t on
Ġp os
Ġt er
i do
em p
Ġmu y
mi ento
j a
cu er
on a
P ero
ci o
Ġc os
d ar
t ÃŃcu
ĠI n
Ġde b
si Ã³n
Ġest o
tiv a
Ã± o
e d
Ġd os
Ġp ol
Ġy o
an a
Ġve z
ÃŃ o
Ġn ue
Ġs in
ad or
Ġl i
Ġm ar
Ġcu ando
c ar
ÃŃ n
p ec
f ec
om bre
0 1
i os
Ġa m
Ġes c
Ã³ lo
ci p
Ġto dos
Ġpue de
ĠaÃ± os
re c
Ġ ,
Ġ Â¡
Ġs ol
p res
Ġ do
Ġ .
al mente
Ġas ÃŃ
Ġtien e
Ġal go
Ã© s
ch a
Ġe mp
c as
r en
Ġ No
du c
n a
Ã³ mo
Ġe m
Ġ 4
Ġg ran
aci onal
tÃŃcu lo
Ġd u
Ġme j
Ġp u
Ġ K
o ci
Ġh u
a v
an tes
Ġcon tra
Ġn ues
ÃŃ an
l lo
Ġy a
Ġe ra
Ġti em
Ġre g
Ġm en
Ġc h
Ġf un
Ġa d
Ġm un
ari os
y u
c an
g os
ti ca
z o
Ġb a
) ,
Ġc am
tu ra
l l
C on
Ġpa ÃŃs
ri b
Ġpar te
Ġ 5
ic os
bi er
Ġh i
uen o
Ġ u
ar ro
c os
ar Ã¡
ol a
t in
) .
Ġl lam
Ġcon s
g n
i den
ter i
Ġtiem po
Y o
Ġ ra
st i
ali dad
ami ento
s o
Ġf u
Ġma y
u ciÃ³n
ci os
ĠCom isiÃ³n
ali z
Ã± a
Ġj u
cuer do
ĠUn i
ic as
C u
Ġh an
er e
Ġes pe
tr as
Ġhas ta
T e
M i
Ġt ran
g en
Ġse Ã±
Ġa yu
un to
A l
Ġde re
ran te
u m
ari a
ch os
ĠÃ© l
Ġ ro
ra cias
f i
Ã© r
Â ł
st e
ue l
Ġcon si
Ġc an
ar on
ĠE uro
Ġ W
an o
cu r
Ġmej or
Ġdeci r
ist a
e t
Ġ ir
g Ãºn
Ãº bl
Ġin cl
er on
ech o
ener al
Ġtraba jo
ĠE s
Ġf uer
Ġb as
Ġest u
Ġ âĢ
Ġse gu
Ġv en
ch e
ĠEst ados
u y
Ġpo dr
Ġ U
Ġcu al
Ġah ora
Ġcom un
Ġal gun
av or
j os
l ti
T en
on as
se jo
ad re
Ġs Ã©
uÃ© s
tiv os
a t
Ġim port
Ġpos i
em a
Ġn ada
Ġdes de
aci on
j ar
Ġf avor
" .
ce p
Ġn e
Ġes e
Ġd on
Ġlu gar
ĠS e
sti tu
Ġv ol
Ġm al
Ġdes arro
ĠC h
L as
em bre
tu r
ton ces
Ġvi da
Ġp lan
Ġmi em
Ġ -
Ġ us
Ġest Ã¡n
Ġmis mo
Ġpr in
p uÃ©s
Ġc ab
ad ores
Ġca p
br os
Ġ19 9
2 00
ĠCon sejo
ĠD e
1 9
Ġf i
Ġest able
Ġap lic
Ġtran s
n os
Ġt om
Ġa cuerdo
c en
Ġ2 01
Ġ 6
li dad
Ġest ar
Ã± os
Ġpol ÃŃ
Ġh er
g as
r Ã¡
Ġc er
ar se
Ġh aci
Ġ Ã¡
Ġe qui
Ġd ÃŃa
C E
Ġ da
Ġ ust
Ġmu jer
Ġde n
ĠaÃ± o
Ġa par
st a
Ġser vi
Ġ Â
S u
i ones
c re
lam ento
T o
ĠP ar
Ġpro gra
en a
Ġh e
Ġ Y
Ġes p
C om
Ġ Ãº
i g
Ġs Ã³lo
di o
Ġar tÃŃculo
Ġun o
y ec
b ar
Ġe j
m Ã¡s
Ġel la
t aciÃ³n
er os
t Ã³
Ġcas a
Ġdon de
A h
Ġlle v
Ġo tros
Ġre l
Est Ã¡
li z
Ġde ber
Ġan tes
er es
Ġor gan
Ġest oy
c tor
Ã³n de
st ru
ec e
V amos
Ġen con
Ġv a
ti vi
Ġsi gui
f ica
Ġcon f
u dad
ue go
un ca
A s
Ġc ada
Ġ |
Ġform a
al e
Ġsi do
Ġmu cho
c om
Ġdu rante
ien do
Ġest aba
Ġpue do
Ġmay or
Ġb uen
Ġes a
en e
Ġha ce
b o
Ġh echo
Ġdi st
emp re
i to
di do
Ġre ci
Ġg ust
Ġp la
Ã³ m
in g
Ġest ado
Ġsi st
" ,
ĠEuro pe
Ġt Ãº
B ueno
ri dad
Ġhab ÃŃa
Ġs ent
pa Ã±
Ġa mi
ĠM ar
ĠÃº lti
ti r
Ġ 9
Ġc ambi
Ġ 7
Ġpro ble
Ġse a
m ent
Ġpor que
e a
Ġac tu
Ġp i
or d
l la
D es
os o
min ist
ami li
cu l
i dades
am e
Ġsu per
mp li
Ġc ent
u d
Ġten go
h e
tr ar
Ġm ÃŃ
Ġe fec
Ġm on
Ġs ÃŃ
Ġpers onas
Ġo tra
t ados
Ġm in
Ġmun do
Ġprin cip
v el
ra ciÃ³n
e x
Q ue
s a
Ġpres ent
o bier
di Ã³
a p
Ġin v
Ġob je
p en
Ġto da
e y
C Ã³mo
Ġ 8
ari as
tiv as
Ġhu man
t amente
an cia
Ġtan to
Ġin di
Ġt ar
Ġcas o
Es o
Ġpro duc
Ġest Ã¡s
ĠL a
y o
is mo
- -
Ġdes puÃ©s
ti co
Ġsu b
g e
ĠpaÃŃs es
Ġinter n
Ġc ol
Ġm om
f es
Y a
Ġ1 8
Ġh ombre
gu a
Ġci udad
Ġau tor
ĠD i
ĠS an
Ġmu er
Ġp on
Ġap ro
Ġf amili
qui er
er v
pues to
Â »
Ġq uer
Ġmiem bros
Ġa de
Ġu ti
Ġm er
Ġinform aciÃ³n
Ã¡ r
Ġo tro
x im
Ġdesarro llo
Ġn a
Ġex p
Ġpro yec
c ado
Ãº m
an ci
Ġti po
C re
t ad
P ara
Ġc al
ĠA n
Ġqui ero
Ġemp res
t an
Ã© c
ab an
Ġmen os
Ġt res
Ġde st
Ġa si
Ġm es
Ġso lo
Ġust ed
Ġto das
r os
Ġn ombre
c ri
m on
I n
Ġpo co
Ġ1 0
g ue
om b
Ġen cu
Ġp ens
Ġnue vo
ru po
Ġten er
ĠS ÃŃ
Ġde f
Ġcu enta
Ġdeb e
T ien
Ġac tivi
Ġcos as
Ġt al
P ue
ar ÃŃa
R e
g aciÃ³n
Ġdi rec
Ġre la
Ġ ri
Ġhab er
Ġsi tu
ĠS r
i da
Ġmom ento
Ġp Ãºbl
Ġo f
ĠseÃ± or
Ġc ri
ces o
s os
g ÃŃa
iden te
Ġf e
v an
Ġp es
ĠE l
di a
o c
un tos
fic aciÃ³n
v is
ĠA l
ĠP ro
Ġres ul
g ado
b ro
z Ã³n
Ġp ues
Ġtraba j
m ento
ab i
ol uciÃ³n
p u
Ġe con
Ġh or
in e
Ã¡ c
ĠÂ «
E S
b e
obier no
Ã ī
Ġpue den
Ġse gun
Ġorgan iz
t am
z as
Ġel los
cu p
gui en
Ġg ra
Ġso y
As ÃŃ
L e
Ġcu l
pos i
fer encia
Ġpre gun
f r
G racias
Ġl es
ĠA r
Ã³ r
g res
Un a
ar Ã©
an os
Ġsi empre
ĠA s
Ġ Ãºn
i ta
Ġ z
Ġn orm
Ġpro ce
us o
u c
Ġt em
ver si
Ġd ÃŃas
Ġsi ento
Ġpro te
du ci
Ġre pres
ti cas
Ġespe ci
A r
Ġes per
al a
g er
Ġcomp le
Ġa po
acion ales
Ġencu ent
Ġfin anci
Ġres pec
Ġprim er
li o
lar es
Ġde c
Ġcom er
Ġo tras
Ġprim era
l or
Ġa do
Ġn Ãºm
e ci
t h
v al
ĠD E
00 0
de ra
Ġo fici
ic h
Ġf al
Ġal l
Ġn in
Ġh ist
tu d
y a
Ah ora
Ġcon tro
v os
B ien
ÃŃ st
r ar
l u
Ġno che
Ġ1 5
Ġg ente
ĠG eneral
un idad
d ado
Ġest os
Ġin f
H a
Ġv oy
Ġdi ci
Ġdere chos
ar an
Ġv al
Ġex ist
Est a
Ġsist ema
Ġpe que
Ġhab lar
Ġver dad
Ã¡ l
âĢ Ŀ
ĠE n
ĠD ios
Ġres pon
Ġcon tin
r Ã©
ch as
ĠP res
Ġs an
S ab
Ġpro p
Ġf r
Ġt ras
Ġper mi
Ġnos o
ĠN aciones
ce l
i or
Ġo p
Est oy
H ola
ĠUni das
Ġd in
it Ã©
ĠEst ado
Ġtien es
an d
Ġqui en
Ġb us
Ġni vel
ĠRe g
Ġespe cial
Ġ 0
Ġper ÃŃo
Ġ1 2
e le
Ġcon oci
ist o
al l
Ġmedi das
Ġe res
esti Ã³n
Ãº s
Ġd ar
h i
Ġnoso tros
Ġfu era
ci l
Est o
Ġest as
Ġde j
v as
Ġen ti
Ġtien en
du cciÃ³n
Ġlo c
Ġado p
pues ta
er ra
Ġmedi o
de mos
O h
Est e
Ġpas a
Ġse gui
Ġ k
ter min
ten er
Ġn unca
r ad
e o
por te
Cu ando
t ri
or ia
ab les
ad ie
gn i
Ġg eneral
Ġdi jo
li g
Com o
ĠM a
y e
c tu
ĠM e
Ġdere cho
Ġin te
c or
Ġp adre
e dad
f o
Ġprogra ma
Ġcon o
Ġher man
ent ras
bl ic
per aciÃ³n
cu lar
Ġcon t
Ġser Ã¡
Ġah ÃŃ
un que
Ġg an
d or
Ġman era
Ġel ec
Ġb an
Ġpres ente
H ay
C I
Ġcon di
ens a
Ġestable ci
i on
l en
Ġv uel
ti do
Â Ń
tor es
Ġp al
D i
Ġi de
ui r
Ġad minist
Ġre con
Ġal guien
er as
Ġfun cion
Ġre f
Ġinv esti
Ġb o
Ġa le
Ġc Ã³mo
Ġle g
Ġci er
Ġcual quier
Ġparti cip
Ġv amos
1 0
ĠperÃŃo do
m en
tor io
Ġg u
Ġsegu ridad
ven ciÃ³n
Ġdi fer
Ġin s
Ġor den
Ġin t
Ġfamili a
Ġen tr
i cia
Ġpers ona
Ġpo bl
Ġen tonces
ĠnÃºm ero
Ġinform e
Ġpro fes
Ġaplic aciÃ³n
Ġ19 8
P o
Ġcre o
En tonces
iz o
Ġan ti
ĠIn ter
Ġde termin
Ġpre o
an za
Ġimport ante
or mi
ĠC ar
f e
Ġservi cios
ĠC o
bl es
Ten go
Ġnues tro
i al
Ġre cur
Ġden tro
Ġim p
ĠCom itÃ©
Ġesc ri
Ġre aliz
v isiÃ³n
Ġcom pe
omb res
ci ales
ic e
Ã± or
d an
Ġecon Ã³m
Ġ2 0
Ġp unto
Ġem bar
e z
Ġdin ero
Ġmi ll
Ġ Ã
ab or
si ones
Ġter min
Ġpo der
lar o
ĠâĢ ľ
Ġm Ã©
ten ciÃ³n
ec re
q uÃ©
Ġto tal
S in
Ġhi jo
Ġre un
Ġl ar
j as
Ġrepres ent
Ġex per
v es
ar d
A n
res pon
Ġsol ici
Ġni Ã±os
Ġhaci a
S Ã³lo
Ġi gu
Ġpodr ÃŃa
ĠP a
ĠpolÃŃ tica
E N
bi do
Ġten ÃŃa
re g
Ġten emos
Ġfuer on
Ġv o
Ġex tra
ĠS u
19 9
Ġayu da
ĠF ran
t ando
Ġinter es
Ġj ust
Qui Ã©n
Ġs es
o lo
Ġactivi dades
Ġ1 7
ÃŃ amos
ti cos
a tro
ur os
Ġestu di
Ġnues tra
Est Ã¡s
E R
Ġ1 1
Ġes cu
Ġse man
Ġno vi
ĠT ra
Ġba jo
Ġemp le
vi r
Ã©c n
Ġse ctor
b an
Ġab ri
in i
Ġan te
Ġpue des
ĠC a
Ġm or
ĠReg lamento
Ġb ar
it al
Ġe di
Ġpers onal
Ã¡n do
Ġhaci endo
b ri
O N
teri or
Ġv eces
Ġ1 3
Ġayu dar
Ġc las
Ġun i
r al
Ġsi gni
Ġproyec to
O S
Ġc in
or te
vi l
n e
Ġv is
Ġmujer es
Ġe uro
Ġneces it
Ġcor respon
Ġembar go
ĠEurope a
Ġl im
b as
ĠM i
Ġa g
Ġintern acional
Ã± ana
Ã³ g
Ġpu blic
mi entos
Ġj un
Ġdi cho
v ÃŃa
ĠUn iÃ³n
ent al
Ġg ener
Ġdo cu
r ado
Ġsab es
Ġdi ce
Ġsigui ente
Ġ X
Ġposi ble
Ġg as
Ġrespec to
Ġuti liz
ech a
ali zar
1 2
m ar
ĠL o
Ġ1 4
Ġrel aciÃ³n
e b
Ġ1 6
ĠR o
Ġun os
g or
di da
Ġas es
Ġ )
Qui ero
ici ones
Ġv as
u al
Ġm as
os a
Ġg rupo
Ġpre vi
in as
Ġqui eres
Ã¡ pi
Ġm Ã¡
Ġf or
Ġdici embre
Cre o
Ġa f
ue la
q ues
uer ra
T Ãº
Ġqui ere
Ġc ele
h a
Ġcos a
abi lidad
Ġh izo
st as
Ġs a
m is
om a
Ġmill ones
s on
b or
Ġh oy
p ro
im i
Ġej emp
Ġfin al
Ġalgun os
Ġl uego
Ġ3 0
Ġsab er
ba jo
Ar tÃŃculo
D Ã³nde
al o
Ġ Z
Ġm adre
Ġproble ma
A de
Ġpar ece
ist as
iz aciÃ³n
Ġpre par
on o
Ġde jar
as e
p re
Ġle y
Ãºbl ica
di r
T u
Ġsitu aciÃ³n
u ra
I I
ist e
Ġten dr
A R
Ġpo d
Ġ ...
b ol
m entos
ci den
Ġde se
Ġin ici
Ġg aran
Ġcontro l
ĠA m
Ġpro pi
t ario
Ġequi po
P ar
er da
Ġda tos
Ġparti cular
Ġel e
T ambiÃ©n
Ġcon ti
F ue
se gui
Ġhor as
Ġob s
Ã³ di
am a
Ġmi entras
ti fic
in aciÃ³n
z os
Ġa gua
ti s
Ġest amos
Ġhab l
ĠL e
Ġall ÃŃ
Ġp uer
Ġtar de
ÃŃ tu
il l
l ante
p ti
ri a
Ġne go
bi lidad
pa Ã±a
Ġdec lar
f ico
se Ã±
Ġami go
posi ciÃ³n
Ġmis ma
Ġim por
ver s
k e
Ġb ueno
Ġproble mas
Ġna tur
Ġh ombres
Ġes pec
Ġs ue
t ante
Ġli ber
li tar
di al
P er
v in
Ġproduc tos
ĠJ o
Ġdi ri
Ġca us
Ġmo di
Ġdi f
en cias
ĠPres idente
Ġma Ã±ana
Ġcap aci
Ġigu al
Ġrespon s
Ġpue b
Ġlle gar
Ġcomp ro
Ġra zÃ³n
S oy
Ġn acional
i ble
Ġt Ã©cn
Ġter ri
Ġencon trar
Ġmin u
Ġproce di
Ġex am
A S
Ġcon st
dos e
u aciÃ³n
Ġg racias
gun a
Ġhuman os
Ġac er
Ġin st
Ġbas e
ĠS i
ci onal
Ġpobl aciÃ³n
r ÃŃa
Ġ ru
x to
Ġt us
Ġpal ab
u t
P ro
di ente
ri s
Ġor i
Ġcondi ciones
e za
Ġdis pon
Ġe ran
ar lo
ĠâĢ Ķ
Ġh o
ar Ã¡n
p Ãºblica
Ġqui Ã©n
v Ã©s
im o
Ġre gi
Ġcomun ic
Ġal can
Ġn adie
a g
D O
Ġvol ver
ter a
Ġco o
j es
Ġes os
Ġhist oria
Ġa que
ĠUni dos
Ġin stitu
z Ã³
Ġhab it
t ada
Ġres oluciÃ³n
Ġapar tado
du st
ĠS o
r or
Ġa mpli
re cciÃ³n
Ġbuen a
ic ÃŃa
Ãī l
A N
am Ã¡
Ġapro b
Ġa Ãºn
ĠL i
r y
1 1
bi r
Ġso cial
c to
Ġl ado
Ġvi ol
Ġpas ado
ti l
g Ã³
Ġsegu ro
Ġhay a
pe l
ĠO r
ĠG obierno
- Â¿
Ġmes es
Ġmedi ante
Ġt or
un d
Ġcu an
aci o
Ġpr Ã¡c
To do
Ġtra vÃ©s
ec er
Ġpro ceso
Ġa gr
es ta
fici ente
Sab es
Ġmu chos
Ġs om
Ġco le
Ġem pe
Ġdist in
Ġc ir
Ġh ici
Ġincl uy
Ġsi endo
qui era
Ġapo yo
Ġo port
Ġh ora
Ġf ir
ici p
p era
Ġencon tr
as te
en d
ÃŃ c
ĠInter n
Ġpr ue
Ġmer cado
tam ento
Ġsegun do
Ġo per
g re
Ġdeb en
Ġnue va
ech os
Ã¡ m
Ġ jo
Ġide a
Ġac ab
Ġr Ã¡pi
Tien es
ĠJ u
mi go
den cia
Ġel lo
Ġre com
Ġejemp lo
Ġpo demos
ol u
in ar
en o
Ġv isto
Ġpreo cup
Mi ra
Ġej ec
Ġcu mpli
c al
Ġju lio
Ġen fer
z ado
ĠB ar
Ġe vi
Ġsab e
Por que
Ġsigni fica
ent as
mp le
ui do
h o
Ġhacer lo
p as
Ġempres a
ĠP or
t Ã¡
N os
Ġasi st
Ġ2 5
Ġcu atro
Ġz ona
ĠRe pÃºblica
Ġp el
Ġjun io
versi dad
Ġpres u
Ġconsi der
V en
2 0
Ġin de
Ade mÃ¡s
H e
Ġ w
Ġt ri
se gu
Ġsi g
Ġgust a
ar me
Ġam or
on to
Ġau to
i onal
ĠS ecre
Ġma tar
Ġreg res
te l
Ġcom paÃ±
Ġs os
Ġcu er
Ġrecur sos
ĠCom unidad
st o
Ġlo gr
Ġma ter
Ġdes a
Ġus o
Ġs ino
Ġex pres
l aciÃ³n
E x
El la
ĠÃ ģ
ĠDi rec
r ic
H as
t amiento
Ġd Ã³nde
Ġse gÃºn
i ado
Ġa fec
Ġcom par
Ġ os
d am
Ġa ta
Ġsigui entes
Ġ is
ri Ã³
Ġl ÃŃ
Ġar reg
i dos
er n
e ta
Ġes f
Ġp ie
Ġa cep
Ġencuent ra
Ġam bi
Ġa unque
ol Ã³g
t Ã©
lo gÃŃa
Ġs ac
ex o
Ġpa z
Ġ19 7
Ġde mas
Ġf ran
rib un
ci miento
Ã± as
Ġl ÃŃn
Ġval or
ber n
Ġe uros
Ġprogra mas
H ab
Ġmuer te
Ġb ene
ĠD es
Ġ ur
E res
Ġalgun a
ran do
Ġvi a
Ġpar tes
Ġma teri
Ġen vi
ĠÃºlti mo
ÃŃtu lo
ĠC or
t t
N eces
Ġin stru
Ġpro mo
Ġprote cciÃ³n
Ġm ÃŃo
Â °
Ġ [
3 0
pos iciones
Ġse x
ti dad
Ġg uerra
Ġes as
ĠL ey
Ġo cur
Ġo l
ĠM on
ĠC ent
Ġcon ven
Ġa tra
Ġcon migo
ien e
aliz aciÃ³n
Ġreg ist
er te
Ġeuro pe
ay a
Ġf on
Ġparti r
d on
Ġpla zo
Ġque dar
âĢ Ķ
duc aciÃ³n
Ã ĵ
b ra
ĠM in
p Ã¡
Ġa cu
Ġes pos
ĠP er
e te
Ġp en
1 5
Ġlar go
Ġcom en
Ġc ui
ra te
duci r
Ġobs erv
f a
Ġd Ã³
Ġc li
ĠI s
Ġalgun as
Ġg en
i as
Ġsu r
tiv amente
Ġ Ã³r
ĠÃºn ico
g ro
Ġen car
Ġint ent
Ġen ero
Ġnovi embre
Ġin vi
Ġf o
Ġinvesti gaciÃ³n
tor ia
cl u
N unca
Ġcont rib
ti Ã³
i d
di co
ĠT o
Ġe jer
Ġp ien
Ġdeber ÃŃa
Ġcambi o
Ġn acionales
ĠB a
Ġp Ã¡r
Ġcon stitu
d ÃŃ
Ġpol icÃŃa
Ã© j
Ġg obierno
A quÃŃ
ti on
el l
ĠM un
M uy
ĠEurope o
em as
Ġcer ca
ĠPar lamento
Ġh emos
Ġcam ino
l los
ĠEuro pa
Ġadminist ra
Ġso ci
ien cia
b os
Ġdi je
in os
imi ento
Ġcom Ãºn
Ġimpor ta
Ġof re
Ġservi cio
Ġin dust
Ġt ec
Ġfr ente
ar es
Ġe val
Ġempres as
Ġman ten
ti o
re a
ctu bre
Ġmar zo
Ġtra ta
Ġdeci siÃ³n
Ġcon stru
un ci
1 6
Ġcin co
ue va
ent ales
Ġj ur
am ble
re mos
Ġleg is
er ic
Ġre fi
Ġmay o
B uen
Ġ2 4
Ġf Ã¡
Ġcon segui
Ġcon j
g les
ch es
Ġla bor
Ġses iones
Ġser ÃŃa
ci to
_ _
Tien e
Ġgran des
Ġq u
Ġtem por
pti embre
di endo
Ġmater ia
ci n
tr Ã¡s
Ġcoo peraciÃ³n
Ġvi e
Ġmiem bro
Ã ¼
Ġcent ro
r Ã¡n
u la
m bi
Ġcon ten
Ġan im
Ġneces ario
Ġmo vi
ĠB o
un a
Ġsal ud
D ios
Ġmun icip
Ġte le
1 8
A L
Ġcu r
Ġcab eza
S olo
Ġnues tros
z Ã¡
Ġrel acion
tr an
h er
Ġsu ce
Ġpro por
amble a
Ġdi ver
Ġo ctubre
Ġf echa
Ġser io
Ġt rad
ormi dad
ĠdÃ³ lares
t s
Ġmo do
Ġcele br
ÃŃ fic
er ÃŃa
Ġj unto
t Ã³n
Ġcons ec
Ġen er
Ġcas os
Ten emos
ĠP o
Ġtom ar
To dos
Ġdemas iado
Â º
R ec
l las
ĠO fici
Ġgaran ti
Ġs en
t Ã¡n
tu ras
Ġpueb lo
Ġde mÃ¡s
di to
Ġ :
Ġmayor ÃŃa
Ġpue da
Ġconti go
e des
e fe
Ġser ie
Ġg ol
par tamento
h n
Ġcomun it
Ġse cre
Ġc ora
Qui eres
Ġpri v
Ġcu ar
c k
Ġal im
Ġre al
Ġse ptiembre
Ġmen cion
S on
Ġpro ducciÃ³n
Ġmar co
Ġri es
a vi
Ġmu chas
ÃŃ do
Ġmu cha
D is
Ġpel ÃŃcu
Ġpr Ã³
bi Ã³
ĠD er
Ġc ara
Ġbene fici
5 0
Ġv an
Ġpues to
Ġs ali
im a
Ġconf ormidad
Ġsent ido
ic amente
Ġal gÃºn
p le
Ġcas i
ĠM o
ch ar
Ġsal ir
Ġade mÃ¡s
ic k
ĠA le
ch i
i re
ri m
Ġa tenciÃ³n
l er
di c
Ġpon er
br ero
CE E
Ġo cup
Ġsu ficiente
Ġv ir
Ġen ten
i fic
Ġdifer entes
Ġseman a
in ado
Ġnin gÃºn
Ġre alidad
Ġnorm as
O M
t om
Ġc r
Ġ2 2
O R
Ġr ad
Ġar mas
ĠS al
Ġe v
Ġa segu
Ġe r
Ġabri l
ĠpÃºbl ico
Ġpas Ã³
Ġli bre
ĠÃºlti ma
on ales
Ġl ista
ci s
O ye
Ġ200 6
Ġnin guna
Ġpas ar
M u
ĠE x
u rante
Ġcontin u
Ġcon te
Ġquer ÃŃa
ĠmÃ¡ xim
g ia
Ġhu bi
pi os
Ġami gos
Ġcapaci dad
Ġllev ar
Ġminu tos
er vi
Ġac ceso
ĠAs amblea
Ġt Ã©r
. "
C h
Ġcon fi
Ġre almente
Ġob li
1 4
1 3
Ġest ru
Ġb lan
ci dad
ÃŃ r
Ġ %
Ġa t
Ã¡ g
I C
ad amente
Ġcu estiÃ³n
Ġherman o
Ġdif ÃŃ
Ġas oci
A D
ĠÃ¡ mbi
Ġobje tivo
Ġsu pon
Ġincl uso
di entes
Ġuti li
ĠSe Ã±or
Ã©r ica
V oy
Ġconsi dera
Ġr en
Ġcons ul
Ġcu esti
ĠseÃ± al
Ġper man
Ġdes cu
ĠF e
Ġen seÃ±
es t
Ġi den
ribun al
k a
c ent
Ġcier to
v ar
Ġp an
ĠC u
Pue do
Ġ200 5
Ġol vi
Ġ200 0
Ġform aciÃ³n
Ġsu puesto
form e
ru pos
Ġre c
ĠG u
Ġor ig
w w
tar ÃŃa
o o
Ġg estiÃ³n
ali a
ĠL os
Ġt he
ĠP ol
Ġdis posiciones
Ãĵ N
Ġti erra
Ġreg iÃ³n
st ed
ĠSe gu
Ġv arios
Ġman o
Ġa gu
Ġincl ui
Ġcon ver
T ra
l ica
Ġf aci
g ada
er en
u man
Ġintern acionales
ĠD O
Ġre gu
ĠprÃ³ xim
Ã© is
ĠA d
ĠMin ist
Ġfi gu
Ġprincip al
Des de
ten cia
t adas
ĠN acional
Ġl an
Ġc alidad
Ġorganiz aciones
ĠB an
ĠC as
ĠN e
Ġcomp ren
ĠM an
Ġres pe
Ġcuer po
Ġefec tos
Ġcuan to
Ġ200 4
Ġm os
or n
Ġv ista
ĠCa tal
Ġprim ero
Ġsegui r
Ġj ue
st an
Ġre co
ci siÃ³n
es e
1 7
ĠIntern acional
Ġpa pel
f f
cep to
is mos
i le
Ġde bido
te c
I N
r in
Ġtu vo
tu ro
a u
ver dad
Ġpro puesta
Ġvi g
Ġest re
ac k
Ġorig in
Ġcab o
ĠpÃ¡r ra
de ro
es te
Ġpro b
ab as
Ġre alizar
ti c
ad ora
Ġes paÃ±
Ġni Ã±o
Ġresul tados
ĠtÃ©r min
ĠC ol
Ġca te
Ġdef ini
able mente
Ġhi jos
g el
Ġ2 3
Ġt ema
Ġmedi os
x i
qui si
Ġust edes
Ġj uego
si a
ĠpolÃŃ ticas
b ic
Ġjur ÃŃ
Ġtoda vÃŃa
d Ã³
Ġcon ce
ĠG rupo
Ġrecon oci
l ado
Ġg rupos
Ġg o
ĠlÃŃn ea
Ġfun dam
pues tas
Ġesf uer
Ġha c
Ġsi gue
Ġm Ãºs
Ġade cu
Ġin cre
Po dr
g im
Ġel em
Ġpodr Ã¡
Ġmodi fic
Ġ2 6
Ġmu es
Ġha ces
gi do
Ġinst al
un ta
Ġacer ca
Des puÃ©s
Ġ Q
ĠC am
Ġa di
ÃŃst icas
li e
Ġsig lo
ĠEs paÃ±a
teri ores
bi a
N i
2 01
Ġen can
Ġ200 8
Ġ200 7
Ġdis par
Ġfal ta
Ġm ol
Ġprocedi miento
Ġ /
Ġmi erda
Ġap ren
Ġpuer ta
m Ã¡
Ġun as
Ġan exo
Ġt emp
Ġch ica
e as
Ġsu f
Ġmo de
I S
U R
Ġgran de
ĠC an
Ġv ac
Ġe ducaciÃ³n
Ġsegun da
Ġc ru
-- --
Ġper ten
Ġconsec uen
Ġel abor
r on
Ġpu di
Ġman os
Ġ19 6
Ġde ba
b ur
E se
Ġclas e
c ando
.. ..
Ġpro me
2 5
Ġtrabaj adores
de dor
Ġv ari
di ca
Ġfe brero
Ġproyec tos
Ġcar ac
Ġasist encia
l y
I D
ar emos
Ġmuer to
ĠC E
Ġprincip io
Ġsoci edad
u mi
er va
Ġcora zÃ³n
p ciÃ³n
Ġc l
ĠP e
Ġmi litar
Ġno ti
er an
Ġest Ã©
Ġman i
Ġde r
Ġe dad
Ġman tener
S Ã©
Ġ Yo
gos to
Ġpre cios
Ġinter Ã©s
ad res
U sted
mon io
Ġtraba jar
z co
ĠdifÃŃ cil
Ġparticip aciÃ³n
Ġautor idades
E ra
ĠSecre tario
gim en
Ġmedi da
Ġhi ja
Ġsuper ior
Ġ2 1
Ġac ciÃ³n
Ġinde pen
ĠÃºn ica
g l
Ġ2 8
lu b
j ust
Ġcar go
Ġop in
Ġre cu
p ero
ĠL u
i ficaciÃ³n
Ġ3 1
Ã© gimen
Ġc laro
Ġnue vos
Ġu bic
Ġfu turo
Ġt el
P re
mis o
Ġar ri
Ġactivi dad
cu lo
Ġcon ta
m es
ĠTra tado
ĠSegu ridad
ĠN ueva
Ġpropor cion
Ġobje tivos
vi a
M a
Ġin gres
Ġ2 9
Ġnue vas
Ġobje to
Ġoport unidad
Ġfuer te
ens o
im os
Ġgu ar
Ġf ra
Ġse is
ĠfÃ¡ cil
Ġb ri
om ÃŃa
Ġorganiz aciÃ³n
Ġ200 2
orm ente
ĠDirec tiva
Ġb i
or k
Ġ2 7
ti da
b res
ari Ã±o
Ġten ido
Ġ200 1
il la
ci do
u do
Se Ã±or
Ġ5 0
k i
ĠG ran
Ġneces idad
Ġb e
an as
4 0
Ġlu z
r era
Ġ200 3
Ġespos a
Ġ201 0
Ġhab ÃŃan
Ġob st
ol ver
Ġvis it
Ġre fer
Ã¡n dose
De b
Ġpa pÃ¡
Ġm ÃŃn
Ġcu ales
Ġob ra
Ã³ si
Ġa gosto
Ġcuesti ones
ent ar
Ġespecial mente
e do
Ġdi o
Ġau ment
Ġd ado
Ġal to
Ġpr onto
Ġm amÃ¡
Ã¡c ter
g encia
Ġh os
Ġimport ancia
Est amos
Es pera
Ġsi mple
Ġti tu
Ġtu vi
Ġreun iÃ³n
Ġprincip ales
Ġo jos
ĠC i
Ġesp era
Ġtec no
Ġab s
ĠpÃ¡rra fo
Ġcar Ã¡cter
Ġn orte
Ġre cor
n y
Ġa bier
Ġdi recciÃ³n
li dades
Ġn aci
Ġp aci
R es
Ġm ec
D urante
Ġg ri
ĠU N
ci pios
Ġper io
Ġpeque Ã±o
Ġsist emas
ĠpelÃŃcu la
Ġh on
Ġa van
g io
ue lo
Ġter cer
Ġp untos
z Ã¡s
ir m
k o
q uer
f un
T A
b al
or o
tÃŃcu los
Ġejer ci
Ġan d
teri ormente
Ġcate gor
S al
Ġprofes ional
Ġcor rec
Ġde si
ĠT i
Ġcon ci
Ġcono cer
ĠD o
Ġpres idente
Ã³di go
t ÃŃa
Ġc rÃ©
gles ia
Ġin icia
Ġcap ital
u di
Ġener gÃŃa
Ġrela tiva
m or
er io
Ġr Ã©gimen
Ġposi ciÃ³n
Ġin me
d Ã³n
Ġcol abor
p h
ĠH ola
Ġve o
ĠÃ¡mbi to
Ġsan gre
gra ma
Ġprop ia
Ġestu dio
Ġs or
Ġdist rib
Ġefec to
p ren
ar te
Ġper fec
Ġcarac ter
Ġas pec
ĠMun dial
Ġc ali
g ando
Ġar ti
Pue de
er to
Ġ1 00
Ġpas o
S r
z ada
gi da
ĠM Ã©
Ġprop io
Ġsi tio
em e
Ġall Ã¡
Ġj untos
Ġestru c
Ġactu al
ami entos
ĠÃ³r gan
ci na
Ġen trar
om in
Ġf a
Ġres puesta
Ġimport antes
Ġt ro
i ra
Ġse par
Ġcre aciÃ³n
Ġoper aciones
Ġp in
v ent
Ġedi fici
Ġan terior
Ġhabl ando
ĠM u
Ġse an
Ġver da
g amos
Ġsu erte
ri tu
is is
Ġl en
Ġsi quiera
ri o
fr ica
es tr
Ġdes em
Pue des
ĠI I
ĠrÃ¡pi do
Ġllam ado
A c
Ġcom b
ti endo
t ales
Ġnego ci
ĠJ os
Ġde pen
Ġdel e
Ġexp lic
Se gÃºn
ÃŃ fico
f ÃŃa
Ġres to
ĠT er
ec en
Ġesc uela
Ġk m
Ġpalab ra
Ġlim it
Ġmor ir
Ġapo y
Ġv arias
Ġal ma
b u
ĠH o
g ent
x ico
Ġch ico
Ġcomun idad
Ġinstitu ciones
gr Ã¡
Ġb or
Ġfun ciÃ³n
Â» .
2 2
Ġcre er
Ġti pos
j iste
c Ã³
t y
Ġcam po
Ġar m
Ġbus car
Ġbas tante
ĠR u
Ġest aban
Ġjo ven
Ġi ba
Ġcre es
Ġe t
Ġneces ito
Ġprin cipios
T al
C laro
Ġa cuer
Ġel im
t aciones
Ġgust arÃŃa
a te
ĠT ribunal
Ġen fr
diÃ³ s
form a
ĠUni versidad
ent aciÃ³n
Ã¡n to
tar on
Ġconsegui r
ĠV al
T E
Ġrecom end
ĠCon venciÃ³n
c ados
Ġse le
d ÃŃa
Est aba
di ciÃ³n
ente mente
p ul
Ġco ord
g ados
pues tos
Ġv enta
Ġcu ad
Ġemple o
t aria
Si empre
8 0
Ġt a
Ġso ciales
Ġhubi era
la ter
Ġcal le
Ġob lig
Ġvol un
Ġde tal
on ia
ĠS a
ĠE con
den te
is o
Ġo cas
ri do
ien da
De ber
cion ales
Ġp Ã¡g
Ġp adres
p ol
Ġpod ÃŃa
Ġac om
j ero
r Ã³
D Ã©j
le y
s as
Ġha cen
Ġtrans porte
Ġ200 9
Ġlu cha
R E
dad os
Ġmi edo
Ġg Ã©n
Ġque da
Ã© f
Ġex ac
Ġd ormi
Ġpalab ras
Ġestudi os
Ġter ror
ÃŃc ti
Ġf ac
it Ã¡n
ĠÃ© x
Es a
Ġre ferencia
Ġconf lic
Ġch icos
Ġcom ien
r ada
A unque
M ar
de o
re dedor
Ġpro vin
d ores
Ġpregun ta
Ã¡l isis
g al
Ġesp acio
2 3
de z
ĠpÃºbl ica
Ġz onas
Ġofici al
Ġm ensa
es iÃ³n
Ġf re
Ġutili zar
Ġdi go
n as
Ġloc al
Ġes ca
Ġar tÃŃculos
Ġenfer me
Ġarreg lo
Ġre y
vi Ã³
tr ic
Ġel las
Ġpes ar
Ġli bro
c am
gu en
Ã©r cito
dr Ã¡
Ġte xto
p l
Ġven ir
Ġb al
Ġb Ã¡s
t ero
ĠN a
Ġt am
as a
u da
Ġest i
Ġprue ba
6 0
Ġin ver
Ġin tro
h an
vi du
Ġsab ÃŃa
Ġcom e
Ġj efe
Ġf ui
gl Ã©s
ĠT e
Ġv ÃŃcti
r ue
Ġresul tado
Ġin cor
ĠespaÃ± ol
Ġliber tad
u era
Ġparti do
Ġinte gr
Ġpo bre
gra ciÃ³n
Ġb eb
tr Ã³n
Ġespeci e
ti en
Ã į
Ġdes cri
ÃŃst ica
Ġvi vir
Ġfuer za
Ġvuel ta
tar se
N ada
Ġdo min
Ġb ol
Ġries go
ĠJo hn
b amos
Ġparti ci
2 4
Ġcomunic aciÃ³n
L le
u Ã±a
Ġv iene
S er
os as
ĠB CE
Ġab and
Ġneces ita
Ġdi c
Ġd Ã©
aci a
par a
ĠÃ©x ito
ĠÃºlti mos
ĠS ra
le o
Ġnues tras
ĠR a
Ġestable cer
ĠmÃºs ica
Ġh ice
di das
Ġconj unto
ĠU E
Ġca pa
Ġp l
Ġindi vidu
Ġa gra
Ġpa gar
li a
d amente
arro llo
Es cu
Ġgas tos
ĠeconÃ³m ica
n er
En tre
c ciones
Ġeval uaciÃ³n
oso tros
Ġpens ar
A CI
M Ã¡s
Ġgaranti zar
Ġra z
Ġinter pre
Ġcon tar
man ia
Ġam ena
Ġf ab
Ġcir c
Ġpro gres
Ġcon cre
Ġt ur
Ġcan tidad
Ġneces idades
ui cio
u ales
ĠY ork
uc le
ĠG racias
Ġescu ch
ĠâĢ ĵ
ĠH a
Ġest ad
Ġ &
Ġtra tamiento
ĠH ar
v Ã©
ĠP re
Ġestu vi
Ġac ciones
Ġterri torio
Q uer
Ġpeque Ã±a
Ġambi ente
cep ciÃ³n
m Ã¡n
C or
Ġdest ac
di ta
Ġmi l
2 6
Ġtel Ã©f
ĠL as
er ro
Ġd ro
on g
Ġcaus a
u siÃ³n
Ġa vi
t aba
Ġmunicip io
ĠOfici na
Ġconstru cciÃ³n
Ġllam a
A M
e lo
po co
ĠSo cial
Ã³ ven
Ġanti gu
Ġpro ces
Ġcr ÃŃ
Ġc lar
Ġh om
gu es
Ġten ga
g ir
Ġper i
ĠDe partamento
Ġest rate
Ġ #
Ġvie jo
Ġfo to
il lo
ĠFran cia
Ã³ven es
Ġform as
Ġci ent
Ġori gen
ĠmÃ© to
cel ona
Ġdocu mento
Ġa du
V ale
un iden
Ġde mo
tur al
Ġa z
Ġinter ior
Ġevi tar
ues tra
Ġhab i
Ġr ÃŃo
Ġmun dial
ĠOr gan
Ġejec uciÃ³n
Ġex ten
ĠCatal uÃ±a
Par ece
Ġal ter
Ġgol pe
r ados
ĠCon ven
Ġvi v
) ;
l in
Ġ4 0
Ġconsi de
J o
Ġcon tr
ri to
Ġmu lti
g on
u ciones
f ru
M al
Ġser Ã¡n
ĠMÃ© xico
Ġin glÃ©s
Ġarri ba
la ve
P ens
d y
Ġin ten
Ġf ÃŃs
Ġsi r
m er
s is
ĠP lan
ĠDe cisiÃ³n
Ġexper iencia
Ġhabit antes
/ /
Ġex tran
Ġrefi ere
tor ios
Ġfre cu
Ġfun ciones
Ġsom os
Ġmejor ar
. ,
Ġ il
ac ciÃ³n
Ġinform es
Ġposi bilidad
p ri
i ente
Ġelem entos
lo g
i bles
Ġexp lo
Ġ199 9
E L
Ġde mos
Ġal rededor
Ġfr on
Ġim pres
Ġdesa par
Ġab o
Ġna ve
Ġal ta
im e
ĠDer echos
u lar
ĠprÃ¡c tica
ĠB uen
Ġm ent
2 9
t ente
Ġrel aciones
Ġconoci do
Ġar chi
P ues
Ġloc ales
Ġcons erv
A d
b s
Ġha ga
Al gun
tar Ã¡
Ġam bos
Ġinf l
Ġseman as
un idades
tt p
Ġfon dos
Has ta
Ġmu s
Ġn om
Est as
Ġpro fun
Ġexam en
Ġsa tis
Ġcor re
ĠH uman
Ġprue bas
V i
Ġcuar to
ĠÃ© ste
Ġsuper fici
ic ul
Ġcar rera
Ġindust ri
y Ã³
Ġdirec tor
Ġpue dan
da p
2 7
c ol
Ġf an
ĠAm Ã©rica
tr Ã³
Ġb ro
Ġve h
Ġj Ã³venes
Ġestable ce
: //
Ġb on
T O
pe cial
t bol
Ġestu vo
cu los
di os
Ġjust o
Ġestado uniden
Ġconsi gui
t able
N U
Ġproduc to
Ġcre cimiento
Ġno ches
im ismo
ĠRe ino
Ġsi mi
Ġco che
Ġpe le
ra el
Ġn um
Ġllam ada
Ġcompe tencia
Ġsol a
ra mos
Ġdeci siones
ciden te
Ġob ras
ĠseÃ± ora
Ġcol or
Ġmec an
Ġre cuer
ta te
Ġesfuer zos
Ġref le
ĠL A
Ġejec u
Ġsos ten
b y
al la
Ġob tener
ar e
Ġcent ral
Ġper der
2 8
Ġen s
Ġdesarro ll
Ġest im
Ġa just
Ġt on
S us
ĠCon ferencia
V e
t antes
cri min
Ġdest in
Ġrespons abilidad
Ġex i
Ġal i
C ar
P a
Ġdo ctor
ĠDes arrollo
m ul
Ġpe li
si on
Ġn ucle
y un
Ġ19 4
j ado
ĠmÃ© dico
Ġg lo
ĠConven io
Ġan Ã¡lisis
n i
Ġpreo cu
Ġt ÃŃtulo
Ġtendr Ã¡
Ġp len
ali dades
Ġenti dades
Ġopin iÃ³n
t Ãº
Ġdes p
Ġ on
p ital
Ġdeber Ã¡
eci Ã³
Ġv in
Ġa bajo
ĠJ es
iden cia
Ġre d
S o
Ġban da
Ġincor por
Ġdi ab
ĠR es
Ġde man
Ġe mi
Ġpri or
b um
Neces ito
Ġconst r
Ġpresu puesto
e or
Ġen ci
Ġade lante
Ġespec ÃŃfic
Ġdi ez
Ġo c
Ġa ire
c ambi
Ġa dap
ĠÃ© po
Ġbien es
Ġexist e
stan cias
ĠlÃŃ mi
jer os
Ġcor ri
Ġmej ores
lan d
ĠEcon Ã³m
Ġas unto
Ġen ter
ti ficaciÃ³n
Ġf is
ĠtelÃ©f ono
ari dad
Ġus ar
Ġmo der
Ġentr ada
k er
Ġveh ÃŃcu
Ġ it
Ġenten der
tal la
Ġpas ando
z an
Ġim ag
ĠJu an
Ġvir tud
Ã ĥ
ale za
Ġlegis laciÃ³n
ĠmÃ¡xim o
ĠgÃ©n ero
ĠIn stitu
Ġvia je
Ġci vil
Ġsent ir
Ġau mento
C i
Ġcre ar
Ġapro xim
Ġpro du
Ġpa go
Ġcomer cio
Ġle van
pon er
Ġg ui
Ġfuer zas
Ġtempor ada
Ġt ales
Ġejerci cio
ĠS h
ĠE j
Ġdici endo
ĠÃ¡ l
Ġm ari
Qui zÃ¡
ĠÃ¡ rea
Ġfab ric
Ġrela tivo
Ġofici na
Ġnorm a
Ġobst ante
ĠE E
Ġagra de
Ġad mi
Est os
g h
os os
Ġ '
Ġc ariÃ±o
2 1
ĠM al
Ġ19 5
pu lar
Ġher mos
ri d
Ġhab rÃŃa
Ġa trÃ¡s
3 5
i de
ĠF in
Ġpermi te
tu des
Se gu
Ġper tin
Ġcri ter
Ġprote ger
Ġme tros
T R
den tes
Ġpeli gr
z ando
ĠM ad
Ġv ino
Ġfi esta
Ġmedi a
Ġmi tad
Ġenti endo
d ra
Ġ201 1
um en
Ġempe zar
ĠJ ust
Ġsu je
Ġno ta
Ġcon vir
T I
en ci
Ġ $
is a
Ġlle va
tri monio
Ġequi vo
Ġ ?
Ġacom paÃ±
c ra
U N
ĠT en
Ġcan ciÃ³n
To da
i das
em i
Ġdeclar aciÃ³n
ĠcompaÃ± ÃŃa
Ġde ri
Ġviol encia
Ġlen gua
v amente
Ġt rÃ¡
Ġsolici tud
c era
Es per
Ġlle gÃ³
Ġperi Ã³di
ich a
ĠF on
Ġest arÃ¡
Ã© st
p lic
Ġex pe
T om
Ġrela tivas
Ġaband on
ment aciÃ³n
Ġfinanci aciÃ³n
N adie
ĠB ien
ĠAd minist
Ġpregun tas
tur ales
Ġrecon o
Ġf il
bern am
Ġenti en
Ġpodr Ã¡n
uer to
Ġh arÃ©
Ġprim eros
Ġpresu pues
Ġi do
Ġfe liz
Ġcom ida
Ġprocedi mientos
Ġhay an
l lar
Ġtom a
ĠÃ¡l bum
Ġpre cio
Â ²
Ġdesem pe
Ġlo co
Ġre quisi
Ġdis puesto
Ġsegu ra
Ġt ÃŃo
ĠA cuerdo
k y
tor ial
Ġdi cha
Ġju gar
Ġform ul
ĠeconÃ³m ico
Ġesper ar
Ġan o
Ġcon duc
- Â¡
Ġcom ba
Ġdocu mentos
Ġin fer
Ġasi gn
Ġne ga
Ġcre e
Ġherman a
z quier
M an
T ras
Ġses iÃ³n
Ã© l
âĢĿ .
Ã©n do
i vo
Ġre tir
tivi dad
Ġc lub
Ġle jos
Ġcui dado
estr uc
Ġex port
3 3
Ġo cu
Ġv es
Ġman da
C N
mi o
ĠN i
ĠSan ta
Ġqu in
it as
Ġadminist raciÃ³n
Ġnatur al
Ġar ma
ti ene
m y
Ġentr en
ta des
ĠÃ©po ca
Ġre vis
Ġllam ar
w a
ĠI t
ĠAle mania
Ġfin ales
an g
Ġestableci do
ador as
re as
form aciÃ³n
Ġre v
ĠtÃ©cn ica
Ġ( "
Ġcur so
s u
r Ã³n
ti dos
Ġmateri al
Ġju g
ĠT he
ÃŃ os
ĠO ri
ĠJ e
Ġconsecuen cia
9 0
Ġinf ra
ÃŃ m
Ġindust ria
Ġc ere
Ġhici ste
li gi
Ġsue lo
ĠE S
ar o
Ġcumpli miento
ĠT h
Ġse c
Ġha go
Cu Ã¡l
ci Ã³
ĠP rim
Ġt esti
t Ã©n
Ġre par
g aciones
Ġfor tal
co lo
si st
ĠM or
ĠA u
Ġdirec tamente
ol i
Ġdeb emos
me tros
tu vo
19 8
Ġval ores
Ġa co
Ġexper im
t ÃŃn
F in
ĠpolÃŃ tico
ic al
Ġinter cambi
Ġalcan zar
q uen
ĠR ec
ĠC ri
Ġdis fru
Ġanim ales
Ġet c
ĠEst a
Â ª
U E
Ġmin ist
ĠÃģ frica
Ġdis cu
g ran
an e
Ġcon cent
Ġmis iÃ³n
Ġindi c
Ġsu st
r ales
Ġf om
Ġnivel es
Ġmode lo
Ġhon or
A y
ba j
Ġgener ales
âĢ ¢
Ġcent ros
ui s
Ġcul pa
Ġh ar
Ġciudad anos
Ġfon do
Ġedifici o
Ġm em
Ġp lante
Ġequi pos
P E
Ġc el
... ?
vi sta
Un o
Ġdi jiste
Ġho gar
Ha ce
Ġnatur aleza
Ġfir m
st os
Ġob ten
v ado
on d
âĢĿ ,
di dos
Ġdescu bri
Ġayu das
Ġorgan ismos
Ġus u
Ġfue go
Ġcategor ÃŃa
si era
Ġpartici par
pon go
T he
Ġlogr ar
Ġdi ces
ar ca
men es
Ġtecno logÃŃa
Ġtraba jos
Ġdi ferencia
Ġbus cando
Ġp Ã©r
3 6
Ġmanten imiento
C o
om as
ĠCent ro
Ġcam p
Ġl ic
ĠU d
Ġmen or
Ġvo z
ĠF i
Ġvi vo
Ġmis mos
Ġde v
ĠPro grama
Ġtem as
Ġl in
ĠV i
ĠtÃ©rmin o
ali za
as ta
Est Ã¡n
ord in
Ġconta cto
di eron
Ġex tre
L uego
Ġpresent ar
ber t
v aciÃ³n
Ġdeb o
7 0
e dades
Ġelec trÃ³n
Ġmi ra
C A
to colo
Ã³si to
ĠA ust
ÃŃ ritu
Ġtam poco
Ġpermi tir
Ġb u
Ġ201 2
Ġhab la
Ġrad io
ĠUn ido
er no
gent ina
ĠpÃºbl icas
Ġten iendo
Ġmal o
Ã©n dose
Ġdeba te
ĠD an
ren o
Ġ6 0
p ia
dad a
Ġacuer dos
Ġquien es
Ġde bi
Ġacu s
Ġmovi miento
en as
Ġdo lor
Ġcambi os
Ġcorrespon diente
st ico
an zas
Ġaque llos
Â «
Ġ Ã³
Ġefec tu
__ __
Ġcirc un
Ġb el
on te
Ã¡m ara
ĠH er
Ġcumpli r
Ġse cciÃ³n
4 8
Ġf l
Ġqui eren
vi les
am eric
Ġcambi ar
c Ã³mo
Ġvi gor
Ġautor iz
Al guien
Ġcar ta
Ġdifer ente
ĠN orte
Ġmues tra
Re g
Ġhabit aciÃ³n
V er
am ento
Ġespeci ales
Ġpues tos
t ina
Ġsol uciÃ³n
Ġrepresent antes
ĠC ON
es tro
H ey
C ada
ion ales
ĠT a
Ġecon omÃŃa
Ã ģ
L es
Ġv ali
ĠP R
Ġe fica
Ġingres os
Ġinstru mentos
Ġf ru
m per
Ġ199 8
ĠB en
c Ã©s
Ġpro hi
Ġpresent aciÃ³n
ĠcrÃ© dito
Ġl ec
Â» ,
ĠC ap
ap Ã¡
B a
ĠCh ina
Ġi zquier
Ġmon ta
ĠBar celona
or t
Ġsuperfici e
3 8
Ġescri to
ĠD r
ĠG o
Ã¡ lo
ĠS te
Ġver siÃ³n
Ġnom br
Ġb ra
Ġde ten
Ġpres encia
u ri
Ġgo bern
Ġprovin cia
Ġrecu per
Ġabs olu
Ġh arÃ¡
ĠG re
Ġregi ones
d ro
Ġjust icia
3 4
Ġres ta
Ġcas ti
gra fÃŃa
Ġfigu ra
Ġcri sis
ul s
Ġo tor
Ġex clu
mon ios
Ġpe dir
Ġmensa je
ri r
Ġexac tamente
ĠCent ral
ĠW il
Ġdes con
de l
di cos
3 7
Ġases ina
Ġgra ve
Ġplan es
Ġcole c
Ġpro vo
Ġej Ã©rcito
ĠJ a
Ġpos e
p ir
ĠY a
Ġcontra to
Cre es
Ġcan dida
Ġa ver
Ġpr os
Ġpro puestas
Ġencuent ran
tic amente
ĠprÃ¡c ticas
Ġl len
Ġres erv
f Ã©
Ġmu riÃ³
Ġv ent
Ġ Que
Mi entras
Ġbeb Ã©
ĠÃ© sta
ĠP la
âĢ ĵ
Ġenci ma
pon e
ĠG ar
Ġtra tar
Ġdis crimin
ca p
Podr ÃŃa
Ġ ras
Ġcon den
Ã ¨
Ġpublic aciÃ³n
ĠV er
ĠH e
duci do
ĠA c
3 9
Ġba ja
Ġar te
Ġis la
b ara
ti tud
ĠB er
b ado
Ġpe lo
gi Ã³
5 5
Ã© tica
obier nos
g in
ĠS ervi
ad Ã¡
Ġpens ando
Ġv aya
ĠEs pecial
ÃŃ fica
ĠP ac
Ġg rado
i b
g Ã¼
v ÃŃ
ĠJos Ã©
Ġaspec tos
Ġreci bir
Ġres i
ĠS er
Ġsab emos
Ġregi onales
il es
Ġ *
Ġcu ya
ti z
Ġsom e
ĠJ ack
w n
Ġre ligi
Ġasegu rar
O L
Ġcab al
D os
g ica
Ġur ban
Ġsu minist
ues tro
Ġcomen zÃ³
Ġmon e
Ġesti lo
Ġlugar es
A C
A diÃ³s
da te
ĠHuman os
p an
Ġcon clu
ĠC OM
i te
Ġp ena
Ġv esti
cios o
Ġpropi edad
Ġencon tra
b ras
fic ado
Ãº pi
Ã ł
Ġhuman o
Ġadop tar
ĠF a
Ġdef in
gen es
âĢ ľ
ces a
Ah ÃŃ
ĠmÃ¡ qu
ĠÃ³rgan os
Ġnum eros
Ġpromo ver
liz aciÃ³n
Ġvig il
ĠE N
Ġgen ial
Ġh am
ĠD a
Ġm ente
ĠEst Ã¡
Ãº tbol
ĠS ur
g ente
Ġver te
cur so
di miento
R o
Ġha gas
jer on
tific ado
j an
es to
Ġes en
Ġm ara
u mo
Ġestadouniden se
Ġagr ÃŃc
Ġd Ã©c
ter ÃŃa
) :
Ġsimple mente
Ġ ÃŃn
Ġoblig aciones
Ġl isto
ĠOrgan izaciÃ³n
t ino
" ?
Ġsi ete
p al
ra c
c Ãº
Ġre ducciÃ³n
Ġconten ido
Po demos
Ġt ir
vers as
Ġper j
Ġder ro
y os
Ġv ay
Ġen emi
Ġes con
Ġelec ciones
ol as
Ġde stru
Ġsatis f
un o
Ġestruc tura
Ġco lo
Ġcam a
Ġtele visiÃ³n
Ġenferme dad
S E
ĠT om
Ġo ÃŃdo
Ġb os
Dis cul
ien cias
o k
Ġas untos
Ġsal vo
Ġtrabaj ando
Ġd an
Est u
fic ul
0 5
i va
h am
Ġper dido
ÃŃ ble
ist ema
Ġpu ta
Ġactu almente
Ġhos pital
ar la
Ġre ducir
Ġdes pe
Ġinteres es
Ġer ror
in es
Ġconte xto
Ġpo ten
Ġutiliz aciÃ³n
' s
Ġregi onal
y as
Ġlim pi
un ic
Ġdesi gn
Ġcomer cial
D E
Ġconoci miento
Ġdest ino
Ġ201 3
f t
Ġap re
Ġad qui
ĠTra bajo
Ġcon vo
aliz ado
ĠTi erra
ĠV I
Ġcu yo
Ġfaci litar
Rec uer
Ġhist Ã³r
4 5
Ġpe or
ĠCh ar
p s
ĠR os
t arios
gu ar
Ġcomp ues
Ġenfr ent
A Ãºn
yun tamiento
Ġcompro miso
Ġos cu
3 1
0 8
Ġtra to
Ġor o
ĠP en
lig ro
icul tura
Ġsector es
Ġdistin tos
Ã¡ tico
C as
ĠÃ¡ r
Ġrequisi tos
P res
Ġdis posiciÃ³n
Ġas ust
Ġau tom
ĠIt alia
Ġinte lig
it ario
Ġautor idad
Ġrespons able
er ta
Ġau di
I m
Ġref u
Ġrespe to
am Ã¡s
Ġmar cha
ww w
Ġ QuÃ©
Ġfuncion amiento
st er
Ġdi ficul
Ġi dio
Ġdes can
Ġcar re
Ġdis min
Ġincluy e
di tos
Ġtrad ici
Ġar ro
Ġe mo
Ġdef ensa
Ġdi vi
Ġre cha
Ġfinanci eros
Ġestableci miento
ter as
ĠJust icia
9 6
ec ÃŃa
ĠMar ÃŃa
Ġesper ando
ĠE UR
Ġlle gado
l Ã©
ĠPar tes
Ġa mo
Ġcompe ti
ĠmÃŃn imo
Ġprincip almente
Ġcab all
Ġeval u
Ġmo tivo
Ġsupon e
Ġde m
tor no
ci ente
tu m
e go
A m
ĠS am
Ġcu entas
d in
Ġpu do
Qui zÃ¡s
Ġman e
4 6
Ġblan co
Ġrepres enta
l ad
I T
El los
Ġde ja
Ġdeber Ã¡n
ĠCon s
Ġminu to
Con si
Ġnorm al
Mi erda
Ġdi se
Ġo fer
avi d
Ġde por
Ã© m
Ġv ic
j or
v ech
Ġdes c
Ġalim ent
Ġdis co
Ġde trÃ¡s
Ġve lo
Ġpaci entes
" )
lo que
Ġcorrespon dientes
ĠB el
a gen
Ġtotal mente
Ġpobre za
ven ciones
ĠPar te
Ġi glesia
ui da
ab e
Ġpodr ÃŃan
3 2
oo d
li ci
on e
Ġcon oc
Ġdormi r
ĠMinist erio
l ada
ĠT or
ĠP al
om os
ist Ã¡n
Ġt ÃŃ
la z
Ġcontin uaciÃ³n
Ġim pa
Ġespeci es
Es pero
ĠG eor
Ġdiver sos
Ġpe ligro
Ġtran qui
Ġfin es
Ġcolabor aciÃ³n
Ġim porte
ĠvÃŃcti mas
Ġb ru
Ġmani fes
tam en
Ġdej Ã³
Ġest aciÃ³n
de raciÃ³n
Ġpromo ciÃ³n
Al go
200 5
ĠtÃ©rmin os
ec u
Ġab or
Ġcomple to
Ġgan ar
de res
ĠCom is
Ġpre ci
Ġan ual
ACI ÃĵN
Ġcriter ios
Ġho tel
Ġnoti cias
Su pongo
9 5
Ġdi cen
b es
il le
Ġcomen zar
7 5
Ġun idad
H oy
Ġni Ã±a
D o
Ġch icas
Ġven ido
Ġinver siÃ³n
ir se
ĠB e
Ġdu da
Ã¡ tica
Ġci elo
Ġcaracter ÃŃsticas
ces iÃ³n
Ġhab rÃ¡
200 1
Ġen fo
Ġrecomend aciones
es o
Ġconver tir
200 3
tu al
ĠpolÃŃ ticos
Ġac os
Ġaprob aciÃ³n
ĠM er
Ġata que
ĠC re
fer encias
ĠC al
g t
Ġim agen
Ġac tos
Cu Ã¡nto
s en
Ġv ÃŃa
Ġley es
Ġcom pon
Ġv io
0 4
Ġmari do
S an
Ġpro vis
Ġo cho
eci do
Ġpi er
Ġc it
ĠInstitu to
ciden tal
U U
Ġinme dia
Ġdes pi
Ġsex o
c cion
ĠÂ »
i ores
ien das
Ġit ali
stitu ciÃ³n
Ġbuen as
i ciÃ³n
Ġcon cepto
Ġcon ex
Ġinstal aciones
ĠP ara
ĠI N
z ca
m isiÃ³n
ĠP ero
Ġcomp rar
ĠS ol
bur go
Ġg a
ti a
Ġsos p
Ġem er
Ġsor pren
der al
Ġmer cados
9 8
ĠJ unta
Ġfinanci era
Ġest abas
Ġdest r
Ġregist ro
Ġhist or
7 7
V aya
De be
ig h
ĠD u
Ġofici ales
I A
el os
Ġorigin al
Ġn u
Ġb om
it aria
Ġestrate gia
u se
w s
i tos
Ġcam paÃ±a
Ġse cu
Ġcomple tamente
Ġque d
200 6
Ġlegis la
Ġfran cÃ©s
ĠD is
pe ona
Ġt ren
Ġpueb los
Ġs uel
t amos
di s
M amÃ¡
Ġcon cl
Ġju di
ĠBan co
E h
Ġdes per
ĠG uerra
M o
ap Ã³n
Ġma trimonio
9 4
Ġim posi
An tes
Ġhici eron
Ġex ig
Ġe ta
los o
Ġencontr ado
Ġpriv ado
Ġres ist
i vos
Ġw eb
ĠM c
Ġpens Ã©
Ġ201 4
Ġpreocup es
Ġdeb es
Ġcompro me
i ales
---- ----
Ġda Ã±o
ĠjurÃŃ dico
i Ã³
Ġmen udo
Ġneces arias
Ġpregun tar
Ġllev Ã³
Ġcono ce
un g
ĠD em
Ġcul tura
Ġmateri ales
Ġc Ã¡
es a
Ġpropi os
Ġreun iones
f ra
Ġc ic
uy e
Ġrecor dar
Ġdesarro llar
Ġcon vi
ĠR i
Ġan unci
Ġaplic ar
ĠAr gentina
ĠaÃ± ad
Ġf ase
si dad
Ġesp aci
ĠT ur
ĠB ri
Ã©c tr
C O
Ġdi v
200 2
Ġro pa
Ġh ue
y er
Ġbo ca
Ġsol amente
om e
Ġigual dad
Ġac cidente
Ġcondi ciÃ³n
ĠMi em
Ġrelacion ados
Ã± ora
Ġinfer ior
Ġpes o
Ġpeque Ã±os
l ÃŃ
Ġens ay
Ġdi versas
Ġten gan
Ġcontr ario
Ġpla ta
Ġeurope a
tor a
c ada
ab o
ecre to
as h
Ġmal a
Ġten ÃŃan
Ġag entes
Ġindepen diente
Ġ199 7
ÃŃ ti
Ġg al
Ġcoord inaciÃ³n
j u
Ġcar ne
Ġin m
is iones
mon os
Ġrealiz aciÃ³n
P apÃ¡
ÃŃst ico
ĠFon do
Ġrecur so
ĠI II
Ġan teriores
DÃ©j ame
Ġg obiernos
Ġ9 0
Ġme z
Ġrec lam
g entes
Ġpeque Ã±as
Ġdi seÃ±
Ġfamili as
P e
Ã¡lo go
bernam entales
ti les
ĠSu per
Ġsab en
Ġdro gas
Ġparticip antes
Ġest Ãºpi
Ġfin almente
Pens Ã©
Ġdistrib uciÃ³n
t ÃŃ
Ġt ama
ĠpÃºbl icos
Ġc e
ĠB ro
ĠRe y
V as
h u
ĠE so
0 3
Segu ro
ĠRu sia
Ġaf uera
ĠFran cis
Ġb re
Ġ3 5
ĠG ener
Ġest Ã©n
Ġexam in
ĠAs untos
Ġres olver
ĠIs rael
200 4
200 0
Ġmer can
Neces it
Ġd uro
Ġpre ten
t res
c la
Ġinfl uen
ec lar
Ġpar e
Ġofre ce
Ġdese o
ĠÃ¡r bol
Ġcon v
Ġp un
Ġcu mp
Ġcar ga
Ġraz ones
er ras
ec a
1 00
Ġplan e
Ġobli ga
re z
gen i
b en
Ġnego cio
Ġmay ores
ar ra
Ġfuncion arios
Buen as
Ġcu bier
Ġmes a
9 9
Ġde monios
ĠA h
ĠMad rid
fr ic
Ġa ten
Ġne gro
0 7
Ġadop ciÃ³n
in s
0 6
Ġm ue
Ġconte mp
Ġprevi sto
Ġe p
or ÃŃa
Ġtra er
Ġcual quiera
Ġ199 6
ĠT u
olÃ³g ico
L A
Ġprofes or
Ġd ue
Ġprob ablemente
Ġo peraciÃ³n
Ġle tra
i bilidad
s an
Ġcapa z
Ġli bros
Ġp s
Ġapro vech
por tar
h esiÃ³n
Ġes co
r er
Ġprofes ionales
H emos
D on
C ap
Ġj uicio
cri pciÃ³n
8 8
Ġre forma
Ġsecre to
Ġsali da
b el
am or
s es
T an
pa ti
ĠS E
Ġtran si
ĠDE L
ĠQ u
Ġsec und
Ġ201 5
Ha z
Ġbri tÃ¡n
Ġh echos
Ġ Ã¡n
Ġexist en
Ġagu as
dr ÃŃa
Ġiden tific
Ġries gos
li do
Ġsobre vi
Ġmanda to
Ġtra tando
Ġhuman a
Ġcono zco
Ġen orm
du ca
Ġapro pi
u dades
Ġar res
Ġindi ca
ĠRe al
Ġde partamento
J u
Ġplan ta
Ġcomer ciales
Ġnego cios
Ġdo ble
Ġcom ent
Ġcli entes
gen cias
Ġ199 5
Ġcons umi
Ġenti dad
Ġd ul
Ġtrans mi
Ġpertin entes
Ġdesempe Ã±
9 7
Ġun idades
Ġde tec
Ġgra b
Ġex terior
ue las
Ã¡ ticos
T oma
an ce
Ġdi gas
Ġextra ordin
Ġv emos
Ġpres enta
olÃ³g ica
Algun os
Ġdeci diÃ³
ĠpÃ¡g ina
Ġnecesit amos
Ġqu ÃŃm
Qui ere
e h
Ġparti dos
Ġcomer ci
Ġaque l
Ġhac emos
ir ma
n es
ĠtÃ©cn icas
dÃŃ gen
ĠE d
Ġelec ciÃ³n
Ġre pro
Ġca fÃ©
Ġcons umo
ĠDer echo
Ġter cera
Ġen m
Ġpers pec
i ro
Ġsuce de
ĠD ecreto
Ġdist ancia
di at
Ġpresent ado
Ġsue Ã±o
Ġsen ci
ĠS oci
Ġcre a
F ran
Ġdef en
ul as
ĠprÃ³xim a
Ġizquier da
Ġen ga
Ġdere cha
Ġper ro
Ġag ente
Ġreconoci miento
199 9
diat amente
ĠI r
ui dos
qu ÃŃa
in te
Ġi di
c ÃŃa
Ġinclui dos
den es
icha el
Ġ Î
ĠB ru
Ġloc alidad
Ġh arÃŃa
II I
Ġinicia tiva
or ro
Ġdise Ã±o
Ġ199 0
Ġpres iÃ³n
ru p
ri endo
Ġm ic
4 4
O b
Ġocur re
ĠM il
cu s
ras il
Ġrepresent ante
ĠS ud
ĠPar ÃŃs
9 3
ĠB ueno
Ġincl uir
ĠPol ÃŃ
Ġdiscrimin aciÃ³n
Ġesc ol
ien en
Ġpr on
Ġdeber ÃŃan
M A
Ġaument ar
Cu Ã¡ndo
H an
Ġde dic
ran s
0 2
Ġalter na
Ġabo gado
ĠV amos
Ġexist encia
Ġba talla
estruc tura
Ġesc ala
ĠB ur
Ġconfi anza
ĠP at
Reg lamento
Ġf amos
Ġpe ti
Ġdistin tas
com o
Ġsus pen
Ġconflic to
Ġre cuerdo
ĠA li
Ġconstitu ye
In cl
ar le
Ġo ÃŃr
Ġ199 4
Ġnatur ales
Ġba Ã±o
ero p
cap aci
Ġmara vil
Ġexclu si
Ġter reno
V a
ĠJ apÃ³n
Ġconvir tiÃ³
Ġac aba
Ġsal a
Ġc Ã³digo
man a
Ġfi j
Ġde p
ĠE L
Ġt es
Ġcap itÃ¡n
ĠPro tocolo
Ġdetermin ar
M is
ĠAdminist raciÃ³n
F e
Ġpre venciÃ³n
Ġ +
Escu cha
Ġperio do
7 8
ond res
L u
Ġci udades
Ġtrad u
Ġtama Ã±o
Ġadu l
li p
Ġin no
Ġefica z
ĠG ra
Ġincluy endo
D I
Ġlabor al
ĠA t
Ġen tra
ĠCh ile
Ġestudi antes
y an
b ano
Ġdis cul
ĠJes Ãºs
h ttp
Ġm ÃŃa
log ÃŃas
gi dos
9 2
Ġpon e
P as
li cidad
Ġte x
ĠH ol
ĠIntern et
Ġcomunit ario
i za
Ġl l
ĠO h
Ġqui zÃ¡
Ġest ra
Ġc lave
Ġt ab
Per dÃ³n
se o
Ġdi g
i gan
Ġfu ente
B ar
versi ones
Ġt re
ĠP i
Toda vÃŃa
Ġpas e
cul aciÃ³n
Ġesp ÃŃritu
Ġquer emos
P A
Ġb ur
Ġconsecuen cias
Ġmon et
ĠJ er
ĠX V
Ġla b
A ll
Ġac re
p Ã³
Ġavi Ã³n
Ġofre cer
Ġsal var
5 8
ĠmÃ©to dos
gres o
Ġvolun tad
Ġrelacion adas
Ġantigu o
Ġal um
Ġcu mple
Ġc Ã¡r
ĠprÃ³xim o
ĠC os
7 6
Ġac tivos
Ġ ul
t entes
d al
Ġcon ec
Ser Ã¡
ĠA yuntamiento
Ġse de
w e
Ġa st
Ġse mi
Ġres erva
Ġmuer tos
Ġ â
Ġmedi cam
am es
Ġv ale
ing ton
Ġre quer
ĠP ue
ar ma
Ġde bajo
t ent
Ġexper tos
d aciÃ³n
ĠMe dio
omb ra
Ġdi rÃ©
Ġre p
5 6
d remos
k s
Ġpr ensa
lam ent
pres ent
Ġreci biÃ³
Ġp uso
Ġabri r
Ġcircun stancias
Ġescu char
Ġincre ÃŃble
Ġp ul
Ġaproxim adamente
Ġver ano
Ġextra Ã±o
Ten ÃŃa
Ġal qui
iden tes
Ġrealiz ado
tor ias
Ġa qui
lo j
Ġacep tar
Ġnecesit as
ĠmÃ¡xim a
Ġmilitar es
Ġal tura
Ġqui zÃ¡s
ven ida
Ġglo bal
olu ciones
aliz ada
Ġmej ora
Ġpr Ã©st
Ġmos trar
t n
Ġtiem pos
Ġpudi era
lla te
V ete
Ġcuad ro
Ġo cul
ĠÂ Ń
ed or
Ġautor izaciÃ³n
Ġsi ente
ĠFran k
tas te
er s
Ġper miso
Ġterror ismo
ĠBuen os
Ġf Ãºtbol
ĠPa ÃŃs
di ce
Ġidio ta
ĠM ay
Ġpi diÃ³
ĠI glesia
Ġproces os
Im porte
ĠCar los
Ġdele gaciÃ³n
ic es
L lam
Ġdiab los
Ġposi bi
tri z
ĠEs p
Ġasesina to
Ġcomunit aria
Ġesc al
Ġk il
Ġm Ã³
ĠAn ton
P rim
D ame
Ġtermin ar
Ġmen ores
Ġsegui miento
Ġre ac
Ġpro ve
Ġfundam ental
Ġat rib
ĠMiem bros
Ġverda dero
Ġfaci li
Ġneces arios
Ġcon vers
y en
Ã© ase
Ġa Ã©
Ġinme diatamente
Ġgust o
peona to
Ġdu raciÃ³n
Ġ199 2
Ġel Ã©ctr
Ġresul ta
Ġcomple ta
Ġden om
mis os
Ġdar le
Ġactu aciÃ³n
Ġar qui
Ġpri siÃ³n
Ġp ec
As imismo
v esti
ĠN or
ĠL ondres
Ġ8 0
Ġcor te
D el
So bre
Ġeurope o
ti lla
ari amente
P os
ĠSecre tarÃŃa
Ġca ja
ĠtrÃ¡ fico
Ġac to
Ġconflic tos
Ġem bara
ĠenseÃ± anza
eclar aciÃ³n
s ab
f os
B I
Ġaprob ado
Ġvelo cidad
Ġuni versi
rib e
en se
Ġpublic ado
Ã¡ bi
ter n
Ġbar co
Ġdi a
y n
tiv e
ĠOfici al
Ġregu l
Ġcorrec to
Ġsex ual
ar nos
Ġreci bido
Ġinicia tivas
Ġfuncion a
Ġdis posi
Ġbuen os
Ġfu entes
Â ´
Ġverda dera
Ġb io
tric es
Ġneces aria
Ġcomple ment
Ġlle ga
ĠI V
Ġdi ga
qui a
Ã ¶
Ġju ris
vi eron
Ġex cel
y endo
Ġhac ÃŃa
ĠpÃ©r dida
ĠC ul
De bo
Ġde di
ĠV ic
Ġvis ita
Ġfinanci eras
v ados
U L
em ente
Ġev oluciÃ³n
Ġle er
Ġni e
Ġr aro
Ġr eno
Ġden omin
Ġtermin ado
Ġmar ca
gi ados
ĠdÃ©c ada
ĠK a
fic ar
me lo
ti tu
Ġprop Ã³sito
N osotros
Ġre h
Ġban co
Ġl lor
tr ado
Ġmodi ficaciÃ³n
t ador
Ġinte graciÃ³n
A ctu
an da
Ġmal dito
Ġin dÃŃgen
Ġlar ga
Ġpo cos
c ero
ĠOr den
Ġi le
Ġvuel to
Ġpes ca
ed ro
Ġresi du
Ġf le
Ġexplo taciÃ³n
Ġesp ero
Ġop ciÃ³n
j era
ĠvehÃŃcu los
Ġincluy en
n ie
i ga
Ġdes car
Ġvol viÃ³
ĠÃ³r denes
Ġfinanci ero
Ġ199 3
Ġhu bo
ĠS ch
em en
ĠS in
Ġpar ecer
Ġaplic able
us a
Ġdeb ÃŃa
Ġir me
Ġreg lamento
U S
i el
mi a
Ġqui eras
Ġsosten ible
Ġre des
Ġdu ra
Ġti erras
Ġins pec
ĠDi recciÃ³n
Ġsu ces
Ġpresent Ã³
Ġcontin Ãº
por tes
M I
ĠG a
Ġo este
Ġsen si
z ados
Ġham bre
Ġpi el
ech as
Ġg rad
Ġc ine
8 7
Ġde tener
Ġvi deo
Ven ga
P ien
9 1
ĠB rasil
Ġdes as
Ġcli ente
Ġa us
ĠFrancis co
Ġplan eta
Ġvi ve
Ã©s imo
ar do
v ada
Ġdist rito
Ġubic ado
ven ir
ĠDi visiÃ³n
Ġca den
Ġsi guen
ra mi
Ġide as
Ġes pi
ran o
Ġam eric
Ġencuent ro
ed ores
Ġherman os
ĠIn dia
abi li
ĠeconÃ³m icos
ĠH an
Ġor gu
Ġcomun idades
x ic
Ġdel ante
Ġv ul
Ġreg las
Ġpreocup aciÃ³n
ĠlÃŃn eas
Ġj a
or den
ve la
200 7
Ġimposi ble
Ġalma cen
ĠÃ¡ reas
gu ay
Ġinv ol
Ġimpa cto
gun o
on el
6 6
Ġmo tivos
Ġdi os
Ġinter venciÃ³n
Ġe duca
Ġe ch
Ġpla cer
5 7
Ġli qui
4 7
ĠPar tido
Ġin tenciÃ³n
Ġcele b
ĠMinist ro
fic acia
Ġconti ene
Ġsal va
O r
Ġtar je
Ġa vis
? "
ĠCi udad
ri os
Ġmecan ismos
M E
Ġs Ã³
f in
ĠtÃ©cn ico
t alidad
Ġvi das
ĠB ol
Ġn ervi
Ġtom Ã³
Ġs ÃŃn
Ġd ur
Ġplan tas
Ġto car
Ġcomun es
m Ã³
Ġalcan ce
Ġ ;
Ġnegoci aciones
Ġim per
in ta
Ġobli gaciÃ³n
Ġre qui
Ġreci bi
Ġm ando
Ġcon forme
mÃ¡ tico
en da
Ġci ta
Ġperman ente
lan da
Ġestable cen
Ġadministra tivo
es tas
Ġases ino
Ġpar cial
Ġg eo
ĠU r
ti onal
Ġc en
R A
Ġdi Ã¡logo
Ġdeber ÃŃas
ens aciÃ³n
se lo
Ġen amor
ĠP u
Ġqui siera
Ġami ga
Ãºs que
Ġb en
Ġmem oria
Ġconoci mientos
Ġdecir le
Ġcer can
Ġcri sti
Ġoport unidades
ĠR oma
fici entes
Ġsolici tudes
ĠE m
Ġcient ÃŃfic
ĠD avid
Ġsele ccion
der Ã¡
I F
Deb emos
ĠEst e
Ġref or
to do
Ġgra ves
Ġcon se
Ġesen cial
g adas
ĠM as
Ġper f
Ġdeman da
Ġelabor aciÃ³n
Ġdej ado
it ales
Ġesta tu
gran tes
8 5
Ġpien sa
Ġparti da
Ġf as
Ġcarre tera
O k
Ġposi bles
Ġpi es
4 3
ĠTer ri
Ġvuel ve
Ġtrabaj ador
ĠO c
Ġnucle ares
ĠlÃŃmi te
Ġvol umen
ĠeconÃ³m icas
ti das
ĠP an
Ġ za
s ÃŃ
De ja
Mu chas
Ġdis pu
v iendo
on y
Ġampli a
8 6
Ġefec tivo
Ġcul tural
Ġinf an
Ġco in
Ġd ra
et h
m ado
B o
Ġfamili ar
Ġro b
f as
. )
Ġ !
Ġtu ve
fici encia
d s
Ġactu alidad
Ġop era
Ġarchi vo
Ġedi ciÃ³n
Ġleg al
ĠÃ³rgan o
Ġcon tam
Ġsele cciÃ³n
Ġgu bernamentales
Ġexist entes
Ġalim entos
ÃŃtu los
Ã³n ica
ĠM at
Ġ ran
Ġkil Ã³
Ãºm ero
di as
ĠPrim era
Ġmo tor
ĠJ im
ir Ã¡
Ġfrecu encia
Ġ3 6
Ġmunicip al
ĠIn g
gi as
p to
Ġinici al
Ġcon cesiÃ³n
grÃ¡ fica
ĠI ra
Ġperio di
Ġclas ific
Ġano che
Ġconf irm
Ġpo pular
Ġsegun dos
rue ba
Ġa un
ĠPor tu
Ġen v
Ġesper anza
Ġaspec to
Ġj orn
Ġn ombres
Ġse as
imi entos
Ġgaran tÃŃa
Ġve ci
Ġtendr Ã¡n
ent ro
oci aciÃ³n
ĠL in
Ġtar eas
H i
Ġre vel
Ġpu b
Ġregres ar
Ġconsigui ente
i res
Ġcap ÃŃtulo
Ġtercer os
ĠCol om
gu al
Con o
Ġc Ã¡mara
Ġdo c
Ġquer ido
am o
Ġconst ante
p es
Ġam bas
ta t
cu ra
Ġmo d
Ġsac ar
du ce
Ġdetermin ados
L i
ĠB os
S omos
u almente
Ġcre ado
Ġp iso
Ġfundam entales
Ġ201 6
Ġanti gua
Ġtemp era
Ġl ech
Ġqui era
Ġb loque
Ġnovi a
Ġsol dados
Ġaz ul
ent ado
C T
ID A
ĠW al
f on
Ġher rami
ĠD on
Ã¡ monos
Ġban cos
âĢ ¦
Ġmis mas
Ġe ficacia
Ġconoci da
ĠEj ecu
Ġdispon ibles
Ġcos ta
Ġprepar aciÃ³n
Ġofer ta
ĠH u
Ġescri bir
Ġcon tes
rÃ¡ tica
cion ar
Ã¡ is
yec to
Ġvigil ancia
Ġprovis ional
Ġesc ena
Ġver lo
ten cias
pi ra
u de
Ġc Ã¡n
Ġregres o
S ol
P R
Ġenfo que
Ġex ter
Ġpi lo
Ġinstru mento
To das
Ġabier to
Ġde uda
Ġt rib
Ġen f
Ġmi rar
later ra
Ġlu ch
ĠP as
Ġperten eci
Ġinici o
Ġv el
Ġdispon e
gu as
t ame
ĠmÃ©to do
ĠB al
and ante
te lo
g Ã³n
Ġadministra tiva
Ãºsque da
Ġjust ific
Ġ7 0
l le
Ġpo dido
oc k
Ġsitu aciones
Ġpre vÃ©
a Ã±os
Ġposibi lidades
Ġexam inar
Ġex cep
erop uerto
Ġfo tos
h ab
c ÃŃas
Ġnecesit an
ĠX X
T er
Ġasoci aciÃ³n
Ġmi les
er ia
ĠR E
.... ....
Ġas umi
Ġdi chos
m un
Ġemp ie
Ġtrans form
Ġmol es
ĠÃºn icamente
Ġh uel
Ġcom port
Ġabier ta
Ġvac aciones
Ġapar ece
p ado
ti dades
Ġpien so
Ġtien da
ÃŃ z
tin g
e tas
ON ES
gun da
D ime
ÃŃ es
m pa
Ġeurope os
ab lo
Ġj ard
Ġd Ã©j
c y
A le
Ġcontro lar
ad able
ĠA sia
Re almente
Ġque dÃ³
Ġclar amente
aliz ados
un cia
Ġdese a
i lar
Ġdiver tido
l ados
w ard
Ġtras lad
Ã¡ st
A T
Ġment ir
Ġcu bri
Ġj amÃ¡s
Sab e
Ġpropi as
Ġrespec ta
Ġequi li
Ġestar ÃŃa
ĠV e
c enta
vi o
Ġa man
Incl uso
en os
Ġfir me
Ġdi men
ĠF re
ter rÃ¡n
B us
per tura
Ġ4 5
Ġinvol uc
Ġamena za
Ġ =
Ġintercambi o
Ġacab Ã³
Cu al
C H
d ando
Ġbus ca
Ġsimi lar
Ġocu par
ma te
C a
8 9
gr ÃŃa
in t
v ador
Ġener g
Ġac ce
Ġreserv as
ion ado
ĠC la
Ġdecir te
Ġapren der
Ġdispon ible
ĠV ene
Ġusu arios
Ġsi len
Ġbenefici os
Ġint ento
Ġre visiÃ³n
Ġconst it
Ġencan ta
v era
ti sta
Ġpresupues taria
ie lo
Ġrepresent aciÃ³n
Ġsu gi
n ey
Ġin cu
Ġpre cis
Ġhu bier
Ġm ad
Ġ199 1
Ġl on
Ġuni versidad
ĠEsta tu
ĠF ern
Ġestableci dos
Ġtar ea
Ġcon dado
Ġcan s
Ġh el
b ul
Ġre da
p ue
ĠrÃ¡pi damente
us os
Ġvin cul
ĠA cciÃ³n
Ġcar b
Ġequi val
Ġprohi bi
Ġolvi dar
Ġpri ma
Ġeta pa
ui dado
ĠIr landa
te cciÃ³n
Ġden sidad
Ġindustri al
Ġcan ciones
ĠC ali
le t
Ġrela tivos
Ġpos terior
Ġd ando
dr Ã©
ta gon
Ġfa cul
Ġdeber ÃŃamos
Ġocas iones
ust o
Ã© ro
Ġestra tÃ©
ran qui
Ġcab e
ĠcÃ¡r cel
Ã¡ llate
Ġclas es
Ġt asa
ĠB re
Ġm m
de rando
ĠNe w
l on
Ġprimer as
Q u
ĠC lub
el lo
Ġen torno
cra cia
Ġp is
me tro
Ġaf irm
Ġdi pu
Ġin fec
ri st
cu lares
Ġa yer
Ġlab ora
Ġvi vi
Ġale mÃ¡n
ĠD eclaraciÃ³n
Ġdirec ta
Ġpa gos
il las
h or
Ġsali Ã³
Ġtu yo
ĠL uis
Ġp ales
Buen os
O l
ĠB ill
ĠA b
Ġv uelo
Ġro de
Ġpos teriormente
Ġindepen dencia
Ġcom isiÃ³n
ĠD el
gel es
P on
Ġfac tores
Ġesfuer zo
i i
d Ã©
Ã¡m ica
Ġempe zÃ³
Ġim pe
Ġjudi cial
Ġpres tar
g Ã¡n
Ġb Ãºsqueda
ĠIng laterra
li am
ĠCon stituciÃ³n
Ġb ille
om o
r ador
den cias
Ġcor to
Ġro man
Di jo
Ġex cepto
ti eron
ra me
ĠX I
Ġesc uelas
f re
Ġc la
Ġtra tado
Ġperfec to
Ġemer gencia
ien es
Ġf lo
ĠL at
4 2
ĠDem oc
Ġci viles
Ġ3 8
Ġimport aciÃ³n
Ġdetermin adas
Ġbas es
G u
tin os
Ġraz on
Ã© tico
ĠD ar
ĠH en
Ġinclui das
Ġnue ve
Ġfron tera
Ġdificul tades
Ġre pu
I B
âĢ Ļ
ĠEconÃ³m ico
ris mo
der os
Ġadi cional
L E
Ġinteres ante
Ġcomb ust
Ġdocu mentaciÃ³n
an ÃŃa
Ġp rac
ja te
Ġac or
Ġaver i
ĠI o
Ġco cina
ci pe
ĠCo o
F ui
ĠV ir
ĠlÃŃmi tes
Ġar mon
ist os
Ġmercan cÃŃas
ri que
ĠO s
Ġincl uido
Ġdirec to
Ġv isiÃ³n
un es
Ġtri ste
Ġadi cionales
Ġg uer
Ġin versiones
Ġc Ã¡l
Ġr os
ri l
ĠP edro
lan dia
Ġexpres iÃ³n
Ġf res
ĠEst oy
Ġpi de
Ġesp al
ent an
Ġsitu ado
Ġha z
te ca
Ġdefini ciÃ³n
S im
Ġar ru
Ġllam Ã³
ĠpelÃŃcu las
j Ã³
Ġpro bar
Ġgan Ã³
Ġdos is
Ġconstr uir
Ġre form
Ġfir ma
a h
Ġmas a
S I
en ial
Ġrespon der
Ġad ver
Ġin con
Ġac onte
olu cion
Ġarreg lar
Ġnucle ar
gi das
Ġtrans par
Ġre pe
Ġfis cal
G C
am as
M ir
Ġalgun o
di e
ĠE uros
Ġsuper visiÃ³n
Ġinfluen cia
ĠD ra
ĠCh i
j i
Ġc iencia
tad ora
Ġjue gos
Ġma tÃ³
z z
Ġde cre
Ġre vista
Ġtecno logÃŃas
Ġnorma tiva
Ġlic encia
Ġro mp
pres a
Ġllam o
Ġocas iÃ³n
Ġtom ado
Ġl ad
ĠPe ter
Ġpre fer
Ġh Ã¡bi
Ġre le
g et
Ġapoy ar
ĠA ra
En con
g ico
iz ar
Ġdiri gida
Ġdesa f
Ġele gido
Ġpien sas
4 9
it arios
Ġdirec tiva
Ġpers on
Ġterri ble
Ġanim al
Ġ" "
Ġimp lic
Ġases or
ru pciÃ³n
Ġmal dita
Ġespos o
ĠvÃŃcti ma
Ġar t
ĠY u
Ġesca par
ĠC orte
Cu Ã¡n
ĠkilÃ³ metros
Ġex cepciÃ³n
ec ciÃ³n
i es
pri mi
Ġso cio
Ġhor ri
Ġb rin
k m
ĠindÃŃgen as
Ġcu o
Ġgan ado
t rib
Ġpeti ciÃ³n
Ġconta c
le ta
Ġemple ados
ĠSu b
Ġres oluciones
Ġexp los
ĠPaÃŃs es
ort un
Ġh ttp
gr ado
Ġutili za
Ġdemo c
Ġconsul ta
Ġdec ÃŃa
Ġconsider ado
vers al
Ġinclui da
Ġv osotros
Ade lante
di ste
Ġdul ce
fr on
Ġest abilidad
Ãº lti
Deber ÃŃa
Ġnega tivo
C an
ar Ã¡s
v ale
Ġsub venciones
Ġper ci
Ġvo taciÃ³n
Ġma dera
ĠCan adÃ¡
Ġcere bro
Ġplen amente
ĠS im
Ġrequi ere
ru z
Ġmecan ismo
A p
N e
Ġvic toria
ar t
T i
c aciÃ³n
iden ta
Ġsu p
m bo
Ġfan tas
Ġac Ã¡
Ġcri men
ĠfÃŃs ica
Ġf en
it y
ĠF uer
Ġlu char
Ġtraba ja
ent en
Ġpa c
O tra
ĠColom bia
Ġobserv aciones
Tien en
Ġex posiciÃ³n
g uÃ©
Ġconci encia
N in
Ġrecuer da
Ġtra je
re y
ĠAs ociaciÃ³n
ĠEs c
ĠÃģ n
p ens
ĠAnton io
Ġdi bu
Ġa port
se las
man es
Ġcategor ÃŃas
Ġh al
ĠA C
Ġv ÃŃ
ĠDe f
ĠlÃŃ der
Ġmucha cho
5 9
Ã ¤
Qui en
ti mi
de mia
Ġhermos a
Ġsupon go
h ol
Ġa ce
an cias
ĠT im
0 9
Ġcontrib uy
E D
Ġcul p
Ġc ena
200 8
Ġaque lla
Ġdi chas
Ġpro duci
gi tud
Ġcas as
Ġa ter
bri o
Ġsimi lares
Ġcu Ã¡nto
Ġfal le
Ġcomunic aciones
Ġsub si
ĠCom er
ens or
Ġven der
Ġpro ducir
es tiv
Ġcon sejo
Ġtor n
f orn
ci da
ĠespecÃŃfic as
Ġpoten cial
g es
ĠSr ta
Ġju z
Ġas imismo
Ġcomp lic
tro l
Ġf erro
Ġre tras
Ġ5 00
ĠLi ber
ra be
Ġlan z
Ġencontr Ã³
Ġcol on
ĠGeor ge
Ġutiliz ado
Ġf lu
Ġa den
ti rÃ¡
Ġsu stitu
ic en
A P
Ġsal e
S a
Ġcons ol
ĠcÃ¡n cer
Ġade lan
di mos
l d
Ġar gu
Ġcompe tentes
Ġpo bres
Ġpre mio
con tin
ĠmÃ¡qu ina
Ġofici nas
Ġins u
Ġactu ar
4 1
Ġrealiz Ã³
br ica
Ġsenci llo
Ġcontra tos
Ġmone da
] ,
Ġcontinu ar
u ras
ĠvehÃŃcu lo
w are
on da
C am
Ãº car
ue ga
r alia
Ġexport aciÃ³n
m enta
Ġhab las
Ġcapaci taciÃ³n
Ġre emp
ĠR am
Ġquer ida
Ġo ÃŃ
Ġprogra m
Ġdi ario
Ġen o
Ġin oc
ÃŃn cipe
V es
ĠE ducaciÃ³n
p io
Ġlo ca
Ġfigu ran
Ġcos tes
Ġmom entos
ue gos
H u
Ġin fi
ĠFe deraciÃ³n
cas o
Ġperj uicio
Ġmateri as
ĠN avi
Ġor din
Ġsi entes
sab es
Ġtro pas
Ġpor centa
Ġrespons ables
Ġcomien zo
c ro
Ġdetal les
in ada
Ġgust an
7 3
r arse
Ġni Ã±as
z uela
Ġtec n
Ġcor por
ĠServi cio
ĠA ires
Ġim puestos
5 00
m b
Ġas cen
Ġtermin Ã³
Ġba ilar
Ġcal les
Ġllev ado
Ġplan o
Ġres tric
Ġele gir
Ġcal or
ti os
pe Ã³n
Ġpar que
b ran
za je
Hab ÃŃa
Ġenga Ã±
Ã¡ genes
ber g
tÃº a
Ġca er
ĠH i
Ġconsider ar
or e
gen o
A yu
ĠO b
ctu ras
j al
Ġocup ado
Ġenferme dades
ĠCon greso
O tros
Ġfl ores
ru mp
ĠPa z
Ġte orÃŃa
Ġcir culaciÃ³n
D a
b ablemente
Ġg ana
C OM
ĠA D
m n
que te
Ġenorm e
Ġesc en
Ġtra tados
ĠM ichael
ĠperiÃ³di co
ĠSal ud
Ġpreci so
Ġtradici onal
200 9
Ġh em
Necesit amos
Ġadecu ada
Al guna
Ġir re
Ġprevi stas
bi o
Ġpres taciÃ³n
Ġ- --
el d
ĠB lan
Ġdi pl
Ġal co
les c
fic aciones
abi lidades
Su b
Ġpaci ente
t z
Ġim Ã¡genes
Ġocur riÃ³
a f
Ġmon tÃ³n
6 2
ĠPortu gal
ri eron
Ġaplic ables
Ġir Ã©
Ġvisit as
Ġinstitu ciÃ³n
ĠT ex
Ġactu ales
Ġex cl
Ġjorn ada
Ġsegu ros
s h
6 3
Ġin cen
Ġampli o
Ġ198 9
Ġn av
Ġa is
6 5
Ġdi eron
Ġcontrib uir
ÃŃ da
ver so
Ġpie dra
Ġep iso
ĠW in
ĠagrÃŃc olas
ĠCar ta
ĠCom unidades
Ġpare ja
ari ciÃ³n
der ÃŃa
r ÃŃ
6 8
ĠPer Ãº
ca te
t ÃŃas
Ġdi jeron
Ġtempor al
Ġesc la
ti que
li da
Ġcorrespon de
Ġentre ga
Ġmon o
Ġpuer to
Ġinform a
forn ia
Ġo dio
Ġpuer tas
olÃ³g icos
Ġcu Ã¡l
ĠB u
Ġsal v
Ġj e
Ġpues ta
in cu
im as
Me jor
Quer ÃŃa
ĠC laro
Ġlech e
Ġdifer encias
199 8
Ġlon gitud
Ġof rec
t le
Si ento
ri e
ÃŃs imo
6 1
Ġque dan
Ġ 00
E T
par te
ern es
Ġadecu ado
Ġescri biÃ³
Ġedifici os
Ġ3 2
t ui
ĠGener alidad
Ġd as
Ġconsidera ble
Ġreg alo
Ġdesp laz
Ġvul ner
Ġ3 7
Ġdic tamen
Ġcompe tencias
NU D
Ġtom ando
Ġcorri ente
Ġcompe tente
Ġfr ÃŃo
Ġenemi go
Ġcontrib uciÃ³n
Ġsac ri
Ġte atro
Ġcli ma
Ġmic ro
ĠCo le
ĠK en
Ġmo ver
ĠcompaÃ± ero
ci dos
Ġproduc tores
Ġap enas
Ġcui dar
Ġbar rio
Ġcri min
T res
Ġregu lar
ĠCri sto
Ġincre ment
Ġcar tas
Ġcabal lo
Ġtendr ÃŃa
Ġc ue
Ġp ist
m amente
Ġdeclar aciones
Ġp ista
Ġma estro
Ġcambi ado
ĠM ari
Ġh in
Ġt h
Ġcl Ã¡s
Ġjug ador
tor al
Jo hn
Ġiden tidad
Deb es
Actu almente
Ġpro tagon
Ġdel ito
Ġcul turales
ĠespaÃ± ola
Ġpe dido
Ġg or
ĠUn a
z can
Ã §
ĠC Ã³digo
v ina
Ġcu lo
Ġsuce diÃ³
ĠBo b
gr os
ues o
Ġconclu siones
Ġtrans ferencia
ste des
Ġten gas
Ġver de
Ġcaden a
tal o
Ġampli aciÃ³n
Ġadop tado
Ġpu de
Ġan un
Ġme ter
Ġson ido
ĠCo pa
Ġs Ã¡
Ġform ar
ĠR om
Ġre aliza
Ġb es
Ġad quisi
Ġdemo cracia
Di rec
r adas
Re ci
Ġentre gar
N uestro
ĠPolÃŃ tica
EN TE
m pe
ĠjurÃŃ dica
6 7
ĠK e
ĠDirec tor
ĠS ui
Ġi gn
Ġza pa
d alo
Ġre vi
Ġdi visiÃ³n
Don de
Ġsu ma
ĠF is
ari z
Ġelem ento
Ġbo te
Ġconsi st
Ġme xic
Ġinvesti g
Ġestre lla
ter os
Ġcent rales
Ġsu ici
Ġac tivo
Ġencontra mos
Ġex ce
Ġa go
Ġnombr ado
H er
Ã³si tos
vÃ© ase
la ce
ĠA f
Ġrefu giados
Ġmuer ta
Ġe c
ĠÃº til
Ġcon ferencia
ĠP on
Ġbo da
Ġpa tr
ĠA z
ĠPa ul
te les
Ġre per
CI ÃĵN
re o
Ġintent ando
l Ã¡n
Ġvent ana
Ġa pertura
Ġreci ente
st al
Ġterri torios
Ġprepar ado
ĠF lor
Ġin geni
Ġvo to
Ġda Ã±os
Ġa pa
Ã©n tate
Ġmus ical
grÃ¡ fic
J es
Ġvi ven
Ġmani fi
Ġconvo ca
Ġcic lo
m m
Ġap ues
Ġlle gue
ĠNavi dad
Cas i
Ġelim inar
Ġbos que
Ġservi r
t ones
ue vo
b Ã©
ĠSe gunda
Ġcono ces
Ġan teriormente
Ġest Ã©s
Ġcan tidades
ash ington
Ġcara jo
Ġt onto
Ġres puestas
De j
ĠN ic
Ġreci entemente
ĠRe present
Ġma te
an ia
Ġest an
ĠmÃ© dicos
C uidado
Consi derando
V isto
Ġproce dentes
dr Ã¡n
Ã¡ bamos
Ġau tÃ©n
n ia
tis mo
Ġcelebr ada
Ġpriv ada
bi os
capaci dad
it h
cel er
Ġperspec tiva
Ġf ras
Ġin mi
Ġnovi o
Ġestrate gias
Ġcomien za
Ġconserv aciÃ³n
Ġro bo
D ÃŃ
ĠS ue
Ġsust it
Ġaprob Ã³
Ġinmedia to
Ġinteres ados
Ġt ribunal
ar g
a de
ĠF o
Ġemp ren
Ġhuman idad
Ġpod amos
D A
Ġ198 8
Ġproporcion ar
Ġob tuvo
ho w
ari al
Ġorgan ismo
Ġconsul tas
Ġcumple aÃ±os
l lan
ĠC at
ĠtÃ©cn icos
es per
Discul pe
tia go
Ġprevi a
Ġcaus as
Ġexp an
ĠdÃ© bi
Ġadop tadas
bier to
Ġcompro misos
u min
Ã© ramos
i x
ĠB as
d re
Ġestad ÃŃsticas
Ġcar gos
ĠR ich
Ġmucha chos
Ġmode los
Ġtitu lar
Ġa bre
Ġinter na
Ġ3 00
Ġespi ritu
5 4
i go
ĠestÃºpi do
Ġcon cer
Ġnaci Ã³
u to
? ?
Ġcaball eros
ci les
ĠV en
ĠG ol
Ad Ã³nde
Ġresidu os
Ġdecir me
Ġtempera tura
Ġtuvi eron
ĠnÃºm eros
mp res
s al
Ġmu tu
ĠBa jos
l ando
Ġcier tas
ad Ã©m
Ã¡ndo me
ÃŃst icos
Â¡ Â¿
b aciÃ³n
Ġinter no
Ġra za
ber to
Ġarqui tec
ad io
Ġpro tes
Ġv iendo
ĠV an
Ġestre llas
ĠcrÃ© ditos
Ġado lesc
c Ã©
Fin almente
pi raciÃ³n
Ġdeci dir
Ġus ando
Ġsosp ech
Ġori entaciÃ³n
ci mientos
Ġcompues to
ĠFe deral
Ġsir ve
ĠIn vesti
Ġarchi vos
Ġorgu llos
ĠJ efe
Ġmedicam entos
Ġapren di
Ġesc rib
N Ãºmero
Ġcomp ra
ci endo
Ġdepen de
ĠAm bi
Ġdetermin aciÃ³n
ĠSan to
j ada
Ġad hesiÃ³n
ĠL an
Ġcer ve
Ġver as
cion ado
Ġlas ti
Ġpres entes
ĠP adre
5 2
ĠAust ralia
Ġpu ente
Ġam able
Ġaz Ãºcar
Ġcier ta
ĠCali fornia
Ġfamili ares
Ġ ..
Ġre ales
ĠT rans
Ġma gn
Ġestableci das
Ġcorre o
Ġnin guno
ĠperÃŃo dos
t ab
or i
Ġmencion ado
Ġexp lor
uc k
Ġp lu
Ļ ª
Ġprob able
H o
C Ã¡llate
Ġhacer se
7 9
Ġceleb raciÃ³n
ĠM isiÃ³n
uel ve
Ġminist ro
tar me
Ġbas ado
Ġa eropuerto
ĠRe gi
r Ã¡s
Ġop ciones
Ġafec tados
Ġpersona je
p in
Ġar re
% )
Ġvo tos
R a
Ġre mo
si va
Ġton el
Ġcon qui
ĠrÃ¡pi da
Ġcali ente
Ġcl ÃŃn
Ġnumeros os
Ġpropi et
ĠMe di
ri da
ĠAle x
u re
Ġrecono cer
Ġcu Ã¡ndo
Ġmodi fica
G ran
Ġhorri ble
b ien
ice pres
Ġ x
Ġcan al
br al
U stedes
C ON
ĠA gr
Ġlo cura
Ġm Ãºlti
Ġf lor
Ġbas ura
Ġh Ã©ro
Ġlabora torio
ĠJ ames
All ÃŃ
ĠPac ÃŃfico
ĠM uy
Ġactu aciones
Ġf ol
pres iÃ³n
ĠB la
ĠCu ba
Pro bablemente
Ġemple a
F uera
Ã© li
tiz aciÃ³n
ĠH un
ĠÃ¡mbi tos
Ġf ues
Ġest ados
w ood
ĠGre cia
ĠAl to
Ġnaci miento
Ġv ienen
5 1
w ay
estiv al
Ġcomport amiento
in ados
Ġrecom ienda
Ġc ola
Ġsu stancias
Ġaden tro
Ġmi ras
Ġbas ada
ĠE le
Ġbi b
Ġdestin ados
ĠN Âº
Ġ3 3
xi li
u ta
Ġagr icultura
Ġdes gra
Ġnue vamente
ĠCas a
Ġreemp la
ĠP r
Ġrecu peraciÃ³n
Ġ4 8
Ġv oc
Ġfran cesa
Ã ļ
. -
tr al
Ġbe ber
Ġh aremos
f ord
Ġintelig ente
Ġac lar
fec to
Ġori ent
Ġha gan
r ores
Ġinvesti gaciones
Ġar tes
ĠF und
Ġcomba te
Ġpodr ÃŃas
Ġambi ental
Ġal cal
Ġli ter
Ġmo dos
O s
de ras
Ġman tiene
Ġe ras
ĠelectrÃ³n ico
cer do
Ġpers onales
ĠU S
later ales
Ġestudi ar
Ã³ p
Algun as
Ġpeligr oso
Ġestuvi era
Ġin ci
ĠV ie
au gu
Ġestru cturas
Ġextran jero
Ġre mi
P ol
Ġapre ci
t arias
l ico
Ġespec tÃ¡
5 3
Ġti ro
Ġpri sa
Ġexcel ente
Ġvie ja
Ġbro ma
el la
ĠN orm
Ġser es
stru cciÃ³n
Ġsub venciÃ³n
Ġsitu ada
Ġcre en
ĠK ar
ĠseÃ±or ita
Ġres pal
Si gue
em ent
Ġdo y
Ġagr adable
s ar
Ġelim inaciÃ³n
gi os
d ante
ic ales
Ġdif usiÃ³n
ĠbÃ¡s icos
t ano
k in
Ġentr Ã³
ĠEurope as
EN TO
Ġllam as
Ġr ue
lic e
un dido
6 4
T ranqui
v Ã¡n
Ġbro me
Ġencontr Ã©
Ġf emen
N a
Ġdestru cciÃ³n
t te
M ÃŃ
V ol
Ġac on
Ġcu ali
E M
Ġest ric
Ġtitu lado
B C
ĠCos ta
u ti
Ġconex iÃ³n
Ġproce de
Ġprevi stos
ĠMu jer
Ġinterpre taciÃ³n
7 1
Ġpreocu pa
7 2
Ġbas ta
Ġrespec tivamente
segui da
Prim ero
Ġasoci ados
Ġparticular mente
r eras
Ġpre fi
uÃ© l
Ġg ira
ĠP AR
Ġcompon entes
Ġven ga
Ġre i
Ġdeci dido
car on
ĠS ala
ĠP rin
br ado
fer as
Ġpl ena
Ġbom ba
Ġporcenta je
l ing
Ġcompar tir
Ġentien de
bi da
ĠRes oluciÃ³n
M uÃ©
Ġprodu ce
Buen a
Ġac ces
ĠE r
Ġhabl ado
Ġpie zas
ĠBru selas
Ġp Ã¡
m bre
ll ante
el aciones
p les
I M
Ġor gÃ¡n
Ġveci nos
Ġapar a
Ġgra cioso
ĠC lar
Ġ198 7
Ġcontrib uciones
ĠM os
gu lar
Ġubic ada
iden cial
Ġintent ar
Ġauto b
Ġco ches
lig iÃ³n
Ġbus c
am arca
li min
Ġmi rando
ĠÃºlti mas
ÃŃn a
Ġdiri gir
Ġinstal aciÃ³n
Ġsuficiente mente
Ġlogr Ã³
as as
G enial
Ġtem o
p il
Ġa tre
v encia
Ġpo deres
ĠRe d
Ġprepar a
ĠLi ga
Ġvesti do
ĠMar tÃŃn
Ġcre Ã³
ven ido
ĠVI H
ĠS on
ues tros
Ġinfan til
or g
tar lo
Ġ198 6
Ġjue z
Ġconsi ste
Ġvay as
ĠPres idencia
Ġpla ya
Ġclas ificaciÃ³n
ĠM is
ĠG al
Ġllev an
Ġplan ificaciÃ³n
Ġ198 0
Ġus a
ĠWil liam
Ġllen o
I ÃĵN
Ġev ento
Ġtemp rano
Ġcol um
ĠIn dust
Ġpodr ÃŃamos
Ġpe da
Ġsoci edades
Ġdes cen
Ġorden aciÃ³n
Mu chos
trÃ³ leo
Ġro jo
Ġprior idad
Ġimp uls
Ã¡ndo lo
Ġgener aciÃ³n
ĠPac to
Ġah or
Ġin augu
Ġm g
ra y
Ġba ile
ĠCor ea
C ariÃ±o
Ġbon ito
ci r
% .
g na
Ġa gar
ĠC ro
Ġra to
Ġac adÃ©m
j un
Ġiden tificaciÃ³n
s onal
ĠprÃ©st amos
gi e
di cciÃ³n
Ġsuper vis
Ġ9 2
Ġg esti
Ġprogres os
Ġmar ch
Ġtrans misiÃ³n
Ġleg ales
Ġsaber lo
ĠSe Ã±ora
ĠD in
te d
en es
Ġsor presa
Ġprogres o
Ġconclu siÃ³n
! "
l ÃŃn
Ġ201 7
C C
Ġprome to
Ġespal da
Ġencar gado
Ġcor rer
Ġpele a
mÃ¡ tica
Ġno tific
Es os
Ġim par
Ġescu cha
ĠMar co
Ġtarje ta
gi pto
Ġres idencia
Ġimport aciones
tar a
Ġcu Ã¡n
e p
Ã©l gica
ĠEj Ã©rcito
ĠL OS
Ġtra te
Ġem isiones
ĠH am
Ġprofun di
8 4
des a
k istÃ¡n
Ġpens ado
Ġpublic Ã³
Ġco pi
f u
Ġacre di
ĠG er
ĠpÃ¡g inas
Ġdocu ment
ĠComer cio
Ġcam pos
rec to
Ġobst Ã¡
Ġsuminist ro
Ġcos te
bi li
ĠW ashington
Ġ3 4
ag Ã©simo
ĠÃ© stos
Ġcom posiciÃ³n
Ġcier tos
Ġres identes
am Ã©rica
Ġsuper iores
ĠA gencia
Ġin yec
Ġfen Ã³m
ĠB CN
Ġre ca
c ran
Ġsu ena
A pro
ĠagrÃŃc ola
Ġbre ve
Ãº d
Ġutiliz ando
Ġfabric aciÃ³n
Ġgener almente
Ġacab ar
Ġl lave
N uestra
d Ã³nde
ui das
Ġa vent
Ġdel itos
B asta
ci en
ĠC ari
Ġtu ya
Ġmis iones
Ġblan cos
ch ame
Ġpla za
O tro
Ġale gro
Ġconver tido
Ġentien des
Ġocup aciÃ³n
ĠM ig
Ġobje tos
Ġinfi erno
u a
Ġinte g
ĠespecÃŃfic os
ĠR ÃŃo
O P
Ġpri sion
ĠIn forme
bier on
201 0
Ġadul tos
Ġas c
tien en
Ġinv ent
Ġabsolu to
Ġbib lio
u lo
Ġdemos trar
p r
ĠP ri
Ġrec ord
Ġviol aciÃ³n
ĠS il
Ġresist encia
Ġdestr uir
Ġmos tr
Ġclar a
Ġincl u
Ġfom entar
Ġindi s
" ),
ĠServi cios
Ġdirec trices
dad or
Ġlle gada
Ġpron unci
ĠC ab
uen a
Ġcur sos
Ġfui ste
form es
Ġreco ger
Ġh ere
C al
Ġtu m
ĠO li
Ġar ras
Ġgra tui
Ġalqui ler
bs erv
Ġsegui do
Ġte j
Ġsilen cio
Ġtransi ciÃ³n
Ġexpe diente
Ġem pa
Ġma es
Ġnumeros as
Ġindividu al
Ġre ina
de pen
Ġbenefici o
ti llo
ĠK o
ĠIra q
Ġsatisf acciÃ³n
vent ud
Ġadministra ciones
T ER
Ġcon cep
ĠEsc uela
Ġre ligiÃ³n
Ġ 000
Ġren unci
is po
di cas
Ġtuvi era
Ġrealiz ados
8 2
el es
ĠPo pular
Ġc enso
ĠmÃ¡qu inas
ĠC um
Ġcomunit arias
ĠRe la
Ġmovi mientos
Ġinfra estructura
S h
Ġfuer tes
Ġa pel
Ġri t
ĠcientÃŃfic os
Ġt ribun
ĠT V
Ġcer tificado
ĠP h
ĠestÃ¡n dar
Ġa ma
x em
Ġevi dencia
Ġm ens
Ġcos tos
le za
Ġci ento
] .
ctor es
Ġesf era
Ġsu yo
ĠJo e
Ġcandida tos
7 4
Ġabor dar
Ġe h
Ġdis cip
Ġpue das
ll er
ĠAust ria
v amos
ĠcompaÃ± eros
dad as
00 00
Ġata ques
Ġsecund aria
ĠC ruz
Ġt Ã©
Ġtras ero
ĠTen go
Ġsu ger
arg ento
Ġasoci aciones
Ġch e
cu la
Deber ÃŃas
u p
Ġhermos o
Ġvig ente
Ġdipl om
ĠL AS
Ġdescan so
Ġac tiva
____ ____
Ġcue llo
Ġextran jeros
tion s
ID AD
qui Ã©n
Ġenvi ar
ĠVene zuela
Ġap lica
tras te
ĠF or
Ġro mper
tam entos
Ġidi oma
man o
Ġami st
ĠSan t
Ġsa cerdo
tar te
ĠSan tiago
Ġdi rÃŃa
Ġv entas
d ones
Ġt era
ĠPer man
Ġin com
ĠA L
IC A
Ġimpres ion
Ġa gres
I V
Ġc Ã³
olo gÃŃa
gn os
Ġmill Ã³n
Ġbra zo
f ras
Ġarti sta
199 2
Ġan al
f ac
z i
Ġpen al
Ġfom ento
Ġsu ficientes
si vo
vi ste
Ġrefor zar
Ġco her
Ġev entos
Ġt ru
Ġviv ienda
Ġconside raciÃ³n
por ta
s in
ĠAr tÃŃculo
Ġl lu
ÃŃcu lo
y eron
ĠEUR O
Ġsu bir
Ġenvi Ã³
Ġpor tu
e k
E X
Ã³lo go
ĠB ra
Ġer rores
Ġpregun to
Ġnoti cia
ĠR ay
Ġevalu ar
ĠD omin
Ġre ti
vil le
Ġac ord
Ġdefini tivamente
ĠpÃ¡r r
Ġalum nos
Ġan uales
Ġpro ducido
Ġreper cu
ĠV ol
Ġcuer pos
grÃ¡ fico
ĠS ha
Ã ĳ
ĠCap itÃ¡n
ĠOri ente
iz ado
Ġefec tiva
Ġ5 5
Ġform ula
Ġpro pone
P i
Ġsu stan
De bido
Ġpar ecÃŃa
Ġju gando
Ġcu ch
Ġconfi ar
Ġins cri
Ġca tÃ³
Ġdetermin ado
Ġli bres
Ġa celer
ĠCom unic
Ġesper aba
ĠI S
u ma
ĠMan uel
16 0
is p
ĠDemoc rÃ¡tica
olÃ³g icas
ca demia
Ġinstru cciones
Mal dita
plic aciÃ³n
Ġconsumi dores
Ġdel i
Ġru ta
Ġenvi ado
Ġincre mento
ĠI mper
Ġl una
ĠM ol
z adas
Ġd arÃ¡
le ctu
Ġper diÃ³
ta Ã±a
B A
Ġpilo to
Ġsol uciones
Ġopin iones
ro ga
ch en
Ġfis c
Ġcir u
Ġ198 5
Ġcom pati
Ġo jo
tu s
Ġren dimiento
Ġitali ano
H ar
b ÃŃ
tes is
Ġmon stru
i di
Ġir se
Ġapar tamento
ĠH ay
M on
Ġconsigui Ã³
Ġ3 9
Ġv ini
Ġconj un
Ġvi ento
8 3
ci ta
Ġab ra
Ġ4 6
Ġintro ducciÃ³n
Ġban c
Ġpol ic
Ġform ular
Ġign or
Ġenm iendas
Ġt ol
j unto
ĠD ie
Ġv Ã¡
Ġad or
Ġautor es
eci miento
D en
it arias
m ica
Ġba jar
Ġd arÃ©
f era
d ri
Ġcer tific
Ġmo tiv
p Ã©
Ġobs erva
Ġparticip Ã³
Ġin si
qu ina
Ġayudar te
Ġpar ar
orden adas
ĠCam peonato
Ġpar ecen
Ġperten ece
fici al
l Ã³
Ġtur no
Ġdes n
Ġestar Ã¡n
ist ro
In forme
Ġbol sa
ici on
Ġmodific aciones
Ġsi mul
an dia
ch er
Ġvi va
Ġre ino
Ġto talidad
vi amente
Ġconstitu yen
Ġtonel adas
i an
Ġarti stas
Ġmun di
Ġmonta Ã±a
A b
Ġfran ces
Ãº c
Ġinde mn
Ġreg lam
Ġllam an
Ġpe trÃ³leo
A u
Ġemp u
Ġo posiciÃ³n
te o
Ġdefen der
Ġper don
Ġrealiz adas
L L
Ġvi ernes
Ġbille tes
ĠEconÃ³m ica
g ante
Ġvari edad
Ġcon ducir
j ando
an to
Ġsue Ã±os
de a
Ġpre ce
Ġencar gar
b in
Ġcan tante
Ġvuel va
c ab
Ġpan tal
8 1
ĠH ab
is h
Ġevi dente
Ġp ene
ec on
En ten
Ġfortal ecer
Ġ 01
Ġ Qui
ciden tes
Ġcam peÃ³n
Ġca u
ez ca
Ġal f
Ġcerve za
ĠestÃ¡ bamos
ĠS tar
el le
Ġps ic
m ÃŃ
D ice
ĠMig uel
Ġir nos
Ã©l ulas
Ġinter me
Ġpens aba
Ġac tor
br ar
ft ware
Ġres tos
ru guay
am p
J ack
Ġdisfru tar
or ÃŃas
ĠH on
ĠChar lie
Ġmone das
Ġcontra taciÃ³n
y s
Ġre duci
Ġtor no
Ġconvoca toria
Ġcomp u
ĠE mi
j Ã³n
tor iales
i entes
Ġpobl aciones
Ġsuje to
Ġhistor ias
Ġcubri r
Ġab uela
Ġgaran tÃŃas
Ã¡ndo le
Ġreci be
Ġconvi erte
ĠS en
Ġdes emp
ĠRepresent ante
Ġab uelo
Ġdi vis
g iendo
Ġenfer mo
Ġ7 5
Ġescen ario
Ġe tique
ta tivo
Ġs at
Ġj uro
Ãī ste
Ġdesas tre
n et
gu st
Ġprepar ar
Ġpa tri
Di le
Ġas al
Ġrecuper ar
ste in
k u
ern as
Ġe char
An exo
Ġlo g
Ġin gles
Ġpro mes
z amos
ĠEuros istema
Ġpre venir
Ġmar gen
Ġcomerci alizaciÃ³n
Ġtorn eo
Ġso ber
E A
Ġim pi
Ġcoo per
on os
Ġexplic ar
C U
Ġsent encia
Ġtar dar
Ġn ar
Ġexp lica
Ġexten siÃ³n
Ġab ur
Ġdestin adas
ĠG on
Ġejer cer
ĠTur quÃŃa
Ġcon ferencias
B as
Ġc ami
Ġco ordenadas
Ġcompar aciÃ³n
ĠM ac
ĠF er
Ġof en
Ġru ral
ad ro
I O
ĠE gipto
Ġf er
ate m
en io
Ġh ones
Ġpose e
Ġdecre to
Ġequivo cado
Ġv ÃŃas
mes tre
Ġutiliz ados
ĠB ul
Ġau tÃ³n
Ġdis curso
ĠAu tor
us h
Ġmonet aria
ĠSui za
Ġcontro les
Ġsu ya
in ando
ciden cia
Ġexper iencias
Ãº r
Ġh all
Ġis las
Ġel i
Ġhab ido
ĠAs ÃŃ
Ġpo cas
Ġnoti ficaciÃ³n
Ġre trib
t adores
Ġa ust
Ġresta u
Ġpod ÃŃan
ĠPol onia
S erÃŃa
ĠPen al
Ġco cin
mi os
Ġc m
Ġfron teras
Ġven gan
c lam
ĠD ÃŃa
ue ve
Ġviol aciones
In ter
Pue den
ĠS ara
" Â¿
Ġpa pe
Ġv iste
Mi re
ti mos
Ġrealiz ada
Ġcelebr ar
ĠPol icÃŃa
Ġadap taciÃ³n
Ġprior idades
Ġar ran
si eron
ĠEx teriores
Ġd ÃŃ
Ġap un
Ġpermi ten
e os
c tur
m ula
Ġcorrec ta
Ġca tal
f an
Ġhu mi
Ġtrad iciÃ³n
Ġpar ed
Ġacab ado
Ġsent imientos
Se Ã±ora
Ġjug adores
Ġa ves
ĠI a
es tÃ¡
Ġsuf ri
contin uaciÃ³n
Ġecon om
li dos
i des
Ġequi p
Ġap rueba
t aban
Ġsan ciones
Ġnorm almente
as iÃ³n
car se
Ġconcent raciÃ³n
ci li
er ba
c ara
Ġensay o
ĠMa g
Ġaque llas
Ġgu a
Ġtradici onales
at h
Ġterror istas
ple mente
m ada
Ġa pe
Ġpas os
Ġlegisla tivo
Ġmedi ados
Ġfac tor
Ġatra c
ĠF u
Ġfin alidad
ad ura
gos la
Ġbel leza
pul aciÃ³n
Ġpersona jes
igh t
Ġco ger
Ġparti culares
Ġ Ãīl
vi lla
ĠS co
Ġsolici tar
Ã± ado
Ġllam adas
ĠtÃŃ p
Ġaconte cimientos
Ġl Ã³g
Ġlanz amiento
Ġten ÃŃas
Ġc Ã©lulas
Ġempie za
ĠS oy
Ġaus encia
Ġenfer m
Ġcomba tir
Ġen cer
Ġesta tal
ĠÃ¡rbol es
Ġdiv or
gÃ¼ en
Ġimp ul
Ġdescon oci
ĠJ un
ĠH el
Ġjuris dicciÃ³n
Ġcap tur
Ġconven io
Ġapar eciÃ³
Ġsigni fic
ĠA ll
Ġbra zos
ĠEs lo
gr ad
Ġsi ga
Ã© ticos
Ġim pu
end ario
Ġlec tura
Ġr uido
r ones
Ġhubi ese
ĠPerman ente
Ġsi tios
Ġrecomend aciÃ³n
O D
Ġil ÃŃ
ĠT ele
ĠDo ctor
Ġse min
ĠMar tin
ter ÃŃas
ĠS A
Ġins ul
ĠEURO PE
pi Ã©
as o
-------- --------
Ġll ena
Ġcom itÃ©
Ġc es
later al
Ġsigui endo
Ġjard ÃŃn
Ġdo m
ĠG ui
Ġtex tos
ber tura
gui r
Ġaf irma
Ġag re
ĠIn formaciÃ³n
Ġdo ce
Ġ201 8
mÃ¡ ticas
ap ones
e la
QuÃ© date
ing Ã¼
Ġme d
Ġplen o
Ġes feras
ĠP Ãºbl
Ġen cam
iz ada
Ġla go
Ġen cen
Ġper ra
I P
Ġpist ola
Ġbos ques
til las
Ġk g
Ġabs or
ĠK u
ĠEjecu tivo
le tas
Ġviv iendas
C ol
P r
Ġutiliz an
Ġme tro
Ġfues e
abili taciÃ³n
Ġv ar
Ġalco hol
J os
C er
ĠmÃŃn ima
Ġcele bra
r ente
Ġinteres ado
Ġconvertir se
qui lla
Ġdev olver
ĠR elaciones
Ġinte lectu
Ġexpres a
Ġacu mul
ĠfÃ¡cil mente
Ãº l
Ġcen ar
Ġse pa
Ġcombust ible
ue los
Ġpol vo
Ġla mento
ĠS ab
Ġmodific ado
Ġam ari
ĠE cu
Ġmar ÃŃti
Ġinici Ã³
ci erto
Ġarri es
tes e
Ġal tos
Ġrit mo
Ġg rÃ¡
m por
Ġdecir lo
Ġdescubri r
ic ciÃ³n
Ġmaravil loso
ĠE di
Ġale gra
Ġhi po
D an
Ġori ental
Ġinter nos
z e
Ġbri llante
6 9
Ġherrami entas
Ġperman ecer
Ġantigu os
Ġprome dio
Ġn aciÃ³n
Ġgobern ador
aci Ã³
Ġform an
Ad d
Ġespec ÃŃfica
ĠCum bre
E E
ĠMi ke
ĠfÃ¡ brica
id aciÃ³n
Ġis rael
Ġno vela
li zar
ar los
Ġac titud
Ġv ÃŃn
u th
Ġco pia
Ġn Ãºc
Ġestu ve
ĠhistÃ³r ico
Ġ4 3
ĠCari be
Re gres
Ġescri tor
Ġcasti llo
Ġhar Ã¡s
Ġterri torial
ĠS Ã³lo
Ġpin tura
Ġelec tri
gan istÃ¡n
Ġver ific
Ġbor ra
Ġasi ento
ĠO NU
ine bra
an t
EN T
Ġmedi cina
Ġmi li
Ġespec ÃŃfico
Ġo di
Ġadop tÃ³
Ġde tenciÃ³n
g ame
ĠSal vador
ĠseÃ± ala
Ġrecono ce
ĠRo bert
Ġbu ques
g ina
Ġanunci Ã³
Ġacce der
Ġper si
cis mo
Ġv istas
Ġl istos
F orm
Ġtrans formaciÃ³n
Ġch o
jes tad
Ġelabor ar
v adas
Ġpresent an
Ġcom is
p la
Ã¡pi do
Podr ÃŃas
Ġme tal
ĠS istema
Ġeurope as
Ġa fric
E mp
Ġcol ores
ĠPue b
du jo
ĠB ib
Ġigu almente
Ġp eces
u x
Ġoc cidental
Ġequili brio
Ġresta urante
Ġcomunit arios
Ġt asas
ĠEstatu to
s er
tar Ã©
ui rÃ¡
Ġimpe dir
Ġconcre to
sist encia
Ġci fras
Ġimag in
de os
Ġl ados
Ġbor do
à ¸
uel to
pon en
Ġdeci de
b ana
ĠB Ã©lgica
er al
Ġch a
Ġconside ran
Ġpos iciones
Ġagrade cer
i vas
ĠCons ul
or gan
Ġsol u
t ables
Ġhi dro
Ġllegar on
Ġindic adores
Ġri d
Ġprevi sta
Ġprofun do
Ġpub licidad
V Ã©ase
Ġregist ros
Ġt echo
ĠPR ES
Ġ4 2
Ġreform as
Ġestar Ã©
ĠB or
Ġtribun ales
Ġlen guas
Ġt r
Ġfamos o
Ġun iÃ³n
Ġdi entes
Ġlin do
Ġcompren der
ĠDO GC
Ġrele v
Ġl unes
Ġper ros
ĠP uerto
qu in
Ġ8 5
Ġequival ente
ĠD en
Ġrespons abilidades
Ġglo b
Ġex ces
gar on
T h
Ġap os
Ġr in
res tre
Ġcos to
ĠpÃ©r didas
adÃ¡ ver
E I
ĠmÃºlti ples
Ġcer rar
Ġdes ay
u g
Ġcor ta
Ġespaci os
Ġr enta
Ġenemi gos
ĠL es
Ġreci entes
Ġquer ÃŃas
Ġlogr ado
ĠN uevo
tom as
ĠG ab
jal Ã¡
ĠEn tonces
Ġt ÃŃtulos
uer zo
t m
f or
Ġindustri ales
ĠIs las
Ġcient ÃŃfico
Ġdisposi tivo
Ġdest inado
le z
V Ã¡monos
Ġindividu ales
Sab ÃŃa
ich o
ĠcrÃŃ tica
ĠmÃ© dica
Ġr uso
ĠseÃ±al ar
Ġdefini tiva
Ġdemoc rÃ¡
Ġsuper ar
Ġaprendi zaje
Ġinform ar
ir mar
Ġt orm
ĠS y
ir ÃŃa
Ġmane jar
Ġ4 4
Ma Ã±ana
ĠcompaÃ± ÃŃas
Ã¡n ico
Ġsal ario
ien a
gar se
Ġb omb
ĠInter na
Ġro bar
Ġdeclar Ã³
Ġdiri gido
ĠT an
Ġso br
ĠDan iel
ĠP ablo
J a
ĠPres identa
ĠC enso
Ġb ara
Ġarm ados
Ġre acciÃ³n
Ġve a
Â ³
ri tos
Ġque dado
Ġgui tar
Ġdec ÃŃr
Ġaten der
Ġre Ãºn
ĠMu seo
Ġan illo
in ter
Ġcri a
Ġfe deral
Ġreg al
Ġca yÃ³
Ġam ar
Ġma tado
ĠP os
Ġhici mos
Ġcos tum
fici o
Ġde je
Ġle tras
Ġdej es
Ġra zas
Ġcole gio
Ġperteneci ente
ran tes
Ġdel incu
Ġtrans fer
Ġlu ces
mar as
Ġsecre tarÃŃa
Ġh ielo
ĠUr ban
Ġinno vaciÃ³n
Ġma pa
Ġsig los
Ġli g
ĠAmbi ente
Ġpro v
y es
in co
r ero
Ġculp able
Ġc adÃ¡ver
Ġinvi erno
V an
Ġa er
em on
Ġmu l
Ġtrabaj an
C ambi
Ġg ar
Ġan i
ĠLat ina
Al to
Ġh ÃŃ
Ġajust e
Ġreg la
Ġcolec tivo
ĠM ur
ĠMar y
Ġimp le
xem burgo
G A
Ġi ra
Ġcre ciente
S A
ĠI rÃ¡n
i ento
Ġpas ada
Ob je
Ġlle vo
Ġinteres adas
Ġreci Ã©n
B en
Hi jo
d ona
Ġestableci Ã³
Ġcubier ta
u me
mi th
Ġtendr Ã¡s
l Ã¡m
Ġinten si
com unic
Ġho jas
ci ado
Ġru rales
Ġrecom en
g le
Ġn acion
Ġfuncion ar
Ġbas a
est Ã¡s
ri mi
ĠS tan
Ġl la
Ġdiab lo
Ġpertin ente
Ġcon gel
Ġcomb inaciÃ³n
Ġcompren dido
Ġpol i
Ġaudi encia
Ġprim aria
c Ã©n
ĠF orm
ĠTerri torial
Ġesp ada
vi le
Ġe ficiencia
Ġepiso dio
Ġtri un
Ġp ic
Ġas ent
ĠCom o
ĠL ar
R O
ĠDin amarca
gra f
m u
ra bes
ĠMon te
Sim plemente
Ġhay as
Ġno tas
Ġra ÃŃz
Ġderi vados
or ado
Ġzapa tos
Ġconsegui do
Ġem isiÃ³n
V al
vi mos
Ġconvers aciÃ³n
Ġme ta
ol ina
ĠcontinÃº a
Ġcorrespon den
Ġasesor amiento
Ġadquisi ciÃ³n
Ġmensa jes
Hab la
ĠPro vin
Ġten dencia
Ġventa ja
ĠAdminist ra
S am
Ġfan tÃ¡
Pos teriormente
Ġaplic aciones
ĠPre mio
Ġcoment arios
Ġtesti go
ĠSue cia
Ġusu ario
Ã ²
Ġdescri pciÃ³n
ĠC er
Ġrad i
Ġproduc tor
Ġcer rado
Ġr ico
ĠAf ganistÃ¡n
americ anos
Ġacos tum
Ġtemp lo
ĠT ri
Ġofici almente
ĠT Ãº
Ġsatis fa
Ġmal os
Ġtor re
ĠHen ry
Ġintelig encia
Ġre loj
Ġinteres a
F i
Ġapar tados
ch el
Ġhue vos
tro cin
Mir en
Ġten dremos
Ġa ran
l adas
ĠS ta
Ġg lor
u dar
ĠCE E
ĠUni versi
in adas
an s
Ġprevi o
Ġdele gaciones
Ġexclusi vamente
Ġmues tras
Ġil ust
Ġprohibi ciÃ³n
Ġindi car
ĠDi ario
ĠFa cul
I CE
Ġa fi
Ġentre vista
Ã¡ les
Ġver me
Ġtranspar encia
Ġdar te
ĠV in
Ġre cep
Ġde par
Ã¨ s
Ġpi ernas
Ġdar me
p p
Ġ198 4
Ġco pa
Ġe cus
Ġvista zo
Ġtermin a
199 4
N O
Ġter cero
Ġile gal
Ġfirm ado
Ġve get
Ġrev oluciÃ³n
Ġpro puesto
Ġale manes
Ġblan ca
Ġguar dia
Cre ÃŃ
ĠCon go
Ġlan zar
Ġcom andante
AL ES
ĠespectÃ¡ culo
ici pios
or ra
ĠAn ti
Ġsue le
Ġch i
Ġcomp ens
ĠJ or
Ġus ado
ĠW e
am entos
Ġlan zado
Ġadu an
Ġcal endario
Ġver la
Cual quier
Ġcontam inaciÃ³n
ĠJ uegos
Ġen tero
Con s
Ġf arma
Ġvi vos
Ġpa ga
ĠhÃ©ro e
ĠseÃ±al Ã³
ĠC Ã¡mara
Ġhacer le
ĠSi erra
Ġdesarroll ado
li to
" ...
Ġdeli ber
Ġmod alidades
Ġllev aron
dr Ã¡s
Ġu m
Ġfuer an
Ġform ado
ĠM el
fi eld
Ġsigui Ã³
ĠRich ard
Ġar bi
Ġca Ã±
Ġcapa ces
Ex ac
ĠÃ© stas
si to
Ġpro lon
T am
ga te
Ġextre mo
Ġcu yos
Ġmin as
ĠRe v
En tiendo
Es as
atem ala
Ġan ci
ec k
econ Ã³m
st r
Ġins pir
Ġcomp r
Ġinter rump
N orm
Recuer das
Ġpie za
Ã¡ ticas
Ã³ stico
Ġgan as
it z
Ġpo tencia
uy Ã³
I Z
Ġintegr ado
Ġprodu jo
ci tos
Ġg er
Ġmodific ar
du l
Ġf ich
Ġcuesti on
ĠXI X
Ġso cios
S te
Ġinf ancia
Ġhogar es
Ġconduc ta
Ġforma to
Ġidi omas
Ġpolic ÃŃas
in to
Ġquer er
ĠD ist
Ġquedar se
ĠH ist
st ancia
Ġrepresent an
Ġquedar Ã¡
R Ã¡pido
t he
& #
Ġuni verso
ĠLe Ã³n
Ġhu mor
Ġin e
ĠMa x
Ġsol dado
ec uciÃ³n
Ġdi versidad
ĠG i
Ġbal ance
Ġve ter
Ġlle gando
ad i
Ġin qui
Ġdi me
cios a
Con tra
Ġcompro bar
Ġlengua je
gas te
C ab
Ġv uestro
c ÃŃ
Ġf ores
ĠN os
Ġhabi tual
Ġenm ienda
ĠJ ane
M at
Ġpens amiento
is e
Ġensay os
icepres idente
or ld
ens ores
P lan
Ġperiodi sta
Ġcelebr Ã³
Di go
Ġhab le
tar Ã¡n
hi bi
ĠCoo peraciÃ³n
Ġsol id
ĠsÃŃn tomas
Ġhab r
on ces
Ġden unci
ĠBan k
Ġv uestra
lic os
ĠE mpres
Ġvol ar
se y
Ġvia jes
ĠSu pre
Ġex tin
N G
Ġcomple jo
bernam ental
Ġoscu ro
Ã¡ndo te
ĠlÃŃ deres
Ġau ton
Ġau xili
Ġtrabaj ado
ĠJ en
Ġcon tÃ³
Ġher ido
Ġfe lici
C ara
Ġir Ã¡
Ġvie jos
Mal diciÃ³n
Ġre bel
em po
Ġhacer te
don os
ĠQ UE
ĠperiÃ³di cos
Ġl istas
Ġcole cciÃ³n
Ġllev arÃ¡
di ciones
Ġprecis amente
ĠYu gosla
Ġgu ÃŃa
Ġca ÃŃda
ri dos
Ġmez cla
ĠFund aciÃ³n
ĠSoci edad
Ġcon form
Ġint enta
I L
Ġtesti gos
Ġconci er
Ġbon ita
Ġim puesto
or as
Ġre tro
S ra
baj ador
ici o
ĠJe an
Ġes cul
un iÃ³n
ren os
ec ÃŃan
j en
w ell
Ġhabl amos
ĠÃ© tn
Ġdemos trado
Ġtan tos
ĠC D
Ġso ftware
Ġvir us
Bar celona
an ta
En tidad
Ġcabal los
Ġquin to
Ġ197 0
it an
Ġinform Ã³
Ã £
Ġtele f
ĠOc cidental
Ġreun ir
Ġsu pi
ĠW ar
Ġmor al
Ġpasa jeros
Ġn ombra
Ġj apones
Ġbienes tar
Ġcontinu a
Ġr onda
Ġsi mp
P u
Ġim bÃ©
Ġdis cre
Ġcon curso
Ġpol ici
De ci
un as
201 1
Ġac ero
ĠprÃ³xim os
Ġde sta
Ġqui se
199 5
ĠV a
ĠHar ry
ĠPrim er
Ġtan ta
Ġhaber lo
Ġpa isa
Ġalcal de
Ġdes arme
il los
si e
ĠAm eric
Ġocur rido
Ġus os
Ġalim entaciÃ³n
Ch ar
Ġac triz
Ġestruc turales
c Ã³n
Ġmol esta
Ġrep ente
ĠInvesti gaciÃ³n
ĠG ro
du ras
Ġc ÃŃr
Ġcelebr ado
Ġpri vile
Ġcier re
l ina
Ġpreocup ado
cri to
ĠS us
ĠB on
Ġestadouniden ses
Ġcon cur
Ġh arÃ¡n
Ġpo ca
ĠFern ando
tor i
americ ana
ĠGar cÃŃa
Ġin just
A par
ĠChar les
Ġcas ado
vi do
Ġcuo tas
... "
Ġembara zada
Ġro ck
Ġrefi ero
ues os
aliz Ã³
Ġsist em
Ġavi ones
Ġadministra tivas
Ġpres taciones
Ġ4 9
Ġpreocu par
Ġp ido
ĠA R
Ġt ÃŃa
ĠfÃŃs ico
Ġsali do
Ġesta tales
Ã¡n dez
Ġgri e
ĠN O
CI A
me j
ac ciones
oy a
ĠMil enio
Ġto ca
Ġcam ar
fic ada
Ġque de
Ġd uer
Ġyo u
ĠV illa
tera tura
Ġtranqui lo
Ġnaci do
Tu ve
Ġocu pa
Ġver Ã©
Ġ6 5
g aba
Ġperfec tamente
ol es
Ġve te
Ġuni versal
Ġplata forma
e to
Ġexig e
Ġla ment
ĠG ir
Ġhaber se
Ġdismin uciÃ³n
Ġmodific ada
Ġingres o
Ġci gar
Ġide al
Ġpan talla
gÃ¼en za
C Ã³digo
Ġ- -
Ġen ca
z ones
Ġmal as
Ġrefer ente
Ġincl usiÃ³n
Ġconcre tas
ĠL ÃŃ
Ġaprob ada
Ã± ar
Ġdescu bierto
Ġvalor aciÃ³n
ĠPro fes
Ġpermi ta
F al
Ġreh abilitaciÃ³n
Ġacab o
in ea
Ġata car
Ġco bertura
Ġdep Ã³sito
g Ã©n
Ġreconoci do
in Ã³
ĠB ern
ist en
Ġab st
Ġdipu tados
ĠN av
Ġsu ple
Ġubic aciÃ³n
Ġvay an
Ġ198 2
Ġ9 5
Ġvi gi
Ġhab lo
Ġcam inar
s k
U C
199 7
D er
tor ÃŃa
it ch
jer as
u alidad
Ġgas to
z go
u puesto
de dores
Ġcapaci dades
ĠdÃ©j ame
S IDA
Ġperfec ta
Ġimp lan
ĠI F
Ġpas an
Ġdes en
Ġh echa
Ġdom Ã©st
Ġnecesit aba
Ġdel ic
ĠprÃ¡c ticamente
Ġob e
Ġno ctur
Ġace ite
Ġen seguida
Di je
Ġafec ta
in cl
can o
Ġcient ÃŃfica
c amente
Ġlle ve
Ġfi ja
Ġreg lament
Ġatra par
Ġbrome ando
Par tida
Con tin
" ).
Ġar gent
el as
Ġile g
Ã¡ frica
Ãī sta
Ġimpres iÃ³n
Ġtu rismo
Ġmencion ados
pe z
Ġleg ÃŃti
ĠseÃ± ores
Ġ15 0
D entro
Ġposi tivo
Ġconce der
Ġin sta
Ġju bi
ĠT ec
cran ia
Ġatra ves
Ġpa trimonio
terrÃ¡n eo
Ġve inte
Ġir te
ri an
ĠT re
Ġencontr aron
Ġan alizar
ĠEs paÃ±
Ġf el
Ġb is
O tras
Ġuni forme
Ġsat Ã©li
ĠGu ar
uel ta
Ġnecesit ar
Ġpos teriores
Ġavan ces
Ġlo gro
aliz adas
ĠCre o
Ġdetal le
Ġdiscu tir
Ġ5 6
ĠEn er
Ġran go
Ġpriv adas
Ġelectri cidad
ĠF BI
Ġten iente
Ġ198 3
Ã© ano
Ġmedio ambi
Ġ4 7
Ġfras e
Ġci vi
Ġcam iÃ³n
Ġvisit ar
ĠImper io
Ġ4 00
ĠbritÃ¡n ico
Ġre cepciÃ³n
Ġdebi damente
ĠL le
ĠA cademia
Ġentre vi
Ġinvesti gar
se l
F u
Ġcoin ci
Ġli ger
Ġapar ecer
Ġpa quete
lam iento
Ġtrabaj Ã³
Ġprogram aciÃ³n
gÃ¼ edad
ĠB oli
ĠW a
ĠdÃ©bi l
tien de
Ġcor rupciÃ³n
Ġescol ar
Ġinici ar
Ġentren amiento
do min
Ġdej ando
ĠBre taÃ±a
ĠGu atemala
G an
li sta
Ġcon sta
Ġest ren
vers ario
ing s
Ġur gente
rÃ¡n sito
Ġne gra
Ġag rup
Ġmu ere
Ġdesapar eci
Ġpresent ada
ĠlÃŃ qui
Ġobserv aciÃ³n
c adas
Ġtra e
Ġexist ente
Ġindi can
Ġencontra ba
ĠA st
Ġviv iendo
om bi
Ġtol er
ĠSuper ior
Ġtra mpa
ĠMar k
Ac abo
Ġlo gra
Ġcandida to
cri p
m Ã©
Ġtra ÃŃdo
Ġpro to
ĠMi ra
Ġe cu
ĠN ick
Ġmaravil los
ĠÃģn geles
li fer
Ġac tiv
it ar
ĠCul tura
ĠOri ental
ĠU ruguay
Ġmun icipios
Ġman dar
s pec
Ġlla ves
ĠBuen as
Ġmues tran
L lÃ©
ĠNor uega
cÃº l
Ġcan tar
Ġindepen dientes
% ,
Ġrefle x
th a
Ġcambi a
Ġincu mpli
Ġimp lica
gra fo
ĠG inebra
Ġhal lar
ent imiento
d ras
Ġ4 1
Ġb ala
à¸ Ģ
Ġlabor ales
Ġconfi gu
ĠCi vil
Ġab ar
ĠM en
am en
ti di
Ġnegoci aciÃ³n
Ġci entos
ĠT es
g s
Ġdimen siÃ³n
Ġlimpi eza
ĠA diÃ³s
ĠAh ora
Ġch il
Ġsi lla
J efe
Ġmi rada
" "
li que
Ġautob Ãºs
ĠA ri
Ġsome ter
Ġsi l
l Ã³g
Ġdi gn
Ġinstitu cional
, ...
m ol
Ġpar lament
Ġen com
Ġidentific ar
Ġpa trocin
Ġm ental
th er
em in
estruc turas
un dir
Ġver emos
Ġofrec en
Ġmar cas
ter na
Ġso f
Ġper dÃ³n
Ġpele ar
ĠcÃ¡l culo
bi das
es en
gue z
v ol
Ġo ye
Ġba jas
TI V
J e
Ġcal ma
Ġa se
ĠComis ario
Ġconstr uido
ĠT Ã©cn
Ġman eras
Ġpape les
~ ~
Ġca za
ĠMay or
F OR
f en
Ġmi la
v enta
C rÃ©
le to
G R
um er
Ġtor tura
Ġfortal ecimiento
Ġs ensaciÃ³n
Ġhici era
ĠaÃ© reo
Ġdomin go
Ġdo mi
UL O
Ġg ras
Ġre tra
Ġca tÃ¡
Ġab on
Ġautom Ã³
ĠM us
ĠN ada
U T
Ġmed alla
m ando
is on
Ġescri ta
Ġpropor ciÃ³n
ĠFe li
Î ±
ene fici
B e
ti cip
Ġoscu ridad
I R
Ġcor onel
Ġexi tos
H echo
Ġalterna tiva
ĠA na
I CI
ici os
Ġmonta Ã±as
Ġdu das
Ġorganiz ado
Ġhabit aciones
Ġsigni ficado
Ġpr ÃŃncipe
Ġespiritu al
Ġse mej
Ġs how
Ġemple ado
dÃŃ os
i la
Ġg ay
Ġentren ador
ol d
Ġman tuvo
ĠL is
l Ã³n
ĠP ales
Ġsecre tario
Ġri que
Ġcaball ero
mos lo
ĠV all
Ġsuspen siÃ³n
C R
ĠT ro
ĠÃ¡ rabe
A si
a je
Ġap ariciÃ³n
ĠEst o
Ġrestric ciones
ĠfenÃ³m eno
ĠT al
Ġpropi edades
Ġcambi Ã³
Ġcli mÃ¡tico
Ãº a
Ãºd ame
Ġestableci da
Ġpas eo
Ġrela tivamente
Ġcuar ta
Ġabandon ar
Ġtendr Ã©
Ġelec toral
Ġpas arÃ¡
v Ã¡
Ġcin ta
ĠUrban ismo
Ġesen ciales
ĠMun icip
Ġpriv ados
Q U
ha cer
Ġpro f
Ġguar dar
Ġdon antes
H A
Ġcole ga
Ġcamp es
rad ic
Ġp echo
Ġases inado
all y
ĠR en
Ġcre ÃŃa
Ġalmacen amiento
Ġconcep tos
n al
w er
Ġros tro
Es cÃº
Ġsin dica
ĠseÃ± ales
Ġdue Ã±o
Ġex teriores
Ã³n imo
T a
ĠvÃŃ deo
amili a
Esper e
Ġb ron
Ġhos p
loso fÃŃa
ĠP Ãºblica
van se
Ġestudi ante
ĠLe e
Si Ã©ntate
Ġexp uls
Ġgesti on
ĠP ra
Ġhor iz
Ġele vado
Ġcole gas
Ġhor ario
d amos
Ġcomp ensaciÃ³n
ĠB r
Ġexport aciones
Ġpar Ã¡
Ġinvi tado
Ġpun tu
ĠdifÃŃ ciles
te za
Ġcre ÃŃ
ĠobstÃ¡ culos
Ġpro pa
Ġobli gado
U h
Ġextraordin ario
ĠâĢ ¢
Ġdedi cado
ta tivas
Ġale mana
F un
Ġcomp ras
g ri
Ġamena zas
Ġr ar
Ġal tas
Ġre quier
Ġsuel en
Ġ5 4
Ġbar cos
ter s
no logÃŃa
Ġrelacion ado
Ã³n ico
Ġinno v
J usto
V olver
Ã³p tero
Ġpros titu
fi que
Ġtra mi
Ġcompren de
es es
ur t
pti mo
Ġpermi tiÃ³
ĠAutor idad
Ġcu ra
Ġro mÃ¡n
Ġquedar me
americ ano
Ġcab ello
Ġreda c
Ġolvi dado
ĠcÃ¡ maras
ues tras
u das
Ġsol os
ti stas
a ve
cion amiento
Am bos
Ġre in
Ġfi jar
Ġcome tido
Ġdomin io
Ġ Ãī
Ġaveri guar
Ġinoc ente
Ġfle xi
Ġampli ar
ell y
graf ÃŃas
Di jiste
Ġ5 2
Ġn ena
f ini
Ci erto
per ador
Ġpon iendo
Ġval le
Ġenf ad
c Ã¡n
Ġsent ado
Ġayudar me
ĠPor que
ec o
Ġdemas i
Ġau tos
Ġestre cha
Ġac tores
Ġa loj
Ġliqui daciÃ³n
Ter min
ĠcrÃŃ menes
r aron
Ġtom e
Ã³ x
Ġater ri
Neces itas
m s
Ġcercan o
ĠH al
Ġmundi ales
Ġejemp los
ĠbÃ¡s ica
D ie
P S
Ġsi mpli
gu lo
Ġgra tis
199 6
pe ci
teri za
Ġfi estas
ĠR ica
w an
Ġil umin
Ġan ex
Qui siera
Ġanun cio
ari ales
Enten dido
Ġdesemp leo
l ine
Ġ197 9
ti car
ti e
Ġw h
Ãº rate
Ġpro lifer
V eo
Ġc ien
Ġ5 8
Ġpermi tido
Ġc ero
Ġf Ã³r
Ġso portar
Ġcriter io
ĠLu xemburgo
Ġment ira
ul aciÃ³n
ĠA de
Ġayu de
ĠespaÃ±ol es
Ġsuper vi
Ġmu Ã±
Ġen tu
Ġtan tas
Ġsecre tos
i lo
ĠR uman
Ġar que
Ġplan os
Ġmus ul
ĠA po
gan da
Ġch oc
ĠJ ur
Ġintro ducir
Ġconven iente
Î ¿
ĠelÃ©ctr ica
ĠCole gio
qu ero
Ġnervi oso
ru m
fric ana
Ġ5 7
ĠH os
ĠA quÃŃ
S ervi
Ġin Ãº
Ġsubsi di
M Ã©
Ġhuman itaria
L in
ent re
Ġref undido
I rÃ©
k es
Ġg e
Ġvia jar
Ġn aciones
g aria
Ġdesapar ecido
Ġdes ap
ĠCh ica
in er
l aciones
Cre e
Ġsobrevi vir
le cciÃ³n
Ġconven cer
T us
Ġpantal ones
Ġde cen
ĠAgr icultura
ĠRela tor
Ġafec tado
Ġg ir
ĠP NUD
ĠAD N
Ġdej Ã©
Ã£ o
Ġvac ÃŃo
ĠEcu ador
Ġju dÃŃos
Ġmer ece
cional mente
Ġsol ÃŃa
ĠnÃºc leo
Ġdep Ã³sitos
Ġdue le
esti a
ĠDef ensa
Ġi ban
Ġjur ado
ĠelectrÃ³n ica
I ma
Ġgra cia
Ġllev aba
Ġsal iendo
Ġpon ente
Ġmon um
Ġpa ta
ad y
d ÃŃan
ĠV il
Ġju ventud
L amento
ĠL or
ĠP ues
ĠU crania
Ġjue ga
fic ados
Ġcompu tadora
Ġgri ego
Ġne gros
Ġobserv ar
I G
mpor Ã¡n
ĠEsp ÃŃritu
Ġco di
G ra
Ġorganiz ar
Ġrevis ar
Ġmencion ada
and ro
u dos
ĠV iena
Ġt rÃ¡nsito
ic tamen
Ġh isp
Ġcar ro
Ġinvi tados
Ġ5 1
Ġpier na
Ġprofun da
g ador
D ado
w in
ĠO M
E C
p lan
Ġins cripciÃ³n
Ġhab lan
ĠPro tecciÃ³n
Ġdis capacidad
Ġalcan zado
Ã ´
Ġper diendo
Ġexpe diciÃ³n
Ġdeba tes
Ġpl Ã¡
Ġllev ando
Ġconsider arse
Ġser ÃŃan
Ġconoci dos
ĠpÃ¡ jar
Ġrealiz an
Ġconci erto
Ġs eno
Ġprove edores
ch ada
ĠFin landia
O jalÃ¡
Ġj er
it aciÃ³n
le c
ĠC ity
Ġexpres ar
Ġh ola
M un
tr Ã©
Ġuniversi dades
Ġde biÃ³
Ġro di
don de
Ġefica ces
c amiento
Ġfrances es
u gh
ĠFuer za
Ġga to
Ġpon en
Ġci fra
i k
Ġdefin ir
Ġgrad u
Ġmu seo
B RE
Ġcono cen
Ġ9 3
IS IÃĵN
D r
c ana
L O
Ġamist ad
! !
mon d
Ġm Ã¡r
car ril
Ġap la
ill y
Ġre mun
In tent
Ġras tre
Ġf echas
Ġtab la
Ġescuch ado
Ġinmedia ta
di era
si as
Ġdetec tive
Ġg ama
Ġproporcion a
Ġ198 1
Ġne u
ĠBer lÃŃn
Ġpu ra
Ġperspec tivas
A f
Ġsuje tos
Ġc ro
Ġigu ales
em ia
pi to
Ġ om
ĠJ an
Ġde jo
Ġe pi
Ġadecu adas
Ġde dos
Ġcorri endo
vi era
ĠmÃ³ vil
ĠZ el
Ġconj unta
Ġindemn izaciÃ³n
ter io
CuÃ¡n tos
ci das
Ġest ima
g is
ĠReg istro
S il
Ġhubier an
Ġmas cul
Ġinter poner
Ġt Ãºn
Ġba jos
Ġma ta
i vamente
Ġfisc ales
vi Ã©tica
gas e
Ġrefer irse
ta vo
Ġhacer me
ĠL en
Ġapar ecen
Cap itÃ¡n
Ġagr icul
Ġfra cas
Ġcopi as
Ġnu tri
tor nos
Cap ÃŃtulo
ĠimbÃ© cil
ĠF oro
Ġregres Ã³
g y
Ġbien venida
Ġretir ada
ĠAn exo
U M
i fica
Ġavan ce
Se gui
Ġg rados
Ġadministra tivos
ci lio
Ġaliment aria
Ġno ve
ĠT ony
ĠV o
Ġem is
Ġdejar Ã©
ĠF ar
mbo lo
Ġconse jero
P C
ĠÃŃn dice
Ġconqui st
Ġventa jas
ĠLe on
E d
Ġguar da
s hi
ĠC O
ĠTo do
Ġdes pa
M as
Ġdistin to
Ġju gÃ³
TA DO
Ġconf es
Deber ÃŃamos
Ġsecu estr
Ġe duc
Ġma g
Ġur bano
per aciones
ur al
Ġtra go
Ġc lic
Ġllu via
Ch icos
qui eres
ĠMinist ros
om Ã©
Ġe va
F uer
Ġtre inta
Ġpartici pa
Discul pa
t enta
Ã³ cra
Ġreco gida
ICE F
Ġasign aciÃ³n
Ġdestac ar
Ġdesta ca
ĠZ a
Ġcon de
dr al
ĠJos e
ĠRegi onal
Ġponer se
dones ia
Ġabsolu tamente
Ġn omin
hab la
ten se
Ġvolver Ã¡
Ġdepar tamentos
ĠpÃ¡rra fos
Ġemo cion
or aciÃ³n
rue cos
Ġobten ido
Ġor al
â Ļª
Ġn ariz
Ġhi erro
und amente
ĠEE E
Ġprolifer aciÃ³n
Ġtra jo
Ġno ble
Ġ Quiero
Ġpresent adas
Ġver siones
z aba
g lo
Ġde porte
Ġcertific ados
Ã©r col
ent amente
Ġcolum na
Ġcorri entes
ta tiva
Ġhabl Ã³
ĠT ar
ĠV ale
ĠEst udi
Ġdenom inado
Ġpres erv
Ġpos esiÃ³n
Ġapo ya
ĠGu inea
Ġme te
ĠO l
Ġconside rando
Ġposi tiva
Ġpri mo
Ġprima vera
Ġul tra
Ġdiri ge
Ġconten idos
Ġal ber
Ġcamp amento
ĠE lla
Ġindi rec
Ġdeten ido
ri sta
Ġestad ÃŃstica
Ġqui so
Ġrid ÃŃculo
s y
ĠGo bern
U d
Ġdes h
Ġflo ta
ĠR oy
Ġespaci al
Ġma gia
tra ciÃ³n
comunic aciones
Ġch ino
bl ica
Ġpro clam
ĠCu ando
Ġf ar
Ġsol ar
Ġban dera
ÃŃn s
B enefici
m al
gun do
Pre gun
Ġproce der
Ġaran cel
ri llo
Ġasist ir
ĠS t
Ġexpan siÃ³n
Ġres ca
Ġindividu os
ĠB ea
Ġdispon ibilidad
Tra baj
Ġavan zar
Ġpublic aciones
ĠjurÃŃ dicos
duc tos
Ġrazon able
Ġhabi lidades
ĠMa jestad
Ġpal acio
Ġreno v
Ġtal ento
Ver dad
ĠdÃ© fici
Ġrespe tar
ĠTo dos
Ġcirc ui
gi eron
Ġp unta
Ġrepro duc
Ġbol si
Ġcomple tar
r eros
Ġrefi eres
h al
ĠMun do
Ġacus ado
T rans
Ġremun er
Res ul
Ġelec tro
Ġdios es
Do ctor
Ayu da
ĠSoci ales
ĠInterna tional
Ġinspec ciÃ³n
Ġpre mios
Ġameric ano
Ã± al
gen da
ĠVal le
ĠCh a
ĠW eb
J O
Ġcons a
Ġadolesc entes
ĠsÃ¡ bado
Ġdro ga
Ġbien io
Ġcu sto
........ ........
Ġpon ga
ÃŃ menes
Ġdispon er
er re
Ġperf il
Ġpar ro
Ġad ju
ri ba
Ġqui tar
Ã¡ us
Ġf uÃ©
Ġme todo
Ġre estructura
S uÃ©l
ĠG il
Ġfe der
Ġhab ÃŃas
Ġobliga torio
Ġambi entales
Ġapro bar
Ġabo gados
Ġexplic aciÃ³n
ĠIn te
Ġaprovech ar
Ġest aciones
der s
Ġdef ine
Ġsal ga
ĠHun grÃŃa
Ġcons enso
Com en
Ġextra Ã±a
Ġmem or
Ġten ÃŃamos
Ġtradu cciÃ³n
G L
Ġdes esper
Ġes que
Ġcans ado
Ġsatisf ac
ĠL uc
Ġdisposi tivos
x o
Ġpudi eran
Ġre cl
Ġper pe
Ġincorpor aciÃ³n
Ġar ena
man n
Ġcui dados
m em
Ġ197 8
ĠUn idad
Ġmoder n
Ġpro ven
Ġadmi tir
Ġasumi r
ĠFin anci
te la
ca piÃ©
Ġper segui
om end
Ġacep taciÃ³n
h tm
Ġefectu ar
C Ã¡l
qui to
Ġle al
S T
ĠHo tel
Ġapropi ado
ĠTh omas
Ġespeci alizados
Ãį A
Ġ197 5
Ġmo tores
Ġalcan zÃ³
Ġsegui rÃ¡
Ġdesc ribe
Ġdej as
vi dad
Ġest ancia
Ġme tas
Ġfin alizar
ab el
ĠaÃ±ad ir
Ġni Ã±
Ġinfra estructuras
ĠPAR A
Ġs Ãº
ĠPar k
Ġlan zÃ³
Ġllev as
Ġy endo
Ġes quina
Ġcom posi
Ġlle gan
Ġhin capiÃ©
Ġest ando
Ġso le
Ġconsol idaciÃ³n
Ġindis pens
Ġlin da
pi ro
e amente
ĠIndust ri
om er
Ġprepar ados
Ġev ent
Ġdest ina
Qui eren
Ġfu tbol
Ġbom bar
Ġten siÃ³n
van ge
Ġsolici tante
ĠCh eca
Ġcu entan
Ġsu pe
Ġ5 9
ÃŃcu la
Ġvi eron
Ġen tera
F echa
Ġsospech oso
ĠcrÃŃ ticas
Ġhuel las
Fe liz
ĠprÃ©st amo
Ġmencion ar
De cisiÃ³n
Est arÃ©
ĠT y
ĠF estival
ec as
Ġli teratura
ve te
Ġsepar ado
Ġcons ciente
Ġest acion
ĠSud Ã¡frica
f ia
Ġ ]
Ġarquitec tura
Ġer radic
Ġal ar
Ã¡ ticamente
Ġintelectu al
. âĢĿ
Ġconsec u
Mu cho
Ġsemi llas
Ġlim pio
Haz lo
Ġregu laciÃ³n
Ġentr arÃ¡
Ġprevi amente
Ġcom isiones
Ġ197 6
Ġencan tarÃŃa
ly n
Ġo x
ten imiento
ĠP IB
Ġtal ler
A un
ĠComis ionado
Ġpo pu
Ġcul tivo
Ġfir mar
Ġb ici
Ġdenom inaciÃ³n
Ġbote lla
Ġinter ro
Ġinter venciones
C P
s mo
g los
ĠS tu
Ġhom ici
Ġre ce
199 0
Ã³ pez
ĠW est
Ġin tra
Ġre ducido
Ġconoc ÃŃ
Ġ" Â¿
vi da
ĠP es
Ġsu primi
o h
uel vo
Ġdimen siones
paÃ± as
Ġsub ven
ĠdÃ©c adas
Ġag encia
Ġpar ecido
Ġsex uales
Ġpec ado
Ġsepar aciÃ³n
uy endo
Ġrev olucion
ĠK im
Jes Ãºs
Ġcor tar
Ġdescri to
Ġconstitu ciÃ³n
Ã³di gos
* *
Ġne g
stitu cional
Com p
Ġcuch illo
ĠSi ria
tr ad
Ġb eso
tu ales
Ġres titu
l ores
Ġres tr
Ol vÃŃ
tra je
Ġ >
Ġcam peonato
Ġ Ï
Ġelabor ado
Ġprofundi dad
Ġperson alidad
o d
Ġsab ido
it Ã©s
Fin alidad
ui cios
Tam poco
Ġcrimin al
Ġus an
ĠV as
ti ste
Ġliber tades
om bros
ĠPa pa
Ġimag inar
br ada
Ġher ida
Rec ord
Ġdign idad
Ġp Ã³
Ġfe licidad
i tor
Ġpod remos
Ġdispar ar
em bol
Ã³ lica
ĠMo di
Ġcar reras
Ġpreten de
pi ente
ĠS O
ĠPales tina
bo a
tr on
Ġinteg ridad
Ġde cep
Ġpre de
Ġt ari
Ġante ce
ĠI D
Ġpre vis
ĠChica go
v emente
Ġso porte
Ġsust ancia
Ġconjun tamente
Ġpos t
Ġreci b
Ġmedi ano
Ġr icos
vi e
Ġd ame
il andia
Ĥ ¬
Ġac tÃº
A bre
f il
ĠJim my
Tan to
Ġcomenzar on
Ġje fes
ma il
pec to
ko v
Qu ÃŃ
Ġ197 7
Ġjudi ciales
ĠChi pre
Ġconsi gue
ĠS U
Ġd ama
Ġpa pa
Ġintegr ada
ĠM esa
Ġmejor as
Ġdiscu siÃ³n
Ġl lan
t amientos
Ġconoc ÃŃa
Ġ6 4
Ġconsul tar
Ġrecuer dos
Ġpar ce
Ġale grÃŃa
ĠbÃ¡s ico
ren se
Ġliber aciÃ³n
ĠT el
t oma
ĠT ea
mp ing
Ġdeb ÃŃan
Ġpres idencia
p ÃŃa
Ġra yos
Ġpres i
Ġpe dÃŃ
z on
L ar
Ġform Ã³
Ġ196 0
ĠJ ord
st ica
Ġconven ios
Ġinvestig adores
Ġur gencia
Ġcons oli
Ġfel ices
as on
ĠS mith
ĠJor ge
Ġcre ada
Ġin ca
us al
em o
Ġempres arial
Ġcoord in
Ġab und
e e
Or gan
Ġencuent re
P ide
Ġparticip an
Ġadecu ados
gin al
Ġc able
Î ¹
Ġfor t
Ġde pos
D ale
Ġordin ario
ic s
ĠW h
Ġauton omÃŃa
Ġpla zos
ĠPla ta
Ġser Ã©
Ġdig ital
Ġvi d
Ġsent ÃŃa
Ġban das
Ġcontin ente
Ġexi gencias
Ġfra g
ti po
Ġdifer enci
Ġllor ar
pi dez
Ġ5 3
Ġciru gÃŃa
Ġnacion alidad
Ã ¢
ĠSud Ã¡n
V uelve
Ġcontac tos
Ġsolid aridad
8 00
ab ora
Ġro to
Ġmonstru o
Ġli ga
n is
Ġbor de
Ġlimit ado
Ġfavor able
Cor re
Ġeconom ÃŃas
Ġafec tadas
Ġsatisfa cer
Ġform al
Ġtra taba
Ġa diÃ³s
ad illa
Fe lici
un di
Ġindi cado
Ġreci ben
J im
ĠjurÃŃ dicas
Ġju gue
Ġfuncion ario
ĠC iencias
ĠÃ ĵ
Ġex pec
Ġcon tado
ci ar
Pre par
ĠM ich
ven idos
3 00
Ġsab ÃŃas
Ġllam aba
Ġmi llas
Ġsuf rido
Ġcontinu Ã³
ĠG lo
Ġprovin cias
oso vo
Ġmi ster
Ġtro p
M er
Ġcam inos
Ġpobl acional
Ġven drÃ¡
Ġ9 1
Hu bo
Ġprofes ores
Ġreestructura ciÃ³n
Ġcu yas
ĠPro yecto
it ri
Ġani versario
Ġauto p
Ġherrami enta
Ã©r ico
g ol
M or
ĠN eces
aci dad
Ġca e
Ġdeclar ado
ran a
Ġutilizar se
Ġanti gÃ¼edad
on eta
F F
ĠO tros
Es c
ï ¿
Ġesc as
tur os
Ġdesign ado
Ġrepar aciÃ³n
Ġm am
ĠVir gen
Ġdiri gentes
P adre
ĠgÃ©n eros
f al
Ġtorm enta
ĠespecÃŃfic amente
ĠV oy
Ġtele vis
en en
Ġintent ado
ĠA p
Ã©ndo lo
ĠL una
p endo
il y
Ġpa trÃ³n
Ġcan ales
Ġins ec
ÃŃs ima
ĠsÃŃ mbolo
ĠLÃŃ bano
AM ENTO
ĠIn depen
201 2
ri stas
Ġmedicam ento
pir ar
Ġmencion adas
ĠA Ã±o
sti Ã³
ĠG as
Ġcam paÃ±as
Ð °
Ġh alla
Ġanti cip
Ġmu ch
Ġatra p
ĠH or
Ex isten
Ġjun tas
Ġau dio
ĠFis cal
Ġorgullos o
dar on
Ġcru zar
ĠEn rique
h ÃŃ
gra mas
Ġlo cos
Ġdist ra
En tra
uy en
G eor
Benefici ario
Ġdem uestra
lig encia
Ġtrans fron
Ġconduc tor
ĠPa kistÃ¡n
ra ciones
Ġcompren siÃ³n
ĠbÃ¡s icas
er i
Ġrei ter
Ġ7 7
Fran k
Ġten dencias
Sab en
val uaciÃ³n
Ġver Ã¡s
D icen
Ġbas tar
Ġcas Ã³
199 3
Ġaplic arÃ¡
a ger
Ġdi am
Ġmister ios
ï¿ ½
ce bo
Ġbiblio teca
Ġd aba
x a
H ici
Ġcompon ente
ĠN at
Ġab aste
Ġmoder na
gues a
ĠdÃ©fici t
em onia
ĠSco tt
ĠDO L
Ġla ter
ras ile
tu almente
Ġflu jo
Ġf la
ĠM ill
Ġn or
Ġeta pas
d ge
Ġvi lla
Ġenten dido
an i
Ġde grad
Ġimpul so
ĠDo cu
Bien venido
Ġman z
Ġl ici
Ġan si
ter iz
Ġde do
Ġse cciones
ĠÃ¡ cido
Ġem perador
Ġver gÃ¼enza
Ġinici almente
ĠF un
ĠquÃŃm icos
Ġcumpli do
ĠDie go
ĠS ec
ĠPÃºbl icas
c tos
Ġpen dientes
R ES
Ġ ÃŃ
ĠMon t
Recuer da
Ġresul tÃ³
ĠS ecciÃ³n
C la
Ġgust aba
ĠL Ã³pez
Ġfin anzas
Ġi remos
ĠC Ã¡
Ġtrib u
ar y
Ġli bras
h ÃŃa
Ġcul tiv
C inco
ĠK osovo
ĠCas tilla
Ġgan ador
Ġsal Ã³n
Ġllev arÃ©
Ġin cent
Ġmunicip ales
Ġpales tinos
Al gÃºn
Ġpreocup aciones
Ġextran jera
Ġperj udi
Ġherman as
G O
grÃ¡fic as
s ec
uro pe
Ġpermi tan
en cio
m bol
Ġpermi tirÃ¡
an der
Ã¡ndo la
br en
Ġcaus ar
Cono zco
ĠO NG
Ġn ad
Ġ dada
Ġbron ce
Ġ Ð
Ġsan to
Ġen lace
p ur
Ġma gni
ĠW orld
ĠBoli via
N IF
n ing
Ġdese os
Tra ba
ĠS ar
Ġcal cul
as t
zÃ¡ lez
uer te
Ġta xi
Com isiÃ³n
Ġgrave dad
Ġcre cer
Ġcre di
Ġpromes a
Ġpre vent
Ġr ÃŃos
Est ados
Ġasi lo
Ġdel an
i gn
Ġciudad ano
Ġitali ana
T ema
ĠK ir
Ġfun daciÃ³n
ĠEs pera
Ġser Ã¡s
Ġestad io
bur g
ĠB oy
Ġdestin ada
Ġh ol
Ġ7 2
Ġf ri
Ġpe z
Ġim poner
Ġdiv ul
un e
Ġapara tos
de lo
c aba
Ġser ia
ĠCam p
ĠT ay
Ġtum ba
Ġferro vi
v ino
Ġden uncia
Podr ÃŃamos
ur sos
4 00
Ġexperim ent
Ġpar edes
Ġ9 8
Ġ6 1
Ġ197 3
i ff
Ġde monio
Ġres umen
Ġintercambi os
l s
Ġcu ento
Ġcel ular
Ġconte mporÃ¡n
Ġformul aciÃ³n
Ġabsolu ta
ĠK ing
gh t
ĠmÃ³ du
B ro
Ġ9 9
o t
Ġcom pi
Ġinf laciÃ³n
Ġtrans cur
ĠdesempeÃ± ar
land Ã©s
oro este
Ġto que
Ġefec tivamente
ĠJu li
Ġv ine
D avid
Ġcer rada
ĠA ut
Ġdesapar ecer
ĠPla za
Ġafec tan
Ġbenefici arios
Ġprofes iÃ³n
Ġconcl uir
Ġs h
ĠRe ina
ist emas
Ġpes cado
Pr onto
tr en
Ġhaber te
Ġmanifi esto
tu ario
ce a
Ġincumpli miento
Ġimp era
Ġn Âº
Ġregist rado
cÃ© u
Ġquedar te
Ġdesay uno
Ġinform ado
Ġperiodi stas
... !
Ġencar go
Ġdej an
Ġeduca tivo
Ġro ja
ci entes
Ġcu en
Ġintent Ã³
ĠA dam
Ġconstitu tivo
Ġenfr entar
ĠMar ruecos
Ġfu tura
Ġinfer iores
Ġgrab aciÃ³n
d Ã©n
Ġdesi erto
Ġconden a
Ġh ero
Ã©rcol es
k ing
min a
ĠAr tes
A li
Ġcan cel
ine te
at her
Ġhabi lidad
i eron
ĠPar que
Ġhab Ã©is
Ġmo da
Ġgas es
Ġdest ro
ĠUd s
di ante
N A
Ġinv asiÃ³n
Ġcont aba
Ġinst ancia
E mpe
ĠCh ri
Ġve ÃŃa
ĠG estiÃ³n
Ġe go
Ġrecor rido
Ġc Ã³digos
c amos
ĠautÃ©n tico
ĠR adio
Ġac tivamente
Ġa fron
Ġju ven
Ġentender Ã¡
O bserv
lÃŃ mp
i du
Ġrespon de
ui dad
Ġpro tocolo
ara gua
Ġexplos iÃ³n
Ãį T
g icos
Ġv am
par tida
ĠYugosla via
Ġnav es
Ġ6 2
an im
t Ã¡r
Ġba j
Ġabri Ã³
ĠEner gÃŃa
Ġor aciÃ³n
ĠC Ã³r
Ġllam e
u f
Ġter renos
Ġprin cesa
vi miento
h en
Ġpas tel
Ġsimul tÃ¡n
ie bre
En tien
Ġconsi gn
Ġtransmi tir
ti tudes
Ġa quÃ©
Ġdeb ut
wa it
Ġextre m
Ġve cin
201 3
Ġcompeti tividad
A que
Ġpopu lares
Ġcoo pera
al d
th an
Ġal m
ĠO lÃŃmp
Ġlimit ada
Ġre embol
Ġllam ados
ĠCon tra
ĠS L
Ġenfer ma
Cu atro
Ġcru z
Ġp le
un cias
F re
Ġtra icion
Cu adro
Ġ0 3
Ġescon der
Ġesper an
Ġtri pulaciÃ³n
Ġfabric ante
Ġpublic ada
Ġa y
Ġagrade zco
Ġbu que
Ġin to
U ER
Ġmec Ã¡n
Ġorganiz ada
Ġse xto
Ġg r
ĠâĢ ĺ
Ġaveri gu
Ã³ ma
an es
Ġprof undamente
Ġcer emonia
Ġli dera
Ġinform aciones
Ġah o
Ġrue das
Ġapar te
bi e
A B
Ġin o
Ġcu esta
Ġproduc en
Ġvulner ables
p per
Ġestuvi eron
Ġejecu tar
Ġpro m
Ġres table
Ġconsi go
Ã¡ menes
Ġh uir
ĠNi Ã±o
Ġin sist
Ġho ja
om inaciÃ³n
Ġan cho
cri sto
Ġcer do
Ġrequier en
Ġun ir
ĠIn terior
Ġreda cciÃ³n
EX O
Ġsuf rir
gar Ã¡
Ġab arca
ĠS he
Ġmin orÃŃas
Ġrefle ja
S S
t ari
ĠJer usal
Ġhi pÃ³
Ġt os
V ay
Ġofer tas
Ġdejar lo
Ġdia gn
Ġre lie
di oso
Ġprision eros
Ġfu siÃ³n
Ġcarb ono
tr ÃŃa
tivi dades
H ice
Ġentr adas
ĠCar l
Ġin timi
Ġpersonal mente
Ġre me
ĠhistÃ³r ica
m ad
Ex p
Ġtras lado
y le
de cer
Ġde terior
Ġgol es
Ġa ra
Ġe ficiente
Ġco Ã±o
Ġsom brero
Ġpi diendo
Ġcal cular
Ġdi le
Ġconsider ada
Ġdes vi
Ġutiliz ada
Ġcasti go
gu l
Ġac cidentes
tran s
x ta
Ġtuvi mos
ĠCom un
Ġfort una
v or
ĠW ill
Ġderro ta
Ã¡st ima
ac as
Ġavent ura
qui po
pon Ã©s
Ġo lor
ĠA N
Ġfra ude
L isto
Ġasc enso
a par
Per don
fon so
vÃ¡n tate
s fera
Ġreligi osa
es or
M P
ĠF Ãºtbol
Ġrique za
Ġtien das
uÃ© r
Tranqui lo
uÃ©s pe
ĠPat ri
ĠC ra
Ġvengan za
que ta
Escu ch
Ġl ingÃ¼
R os
Ġnie ve
Ġfu turos
Ġargent ino
Ġv Ã©ase
in ti
e ar
ĠS han
Ġagu jero
tu vieron
Ġvuel vo
Ġen vas
ĠO n
Ġagu an
Ġpudi eron
Ġp las
" >
Sab emos
Ġhel ic
ĠBos nia
Ġcl Ã¡us
ĠO k
Ġperteneci entes
Ġcomp ut
Ġab uso
cion a
Ġproce da
ida e
Estu vo
ĠM ul
Ġvo tar
Ġconstit uir
Ġin cidente
Estu ve
i li
ri el
Ġcompues ta
Ġi bas
ĠquÃŃm ica
j ano
Ġvig entes
Dis cÃºl
Ġorigin ales
Ġc iencias
ĠFi lip
dr ÃŃ
ĠPh il
ĠBul garia
Ġmovi lidad
ĠO ye
Ġle ÃŃdo
Ġpreocu pe
Ġconoc emos
Ġex cu
Ġa mas
Ġaque llo
Ġlle gamos
Ġfu turas
Ġse pas
V I
ab eth
S uena
Ġexper to
AD OS
Ġse llo
ĠB ran
ci mo
Ġlimpi ar
Ġcali ficaciÃ³n
Ġcin tur
w i
Ġcontro versi
Ġrespec tivos
un da
ĠPueb lo
ĠAt lÃ¡n
Ġcuo ta
ĠTor re
Ġmo to
Ġcr uel
Ġre to
ĠPal acio
Ġpi ra
O ri
Ġarro z
Ġv ital
Ġrelacion ada
ĠIn donesia
Ġdetermin ada
I r
Ġconsider Ã³
Ġpar eci
ĠTex as
Ġfoto grafÃŃa
Ġbomb as
and y
Ġpres ta
Ġtom o
Ġesc Ã¡n
Ġpri mas
en das
Ġ197 4
Ġchoc ola
Ġaf ro
Ġdiri giÃ³
g icas
Ġpales tino
Ġquin ce
Ġimp ro
ĠGon zÃ¡lez
ĠinÃº til
Pien sa
ĠE X
Ġconocer te
bi ta
Ġinvi taciÃ³n
Ġaf ortun
tr ina
Ġher idas
Ġre cre
Ġcontr ad
T U
Ġdesarro lla
Ġllam arÃ©
Ġpoder oso
Ġmi o
ĠÃ© se
Ġpregun tÃ³
Ġd arse
us se
ĠEs co
ord s
u le
ĠUN ICEF
No ta
, "
Ġv ienes
Ġintern et
Ġref uer
I t
Ġexclu siÃ³n
Ġrepercu siones
om en
Ġcump lan
Ġh uÃ©spe
Ġal u
Ġfi jado
Ġu h
Ġentu sias
ĠIF M
Ġpien san
O dio
im nas
Ġpres ion
W il
ÃŃn ea
ĠE res
G rupo
F R
ĠP Ã©
Ġmu rieron
Ġdis cos
Ġsacerdo te
f avor
ri oso
Ġdescan sar
A caso
Ġche que
Ġtrans portes
ĠJur ÃŃ
aci do
ĠP Y
es ÃŃa
Ġincen dio
Ġjun ta
ĠJu lio
ĠD os
Ġdi ste
Ã¡ jate
Ġfun dada
Ġv os
M ichael
Ġc Ã©
ĠfÃŃs icas
Ġampli amente
Ġtri mestre
avi er
Ġconti enen
Ġlimit aciones
l us
Ġp si
Po co
ent almente
Ġfinanci ar
Ve amos
Ġocup ada
Ġ zo
Ġenamor ado
Ġcons entimiento
ĠG reg
Ġmag ist
Ġh uesos
Ġrefi eren
Ġc ens
Pien so
Ġt aba
ĠSte ve
I s
Ġb log
Ġrecon strucciÃ³n
Ġpar eciÃ³
Ġcam is
jar se
ema to
Ġfigu ras
Ġnorm ales
ĠHol ly
ĠM ed
Ġjue ves
ĠGeor gia
b anos
Ġali anza
Ġdej aron
Ġpodr Ã¡s
ĠS olo
drÃŃ guez
Â ·
ic ana
ĠmÃŃn imas
Ġpens amientos
Ġnega tiva
Ġorgan iza
Ġveter in
g Ã¡
b la
Ġqui si
Ġdes pre
u ch
ĠBla ck
Ġescu chas
d ario
Ġlogr os
ĠS om
Ġadju dic
Ġcor tes
Ġenv ÃŃo
Ġver Ã¡
Ġescuch ando
ĠComunic aciÃ³n
Ġedi ficaciÃ³n
pol it
An da
N uestros
ĠS tre
Ġintegr al
ĠJohn ny
Ġe je
ti to
Ġmi gra
Ġfru tas
ĠH ome
r ica
Ġpro pon
Ġaman te
ĠEurope an
Quer emos
th ur
ĠV II
Ġvali ente
Ġpa tio
Ġsalva guar
Ġejecu tivo
e v
ĠA ir
ĠL lo
ĠV ar
ll ado
iz aciones
Ġopera tivo
Ġindustri as
Ġse g
Ġpie dras
mo ciÃ³n
Ġfi losofÃŃa
ĠEx per
Ġprovo car
ĠAc ta
Ġver ti
ĠVal encia
Ġhi jas
Ġp iz
Ġex Ã¡menes
R ay
ĠXV I
Ġa j
Ġsi enta
Ġfr ÃŃa
Ġle gi
Ġpresent ados
Ġpro mul
zar on
Ġsuf ra
Ġun e
Ġdomi cilio
Ġ12 0
res tres
cu enta
n eces
Ġmaes tros
Ġo li
Ġal erta
Ġagricul tores
Ġsolici tado
Ġconside re
ĠC le
ord inaciÃ³n
tern idad
b us
et te
Ġpre limin
o w
Ġmatar me
Ġestar emos
Ġestableci mientos
ĠBan g
on ado
Ġobserv Ã³
uro pa
ĠCh ris
ĠdiseÃ± ado
Con f
do ws
ĠMos cÃº
Ġcri stal
Ġa tro
IC O
Ġ197 2
Ġat mÃ³
M Ã¡
Ġq ueso
it s
AD A
ĠR ick
ĠparÃ¡ metros
Ġfui mos
B N
D emas
Ġoc Ã©ano
ĠM adre
ĠCOM UN
Ã©ndo le
et s
Ġarm ado
Ġreligi osas
Ġsu m
Ġinmi grantes
Ġc lan
Ġsent ÃŃ
gni fica
Ġadop tada
Ġreglam entos
Ġpa gan
Ġs ombra
199 1
Ġayu dÃ³
Ġju d
Ġven cer
hi te
ĠB ay
dad ores
un ya
' .
Ġconsiderable mente
Deb en
Ġvolver Ã©
Ġcuan tÃŃa
ĠM ic
Ġper dÃŃ
Ġr ara
Ġvigi lar
Ġ25 0
Mu cha
Ġconse jos
do ba
Ġc Ã³n
al las
tr ico
Ġda Ã±
Ġr ÃŃ
Ġdesarroll ados
Ġtar des
Ġpes e
l Ã¡mica
Ġfirm Ã³
Ġcom pa
V ista
Ġpier de
Ci elos
Ġcomplic ado
Ġmane jo
bl aciÃ³n
Ġprecios a
tien es
Ġver se
Ġtarje tas
Ġpo eta
Ġconvers aciones
quer os
d ney
Ġpar tÃŃcu
Ġvel ar
Ġvol viendo
d d
Ġrequisi to
ĠNic aragua
ĠH ill
en ciÃ³n
bs erva
Ġin cur
Ġestar Ã¡s
Ġautoriz ado
Ġdesgra cia
Ġescu do
or io
Ġ9 6
ti fica
P asa
Ġb ac
r ÃŃas
gles ias
R om
Ġconce dida
tan os
g ona
Ġdispar o
Ġe co
Ġcont ento
Ġrepu taciÃ³n
du m
I gual
Ġcit ado
Pe ter
Ġobten idos
ques ta
Ġfarma cÃ©u
Ġpresent arse
Ġsa que
jun tivo
fa el
ĠO peraciones
ĠEjecu tiva
das te
ĠPan amÃ¡
Ġul ti
Ġres cate
ti ble
Ġpu to
qu era
Ġarmon izaciÃ³n
S O
Ġmoder no
Ã©ndo me
Ġba tal
ÃŃ ces
Ġdiri gidas
ĠfÃ³r mula
Ġfra caso
D Ã©
Ġdesapar eciÃ³
ĠMe dia
Ġpre cip
Ġemp i
Ġsub juntivo
ĠFeli pe
Î ½
Ġempe zando
te cto
ĠC y
Ġdesempe Ã±o
Ġre af
rad u
Ġur bana
Ġantigu as
Ġin mo
te me
Ġorden Ã³
ĠA do
z ona
am an
Ġfi li
Ġreclam aciones
is co
E P
Ġal titud
Ġsi gues
Ġen de
Ġdormi do
Record ando
Ġno table
Ġcomun a
F A
Ġar co
Ġsent imiento
Ġeva cu
s ki
Ġacuer das
Ġinter gu
Ġafi li
O igan
ĠÃºn icos
ĠAn dre
EscÃº chame
ĠA G
Ġ6 00
e j
pu la
ĠS her
Ġser ies
Ġpar ada
- ,
Ġborra cho
ĠL ea
Ġin gen
ĠN unca
Ġin ex
Ġavis o
ĠG ri
Ġdis fra
on i
Ġmos trÃ³
Ġdespi erta
Ġcompro b
t ter
Ġ8 7
Ġadqui rir
Ġabier tos
Ġps ico
Ġg es
Ġan da
ĠC e
Pres idente
Ġv it
Ġacep tado
Ġpar o
Ġneces ariamente
Ġayudar Ã¡
ĠPR O
ĠD Ã©j
Ġ9 7
iz an
Ġexist ir
ĠF al
M in
ĠJ ones
ar to
ĠBlan ca
Ġob ispo
" Â¡
Ġcristi anos
Ġestre ch
ÃŃns ula
ul l
Ġgen io
Ġorden ador
h at
ĠC aste
Ġre duc
Esper en
Ġdi Ã¡
Ġhuman itario
Ġmexic ano
Ġtesti monio
ing er
Ġconcre tos
icip io
Ġhi per
ĠEstatu tos
an ti
r oso
de ll
Ġap rue
ve z
Ġaco gida
ĠenseÃ± ar
ĠfantÃ¡ stico
J amÃ¡s
ĠLi bro
Ġ8 9
bas ti
ĠM y
os ten
Ġferro carril
Ġte Ã³r
Ġso Ã±
Ġcreer lo
Ġcol ombi
V in
ena je
h uman
ĠAl ta
M ad
Ġutiliz adas
va quia
ĠbritÃ¡n ica
ĠA M
Ġcarb Ã³n
ĠH as
Ġdesas tres
ĠS ir
ĠA udi
Ġden e
ĠTex to
ĠsatÃ©li te
Ġimp re
Ġins er
ĠSara h
Ġpen siones
Ġper tur
Ġhistor i
en me
Ġre clu
Ġb rasile
ÃŃs o
ĠWal ter
Su per
ACI ONES
Ġfal so
Ġl ento
Ġposible mente
Ġmu ro
Ġoper adores
Ġman ual
as ia
Ġalm uerzo
ÃŃ tica
ĠBro wn
Ġcor ona
Ġcomien zos
Ġd or
Ġdesp la
l eres
Ã³lo gos
j ones
. ?
Ġcar tera
Ġasesina tos
en ce
Ġa ca
Ġacon se
or y
Ġtra tÃ³
zar se
ien se
re mo
Ġuni Ã³
Ġconv iene
Ġexter na
ĠCro acia
Ġrecuer das
ĠT ed
Ġasist ente
Ġexpres Ã³
ĠTea tro
Ġcer tificaciÃ³n
ER O
ĠcÃŃr culo
Ġpor no
Ġfran co
ĠestÃºpi da
Ba jo
t aliz
Ġsubven cion
w en
an ismo
k h
Ġtera pia
Es paÃ±a
ÃŃ dos
Ġaplic arse
Ġen cab
Ġparticip ado
Ġg ris
C lar
Ġcu rios
v Ã©n
Ãº me
Ġdis cur
An te
Ġinstitu to
Ġdetal lada
Ġdesaf ÃŃo
Ġparti das
Ġest Ã³ma
Ġestatu to
Ġpropiet arios
Ġconoci Ã³
Ġâ Ĥ¬
Ã©s ar
pren de
Ġfantas ma
ĠB us
Ġcul tivos
Ġquer ÃŃan
il aciÃ³n
Ġdistin ta
Ġimper io
Ġgust Ã³
Ġaer ona
ĠCom Ãºn
ĠFlor ida
Ġan f
ĠMar ina
Ġpis cina
c ador
Ġextrem adamente
Ã©r icas
Ġindividu o
ĠLis boa
ĠR ico
Ġca ÃŃdo
ĠP OR
te a
Ġrefer encias
Ġesc ribe
ĠatmÃ³ sfera
F o
Ġdespe dir
I mp
Ġal mas
H ac
ĠS Ã©
Ġa portar
Ġen la
Ġim pon
Ġdenomin ada
Ġdipu tado
R el
Ġorigin almente
ĠProvin cia
f le
ĠU sted
Ãºs ica
pi do
di rÃ¡
ĠCatal unya
Ġsub ra
Ġminist ros
Ġsuce der
Ġhubier as
ĠGre en
Ġr usos
Ġreg ÃŃmenes
Entien des
Ġson ri
Ġaument ado
Ġrelie ve
Ġjue ces
tal e
ĠRo drÃŃguez
Ġpi ano
t ta
CT AD
ĠB at
ĠM aria
Ġminist er
Ġescol ares
Ġob tenciÃ³n
Ġrealiz ando
Ġbe bida
Ġbici c
idi onal
ĠcrÃŃ tico
it es
ĠYo u
Ġco bar
En cu
Ġasoci ado
Ġmin tiendo
AN EXO
ru dencia
ĠP C
Ġsi gan
Ġo pon
Ġt ono
uer ta
Ġi dÃ©n
Ġobliga toria
k ins
Ġextra Ã±
Ġapar eci
Ġmus icales
Ġsuce dido
u cristo
Ġele vada
Ġten gamos
. /
Ġbel la
ĠDist rito
Ġal dea
Ġbru to
Ġpres tado
Ġres pira
Ġdificul tad
ĠSo viÃ©tica
Ġdes ple
ĠDan ny
ĠVer de
Ġextraordin arias
Ġesper amos
ger s
Ġfrecu entes
Ġpas aron
Mun icipio
ve y
Ġgeo grÃ¡fica
A no
Ġimpresion ante
Ġb lo
Ex iste
Ġtej ido
Ġher idos
Ac ab
ĠR ock
ĠXV III
i y
Ġcuad ros
ĠlÃ³g ica
' t
Ġindispens able
Ã© ticas
che z
Ġsu bre
" ;
ari dades
lan o
Ġinfec ciÃ³n
am ent
Recuer do
Ġllam ando
ĠMa uri
vi entes
du mbre
Ġdesper di
Ġ[ [
Ġdesi gual
Ġc enta
Ġaplic an
Ġbi laterales
Ġpro cur
Ġproce dente
Ġtempor adas
C L
ti Ã©ndose
Ġsuf riÃ³
Ġpre cisiÃ³n
Ġm ante
ĠRe uniÃ³n
Ġfi jo
Ã¡ cito
Ġpens Ã³
d f
j udi
O K
de te
H acia
Ġan dar
Ġlim pia
Ġdispon en
ĠSa int
Ġa gencias
Ġdiscul pas
Ġvisit antes
Ġregres a
B S
ĠMe tro
uer tos
Ġdesp lie
ĠS un
Ġgener ar
Ġmi st
n ic
Ġtr ono
ĠJerusal Ã©n
Man ten
ĠA y
g il
Ġdesaf ÃŃos
Ġcump len
res e
Ġsi go
Ġsignifica tiva
S ecre
Ġcere ales
Ġli der
IDAD ES
cili aciÃ³n
V D
ĠO ro
Ġsub ray
e jas
Ġch ar
Ġco hesiÃ³n
u k
Ġpres ti
Ġ8 8
st ro
Ġdej aste
ĠD un
Ġmu riendo
pil aciÃ³n
Ġalterna tivas
Ġcl aridad
Ġqued ando
Ġnombra miento
Ġdra ma
Ġlevan tar
ĠAli anza
Ġpu se
ig e
Ġenerg Ã©tica
Ġam par
ĠBill y
Ġder rib
Ġantece dentes
Ġo h
all eros
ĠC li
Ġcas arse
Ġma tan
Ġverdadera mente
Ġpen diente
Ġau menta
Bo b
ement erio
Ġexpres amente
Direc tiva
B on
Ġdiscip lina
Ġgran ja
P L
Ġto ques
Ġrefu gio
Ġmez c
ÃŃ metros
ĠÃģ rabe
Ġ9 4
e u
Ġli br
Ġ196 7
Ġbus can
ici dad
Ġley enda
Ġperman entes
ÃŃfic os
P I
Ġpl us
Cor recto
do c
Ġconstitu cional
O ÃŃ
Ġtrans port
Ġdedic ada
ĠEs cu
Ġpu sieron
Ġmulti tud
it ÃŃ
Ġre don
Ġizquier do
ĠEmpres a
ĠW at
Ġsober anÃŃa
per s
6 00
Ġcabe zas
ig ante
ĠSe de
Ġcap itales
L im
et t
Ġglor ia
E m
ab los
Ġconstante mente
ĠB l
ĠR on
ĠT iene
Ġja ponÃ©s
ĠestratÃ© gico
Ġtempor ales
Ġmaravillos a
ĠEcon omÃŃa
Ġfa chada
ĠMon et
Ġconstru c
ur ar
ver siÃ³n
Ġlic encias
paÃ± ÃŃa
ĠBib lia
ĠT AR
grÃ¡fic os
Ġdetermin a
Ġcorrespon da
Ġvo ces
Ġnave gaciÃ³n
Ġver ificaciÃ³n
e da
Ġsugi ere
tin as
ues ti
Ġsu ave
hu a
Ġrepe tir
Ġpropiet ario
Ġah i
Jo der
ĠHist oria
li za
Ġal as
Ġre an
ĠD ES
s ul
gu era
ĠestÃ³ma go
Ġh echas
ĠN ig
Ġcomunic ado
Res oluciÃ³n
Ġf ren
lan des
Ġinstitu cionales
gr ada
e jo
ĠÃ¡ rabes
Ã³ me
Ġfun dado
Ġinmi graciÃ³n
du ardo
Ġcas co
val o
Ġpec ados
Ġg ala
Ġcusto dia
Ġparcial mente
B L
Ġquin cu
ĠEst ad
cu Ã¡l
Ġmi to
Ġinvi ta
mÃ¡ ticos
Ġpar ado
Ġfavor ito
Ġc Ã³m
Ġcolo car
ĠU l
Ġmon itor
Ġaproxim aciÃ³n
Ġb y
onal d
Ġofici o
p ent
Ġs argento
Ġbo tÃ³n
Ġsensi ble
Ġ196 8
Ġconcier tos
Ġex ci
un t
Ġllam amiento
Ġparticipar on
ĠFern Ã¡ndez
Ġh ech
Ġvent anas
Ġa genda
G o
tu re
Ġcubier to
u tÃ³
Ġfacul tad
Ġreac ciones
Ġtra tan
Ġcorrec tamente
W al
Ġdefini tivo
j andro
Ġel o
Per dona
ĠA yu
gar a
Ġac ta
Ġfamos a
ĠD LL
ĠM A
Ġ6 3
Ġra ÃŃces
Ġfaci lidad
Ġmar tes
Ġtermin e
Ġinici ado
ĠcÃ³ mp
f ar
Ġsupon ÃŃa
Tu vo
Ġaloj amiento
ĠPÃ© rez
r ali
K a
ul siÃ³n
ĠAr te
Ġconden ado
Ġvari able
ĠsÃ© ptimo
M ari
ap ia
Ġconstru yÃ³
ll en
Ġdes hacer
le tÃŃn
Ġapara to
ar tÃŃculo
ĠAn na
Ġru mbo
O iga
Ġguitar ra
ci eron
Ġpla to
v emos
Ġba il
ri les
Ġdesper tar
ist er
ĠT arra
Ġmatar on
Ġd arÃŃa
m iendo
Ġla tinos
Ġameric anos
Ġr Ã©c
Ġvid rio
Pro yecto
Ġencar gados
Ġproduc tividad
Ġcolec tiva
ĠF ab
ortun adamente
Ġsustit uir
Ġh ec
C ri
Ġpeligr osos
Ġquincu agÃ©simo
Ġhoriz on
Ġsufri miento
Ġtra yec
Â ©
ĠCOM ISIÃĵN
ĠR ic
Ġsol as
Ġindependiente mente
Ġpuer tos
ĠR an
Ġcompeti ciÃ³n
Ġ19 50
Ġreconoci da
Ġcam isa
Ġt Ã¡c
ĠJa co
z ego
Ġsustitu ye
Ã³ s
ab ell
Ġch u
ue le
Ġquer rÃŃa
am ba
Ġcomple mento
Hab lar
ĠConsul tiva
dar se
Ġso vi
ez can
Ġdiagn Ã³stico
ĠPr ÃŃncipe
cel ente
ga tion
Ġafec tar
Ġaver gon
P la
i j
Ġimpor tar
Ġhab iendo
que z
is s
I ba
Ġsan itaria
Ġmanten ido
Ġarres to
Or den
ĠL eo
Ġque do
Pens aba
Ġp istas
ĠT w
ĠvÃŃn culos
li ta
Ġpla ca
p ensa
Ġc ari
ĠCÃ³r doba
Ġtele comunicaciones
ĠEst u
N avi
Ġconsumi dor
O ficial
Ġdepen dencia
ĠA fricana
por tado
Ġhom enaje
iden ciales
Ġbas ados
Ġhabl aba
Ġf iebre
Ġenten dimiento
di cal
Ġplante a
y l
Ġocur rir
Ġal ent
Ġorigin arios
ĠÃº tiles
g ale
Ġpublic ar
Ġma quin
Ġpol lo
= "
ĠTen emos
198 9
m Ã³n
ga t
Re pÃºblica
Ġacep ta
aci al
Ġreno vaciÃ³n
Ġflexi bilidad
ĠCor onel
Ġafirm Ã³
ĠFilip inas
ĠclÃ¡s ico
Ġincrement ar
ĠT ienes
Ġpas iÃ³n
ĠFre d
Ġpreci sa
Ġpolici al
Ġgaranti za
Ġesf or
Ġpreocup ada
Ġdesc enso
ad ir
Ġap las
Ġdespa cho
Ġco ca
Ale x
zego vina
Ġme tido
Ġfuer as
Ġrevi stas
ve lo
pri sa
Ġ197 1
Å į
ĠP hi
Ġca jas
A cuerdo
Ġfas es
El lo
Ġcami oneta
ce dimiento
Ġingles a
Ġr ent
ĠP apÃ¡
u tas
Ġpresupues tario
ĠSeÃ±or ÃŃa
ĠCh an
Ġsal arios
Ġw ww
Ġfun dador
uy a
Ġclub es
pue do
ĠK ong
Ġn oroeste
Ġpen siÃ³n
Ġa tras
ĠEconÃ³m icos
ĠT R
Ġse l
Ġdeten idos
a co
Ġdeclar a
dor o
Ġinyec ciÃ³n
Ġvolun tarios
ĠÃºlti mamente
Ġmue ve
ĠGran de
bu lo
ĠEst Ã¡s
T EN
ĠSub com
Ġla bios
J unto
Ġreci bieron
Ġguer ras
Ġte a
ĠSer bia
ĠD ol
ĠA S
ĠR ol
DO P
Ġanun cios
ĠCon trol
Ġl anza
ge lia
Ġtrabaj aba
ĠP A
ĠelectrÃ³n icos
do le
Mal dito
col os
Ġcin cuenta
Ġdescri bir
Ġlidera zgo
un do
Ġimpor tes
ĠO bras
Ġtra mo
si ble
Ġbe bidas
r us
Po bre
on s
Ġprop uso
ĠNorm as
l amos
Ġtrans acciones
Ġchocola te
mi te
Ġliger amente
ĠH ong
Ġtom an
ĠJack son
r arÃ¡
Ġacon di
Ġl ine
P al
Ġro bado
Ġlec ciÃ³n
Ï ģ
Ġmanifes taciones
Ġ196 9
U D
Ġdescubri Ã³
ĠestÃ¡ is
Ġdecir les
Ġfun dÃ³
ĠO este
ĠFuer zas
Ġsacri ficio
ĠMedi terrÃ¡neo
ĠclÃŃn ica
Un os
Des e
Ġcaus ado
ĠGu ad
ĠRev oluciÃ³n
to Ã±o
Ġevalu aciones
Ġvi vÃŃa
ri llos
cen a
Ġin vers
Ġra cial
U s
Ġm l
ĠO S
Ġdesarroll Ã³
ĠÃ¡n gel
Ġ6 6
Ġgu ard
C abe
Ġm adres
Ġretras o
Ġdiver siÃ³n
Ġre tor
ĠWin dows
Ġescu ad
ce don
ĠB ir
Ġcontin gentes
Ġterror ista
Ġpo esÃŃa
ĠHer man
fec tos
Ġjust ificaciÃ³n
Ġadi vin
Ġaprob adas
Ġh Ãºme
Cu anto
ĠaÃ±ad ido
Ġayudar le
ces is
Ġsi tÃºa
ĠTom my
Ġpodr Ã©
Ġsi gnos
Ġgan ancias
ar l
li quen
Ġro ca
Ġal ine
E j
ĠT ru
Ġâ Ļª
Ġposi tivos
Ġfoto grafÃŃas
ali ciÃ³n
Ġcaracter ÃŃstica
Ġsupervi vencia
Ġbal as
ĠJo an
B ra
Ġap res
cien de
ĠT am
Ġva por
Ġam bul
Ġtes oro
Ġres pirar
pl Ã¡cito
Ġintro duci
Ġplan tilla
Ġ1 01
e amiento
Ġsal en
P AR
Ġno ven
Ġhu me
tu ania
Cara jo
Ġcuan tos
ĠK i
Ġbene plÃ¡cito
Ġimpera tivo
Ġpa gado
k en
g ones
Ġreligi osos
Ġescla vos
Ġc iÃ³n
ĠAtlÃ¡n tico
Ã¡ ce
Ġpre domin
M adre
Ġpr orro
Ġ6 8
Ġdis capaci
o ta
Ġespe jo
Ġintent arlo
Ġcer cana
Ġhom olo
Ġperten ecen
ĠC ur
Ġtom as
Ġdem ues
Ġradi aciÃ³n
H arÃ©
S ent
tr ica
Ġag reg
ĠP ie
in ero
H en
Ġisrael ÃŃes
pue des
Ġdestac an
Pa ul
V A
ĠÃ¡n imo
Ġex ha
Ġhab les
ĠS hi
ÃŃ genes
ĠA ma
Ġre port
Ġexpec tativas
Ġdel ici
Ġfu mar
ter ia
omb ro
Ġpo pul
Ġtam bien
Ġsegu ÃŃa
Ġac tÃºa
Ġvivi do
is sa
Ġcal ent
Ġr ica
Ġjo der
Ġ8 6
dr ÃŃas
Ġman tienen
uÃ© n
ĠAn d
Ġm ere
N ueva
" Â».
A puesto
ĠMal ta
Ġargu mento
V iste
tr ales
Fuer on
Ġno t
Ġv on
ĠL y
E ran
ĠSupre mo
Ġvuel vas
it ler
Ãī se
ĠAn dr
Ġsab or
gu almente
Ġinst ante
b is
an se
Ġtaba co
T ES
Ġpar ale
di ar
Ġgener aciones
de st
Ġderi va
ĠL ima
Ġguar dias
y ac
ph y
Ġsuminist ros
Ġp ico
ĠAC P
Ġorgu llo
Ġcrimin ales
ĠC uer
Ġocup ados
Ġuti lidad
ec emos
es ter
ĠcatÃ³ lica
ĠEspaÃ± ola
Ġencuent ras
ĠP in
Ġlegis laciones
er ten
Ġtu ber
T AN
ĠbritÃ¡n icos
Ġden uncias
ĠCri st
C D
Ten iendo
ĠHos pital
Ġvas o
ĠPat h
Ġmagni tud
ca t
Ġmi grantes
em an
Ġob vio
Ġ7 6
Ġfij aciÃ³n
Ġpaisa je
v ante
Ġdis puestos
Ġform ada
Ġingeni erÃŃa
Ġg imnas
Â¿ "
Ġla tino
Ġacord ado
ĠenseÃ± anzas
ĠTa ilandia
D u
j ados
Ġsemin ario
ĠSe villa
Ġterri toriales
Ġsignifica tivo
tn am
Cono ces
Ġescal eras
Ġfi el
x ia
Ġrob Ã³
Ġpros per
Ġmue vas
Ġexp lÃŃ
Ġfun eral
Ġg igante
Ġtem or
Ġhabr ÃŃan
Ġso bres
ĠHon duras
p son
D ist
Ġin vo
pecial mente
ĠPara guay
Ġesc Ãº
Neces ita
Ġba terÃŃa
Ġrepu blic
Ġpelo ta
Ġespeci fic
pen as
Ġconserv ar
lo cu
Ġsu stituciÃ³n
ĠB et
Ġmuer tes
Ġcon tener
ĠPrin cip
Ġsu puestos
Ġmi graciÃ³n
ĠQu in
Ġoblig ados
Ġpor quÃ©
er ales
Ġfortal eza
ĠplÃ¡ stico
Ġal tamente
ĠC IA
Ġmentir as
ĠEstudi os
Ġalcan za
Ġhac ÃŃan
Ġcas ada
Ġcostum bre
mor e
T rÃ¡
Ġe ri
Ġma ÃŃz
di ces
MÃŃ rame
Ġhaber me
Ġmulti laterales
Ġembara zo
Ġrecur rir
Ġaplic ado
ÃŃ geno
Ġmist erio
Ġcre emos
Ġindi os
CuÃ¡n tas
Ale mania
ĠPa tr
Do cu
w ich
Ã¡g ri
Ġb arro
ĠAl fonso
M O
Ġdel im
ĠJe ff
Rec on
Ġcar as
Que da
ĠDe por
In formaciÃ³n
ĠIs la
ĠIn spec
V ine
it ter
ĠPY ME
pu blic
t ti
Ġajust es
Ġpro poner
u ci
k ar
Ġactu ando
Ġlad rÃ³n
Ġdi Ã³
ĠTo ur
Ġcoment ario
Ġexclusi va
Ġon ce
por aciÃ³n
Ġcomen zado
IZ ACIÃĵN
ĠPer sonal
ĠM es
Ġpeda zo
Ġrepar to
Ã©n tese
ust a
Ġpregun taba
Ġolvi des
Ġter ra
Ġnoso tras
Nin gÃºn
ĠVic toria
Ġcul turas
Ġnegoci ar
Sil encio
r adores
ĠC U
ple mento
Ãºn ez
ĠÃ ļ
De tente
Ġbolsi llo
ĠKu wait
ĠÃŃn dole
Ġtra ge
Ġarqui tecto
ut s
ĠBri an
ĠPu blic
To tal
Ġha gamos
En can
Ġla v
Ġapues ta
Ġsolici ta
ter restre
Ã¡r selo
Ġaco ge
Ju an
ÃŃ das
Ġca z
ĠM r
Ġa mp
B ri
Ġdes esti
Ġcu mbre
V o
liz abeth
Ġpas ivos
H ombre
Ġinten sidad
f ri
Ġdepor tes
Ġcria tura
Ġgar gan
Ġter remo
Ġexig ir
Ġinter ac
M en
Ġ7 3
De fini
ĠLa w
Ġdesc rib
eres a
P rin
ĠHi jo
Ġentr ado
tec tive
Ġven ÃŃa
Ġtru co
Ġrenunci ar
z y
. Â»
] ]
fin anci
cu ando
Ġpro hÃŃ
Ġencab ez
ar quÃŃa
Ġapel lido
tad ura
Ġpresent arÃ¡
Ġcoher encia
Ġvig encia
Ġrealizar se
Ġf es
Ġescri tura
L lÃ¡m
Ġcora zones
ĠES T
Ġefec tivos
Ġfor o
Ġrestau raciÃ³n
ci entos
Ġpos tura
g ÃŃ
D icho
onas terio
si ve
Cu enta
Ġsuel do
Ġquin ta
Ġindic aciÃ³n
Ġsex y
ĠMartÃŃn ez
Ġre tos
Ġum bral
si l
Ġescri tos
ĠorgÃ¡n ica
ĠacompaÃ± ado
Ġad mis
Ġconf irmar
Ġ0 8
Ġcu erda
Ġra tific
por que
ĠOrgan ismo
Ġpar al
ĠL ord
Ġcon duce
Ġhumi l
Ġfacul tades
Ġma cro
Ġt im
Ġayu dando
so bre
Ġcre ando
Ġjo dido
g uÃ©s
he im
Ġo yes
i ano
Ġf ama
h as
Ġayu d
Ġofre ciÃ³
Ġre vo
Ġpin tor
Ġdi rÃ¡
Ġdesap ariciÃ³n
gi p
t ambiÃ©n
Ġalma cÃ©n
gen a
Ġpresu puestos
Ġdirec ciones
Ġsin cer
Ġprac tic
Ġcos tas
ĠaÃ© rea
Hab rÃ¡
h ay
Ġestruc tural
un ciÃ³n
Ġmi Ã©rcoles
it ado
Ġen ve
Ġob tiene
ĠA DOP
Ġtranqui la
Des pi
Ġcon tras
i f
Ġasust ado
Ġmencion a
t ch
Ġas quer
?? ??
Ġpresent aron
Ġres tantes
Ġin cidencia
p Ã¡r
P O
Ġfundam entalmente
Ġlu jo
b all
ric k
Ġintern as
Si gnifica
ĠSe basti
Ġ8 4
ce de
Ġdisfru te
ĠM Ã¡
Ġquedar on
Ġvi viÃ³
Ġpatr ul
Ġci e
Ġleg almente
T V
onces to
Ġinici ales
Ġra cismo
Ġfutbol ista
Ġequivo cada
Ġr uego
Ġa ro
Ġabandon ado
Ġcintur Ã³n
ĠseÃ±al ado
Ġtitu lada
Ġreligi oso
Ġper sist
Ġdelincu encia
ĠTer cera
Ġbe be
Ġexcep ciones
pti ma
Ġaudi torÃŃa
or cio
Ġrespon diÃ³
Ã³n icas
Ġsen cil
Ġveci no
Ġconver siÃ³n
Ġdese an
Ġob viamente
Ġvideo j
a k
b ados
que tes
Ġesca pe
de re
Ġapren dido
t to
ĠTo k
Ġhu mo
Ġvuel tas
ĠClar k
Ġfal sa
Segu ra
Ġfi la
Ġformul ario
ĠsÃ³ tano
Ġsal tar
Apro baciÃ³n
Ġ8 00
ĠLe ona
Ġlar gas
Ġren dir
Ġse p
Per mÃŃ
Ġqui eran
m ico
ĠR yan
htm l
Ġp uro
Den ominaciÃ³n
ĠDi pu
ĠC ir
Ġcon duci
Ġimple ment
ĠIs abel
ĠMa estro
Ġsin dic
Ġp ÃŃ
Ġenorm es
CI ONES
Ġton ta
Ġop timi
Ġileg ales
Ġba Ã±
Ãºm enes
ĠAn g
Ġfres co
Ġdesplaz amiento
Ġmi el
ĠRa fael
Ġjust a
ĠÃģ l
ĠS au
Ġin est
Ã©m ica
Ġconduc to
omend aciÃ³n
Ġcons erva
Ġhom os
Ġem baj
len o
Ġhuman as
Ġsorpren de
Ġdivor cio
Ġfal lo
ciden tales
or th
ĠStre et
Ġsalva je
Ġincom pati
Ġre di
Ġhec tÃ¡
Ġtal leres
Ġmila gro
Ġesc enas
Ġrepres iÃ³n
ĠÃģn gel
Ġsustan cial
Ġmas as
Ġen umer
ro m
Ġref ri
r ich
Ġcomprome tido
Ġhisp anos
Ġcurios idad
av is
ĠL am
on do
ĠB rad
Ġdispar Ã³
Ġch arla
en cial
Ġsu l
ĠMi ami
Ġprove edor
ĠK an
Ġlle guÃ©
ĠAl berto
Ġmod alidad
Ġrespec tivas
ĠPRES ENTE
Ġmal diciÃ³n
ĠMe jor
" :
ĠpartÃŃcu las
ĠCan al
Ġescuch Ã©
Ġma tando
no w
Ġavan zada
ĠTim or
Ġru m
Ġcelebr arÃ¡
Å ¡
Por quÃ©
Ġtitu lares
ĠHer zegovina
TR A
Par ticip
Ġmens ual
pol is
Ġamari llo
Ha cer
Ġcor reg
st on
Ġlim ita
Nin guna
Est abas
Ġmatar lo
Ġl Ã¡stima
Ġsegui da
Ġdes glos
Ġfemen ina
ĠF ue
QuiÃ©n es
Me diante
Ġ0 2
am ina
A po
Ġcit ada
Char lie
Ġanf itri
N ombre
Ġami gas
Ã¡r gate
Ġ1 10
Ġpri mi
Ġcon mem
ĠMo vimiento
Ġex tiende
ge la
Ġaument Ã³
Ġbas adas
ĠAn n
Ġhomos ex
S ur
k ey
Ġsimp les
ven ia
ĠS ig
ĠCh am
lam entos
Ġfru st
Ġes pon
Ġinteres ada
ĠRuman ia
pi entes
Ġex ceso
h ara
Ġest al
Ġdur miendo
ĠF an
P U
Ġcom itÃ©s
ch ill
Ġadop ten
Ġs ar
Ġfru to
Ġma tÃ©
ĠcrÃŃ ticos
Ã³ tico
ĠC H
tÃ¡n ico
Ġreclam aciÃ³n
ĠdiÃ¡ metro
Ġen vÃŃa
Ġasign ado
Ġmedi r
Ġcan ce
Navi gation
ral o
Geor ge
d ora
Ġpre ca
ÃŃc ola
l um
lan desa
Ġfuncion ando
Ġhuel ga
Ġ6 7
ĠMi litar
Ġf estival
Ġper dida
Ġr usa
Ġun irse
Ġ" Â¡
ĠCu entas
Ġlegisla tivas
Ġrealizar Ã¡
Ã©n dice
Gu ar
Ġfeder ales
ĠEs per
ĠG en
Ġingeni ero
Ġgor do
A F
Ġhar ÃŃas
Ġgan ando
Ġele gidos
Ġcarre teras
Ġe cos
Ġmantener se
ĠCon se
ĠB i
Ġconten cioso
Ġrepresent ar
gan o
Ġcolec tivos
Ġen unci
Ġele gante
Ġaprob ados
Ġcomp rÃ³
Ġsuple ment
ĠVic ente
Llam a
Ġbenefici ario
Ġpa de
b ec
Ġbar ra
Ġdiver tir
Ġsal to
DiscÃºl p
b ust
Ġcam inando
Ġin und
Ġve an
c t
ĠC Ã³mo
Ġconcre tamente
Ġele v
Ġexamin Ã³
bi ste
ĠEd die
tÃ¡ menes
C entro
Ġpes etas
ĠE ri
ĠhistÃ³r icos
S ara
Ġgas olina
Ġdestac ado
Ġv uestros
ĠNa tional
ĠVie tnam
Ġencontr arse
Ġen se
ter apia
n idad
ĠJo han
Ġw ith
ĠSen ado
Ġvali dez
lic as
ĠquÃ© date
ĠRo bin
ĠJ ue
Ġest ro
Ġpon drÃ¡
ens as
Ġal ien
Di recciÃ³n
Ġrefri ger
Ġagrade cimiento
con tra
Ð ¾
ll erÃŃa
Ġexcep cional
ĠCa te
F a
Ġsindica tos
ĠJ ama
Ġtren es
Î µ
Ġo toÃ±o
Ġatrac tivo
Ġtir ar
Ġromp iÃ³
ĠNe gro
Dis fru
Ġca fe
Ġtom aron
Ġestuvi ste
Ġco tidi
Ġal a
Ã¡n chez
Ġre inte
Ġejerci cios
Ġdes echos
DÃ©j alo
ĠUN CTAD
Ġdestac Ã³
T ÃŃo
ÃŃ mp
R u
Ġcontin uidad
e ja
Ġine vi
Ï Ĥ
Ġal arma
Ġorient aciones
Ġtraslad Ã³
Ġpla zas
Per fecto
Ġinstru cciÃ³n
Ci erra
res te
ci c
Ġdele gados
Ġencar gada
Ġregul adora
Ġpen as
Ġasi Ã¡ticos
Ġra tificaciÃ³n
Ġfil m
Ġper u
Ġgust e
Ġfle x
ĠBob by
Ġinter acciÃ³n
ĠrÃ©c ord
lo w
Ġsu pl
ĠRo ja
ĠADOP TADO
Ġcans ada
Ġreti ro
cent r
Ġcomposi tor
A migo
de se
Ġabandon Ã³
Ġrestau rantes
Ġali ados
Ġex posiciones
Ġhaz lo
Ġest emos
Ġv uelos
Ġsub mar
E le
Ġemi tido
Ġprecios o
ir me
ores te
Mu riÃ³
Ġtra tos
Ġpeligr os
Ġas ombros
Ġcas tel
Ġsu mamente
Ġempres ario
al u
Ġcar gas
Ġtrayec toria
Ġrebel des
j Ã©
Ġsir ven
Ġci ego
Ġsepar ados
ci alidad
ĠCom andante
Ġconci li
Ġdocument al
Ġjuris dic
Ġobserv ado
Ġpare jas
Ġconce dido
Ġsonri sa
c emos
Ġempe zado
Pre fi
ĠE u
Ġde tecciÃ³n
Obje to
Ġcuar enta
T ar
Ġ7 8
Ġasegu rarse
ĠC Ã©sar
Ġus Ã³
Ġes qui
EstÃ¡ bamos
Ã³ lico
Ġse m
Ġexam inado
Ġdi eta
Ġr on
Ġgui Ã³n
A plicaciÃ³n
Ġacuer da
Ġcon ces
Ġa ve
ti era
rate gia
ĠD oc
men ia
Ġcel da
Ġlibre mente
ĠOlÃŃmp icos
Ġgratui ta
di lla
Ġdes favor
ĠC iencia
Ġsegura mente
ĠMunicip al
a quÃŃ
mple o
Ġparticip ante
ĠSegu ro
e Ã±a
Ġla tÃŃn
Pro grama
Ġho teles
ĠA ten
hibi ciÃ³n
Ġpen ales
Ġisrael ÃŃ
Ġl Ã¡gri
ĠW ay
tÃ¡n dose
ĠÃ© ramos
Ġdar les
ĠIs lÃ¡mica
ĠE ra
di mientos
r Ã©s
Ġor ador
ĠEst onia
ĠZ o
ĠCar ol
Ġdem ora
ĠLi tuania
ĠestratÃ© gica
Ġlar gos
Ġdi arios
Ġgargan ta
Ð ¸
mi ta
Ġox ÃŃgeno
Sal ud
tr ada
Ġser lo
Ġgra bado
Ġestrech amente
A penas
ĠA Ã©
Ġre pi
M ay
Ġjuz gar
w is
Ġne um
Ġev olucion
Ġvuel ven
lo ck
Ġcul to
Ġmor talidad
ĠAr m
Ġemi tir
ĠW ood
Ġmanda tos
s ol
Ġrepe ti
cebo ok
Lle va
ĠmÃŃn imos
ĠR osa
Ol vi
Ġa fici
Ġdef ensores
Ġex ca
ton e
ter no
Ġjud ÃŃo
Ġdescubri miento
Ġincorpor ar
Ġ6 9
j am
tu aciÃ³n
Ġapar iencia
Ġd amas
ĠF A
Est ado
ĠDomin go
Ġc ÃŃ
Ġrealizar on
ac os
ĠFe der
Ġasegu ro
ĠlÃŃqui do
Ġresul tar
Ġotor gado
on ancia
ri lla
Ġgua po
mi rante
Ġsol itario
igan tes
ir man
Ġcontinu o
Ġpose en
Ġsuces ivo
Ġfalle ciÃ³
Ã± Ã³n
X X
Ġse co
Ġvis ual
Ay Ãºdame
Demas iado
Ġpeligr osas
Ġextre ma
Ġv imos
li das
Ġ( Â«
Ġjubi laciÃ³n
Ġsu cio
Ġsal drÃ¡
Ġmar cado
el ar
Ġ0 80
Sr ta
Ġescri torio
Ġrepro ducciÃ³n
Ġsenci lla
Ar riba
Ġplan ific
b lar
Ġsan gu
Ġpe ores
ĠHa itÃŃ
ĠLo uis
Ġsuici dio
A DO
Ġconsider ados
Ġanex os
Ġren uncia
Ġocas ion
m us
Ã© p
Ġformul adas
ĠLat ino
Ġn aran
ĠbÃ¡s icamente
Ġcu bre
Ġcont abilidad
Ġque das
Ġsal as
Ġocur ri
Ġsuce diendo
ĠFacul tad
ĠDe pen
Sub venciÃ³n
te cas
Ġempres arios
is ky
Ġencu esta
Pro puesta
ĠTÃ©cn ica
ĠA lan
fici ales
Ġdefin ido
Ġcas ar
Ġdej en
ĠE duardo
ĠAle jandro
' ,
Ġfal tas
Fu ente
Ġper cepciÃ³n
Ġescal era
Ġprac ticar
Ġneces ite
Ġcoord inar
ĠEd ward
ĠM I
ist encia
Hab las
e di
Ġcompues tos
Ã© jate
ab y
Ġcap illa
Ġconce de
Ġcar gar
ĠT rin
ĠReg iÃ³n
Ġconstr uida
Ġabs ur
Ġde udas
o p
pa z
Ġint entos
Ġdoc ente
Ġincen dios
st Ã¡n
ÃįT ULO
Exac to
ĠN an
Ġpre vÃ©n
Ġoport uno
Ci er
Ġre torno
Ġve inti
ĠCom paÃ±ÃŃa
Ġde vo
Direc tor
D ich
ĠAs h
Ġemo ciones
Ġhos ti
Ġllegar Ã¡
Ġfran qui
ĠM Ã¡s
b on
H Ã¡
Ġc Ãº
SeÃ±or ita
K en
ĠE C
Ġro cas
ĠW hite
Ġpas aba
Ġr osa
Ġh un
ĠKe vin
Ï Ħ
Ġci elos
Ġtrans ferencias
ĠM ex
Ġconf un
Ġsecund arios
Ġcu Ã¡les
Ġorganiz Ã³
Ġluch ando
ĠE ric
Ġpar eces
Ġasal to
ĠE dad
Ġabri go
Ġvolun tario
ch ado
201 5
Ġcab rÃ³n
ĠHolly wood
ĠH ern
Ġan ualmente
Ġhi erba
or s
Ġsome tido
ĠL O
Ġmuch ÃŃsimo
Res pon
Ġ194 5
ĠS em
gui endo
Ġrecib iendo
Ġcoher ente
Ġ7 4
Con cepto
Ġpes ado
Ġdistin ciÃ³n
Ġsup ra
Ġsecre ta
Ġextran jeras
ĠJa ke
Ġcap tura
Ġgol pes
Ġrey es
Ġvesti r
Ġvari aciones
Ġfrecu entemente
Ġtom arÃ¡
n to
gr ados
Ġre ver
Ġme t
ra mento
C os
Ġinten ciones
teri al
sti an
cedon ia
omb ras
em bro
Ġch inos
Ġcircui to
tu a
Ġir ri
Ġsemej ante
Ġfemen ino
ĠhipÃ³ tesis
Ġactu alizaciÃ³n
Ġcome ter
Ġapar entemente
Ġmar ina
Ġobserv adores
Ġresi diendo
ci no
Ã± ez
ĠtÃºn el
ĠenseÃ± Ã³
ĠC el
A di
U ti
Ġocup an
ĠS ul
Ġres uelto
Ġexter nos
Ġpu blica
P h
Ġconcre ta
Ġto tales
f ur
Ġ0 5
ĠL oc
In cre
Ġcol onia
ti ta
Ġempezar on
Ġinvi tÃ³
de ste
Ġhor mi
ĠAut Ã³n
Ġmutu o
Ġac cion
ment al
Ġdesplie gue
Ġque m
der son
Ġtemp rana
Ġdesconoci do
F an
Ġcuen ca
Ġelec tor
B an
Ġeduca tivos
ĠdemocrÃ¡ tico
Ġfuncion an
Ġpla tos
Ġne gar
V iene
ĠS el
Ġder ra
Ġmatar te
Ġenferm era
Ġad s
Ġprohi bido
ord on
Ġhel ado
Ã¡n donos
Ġv inos
man te
Ġesper ado
ĠIn stancia
ĠN uestra
Ġafric anos
Ġciudad anÃŃa
Ġb ola
Ġv icepresidente
Ġpon go
Ġadecu adamente
Ġpin turas
Ġp tas
ĠLe gis
ĠJose ph
ĠT emp
Ġesper anzas
Ġsosp echos
Ġpro xim
Ġprepar ando
Ġepiso dios
Ã± e
Ġex ager
Ġdes er
Ġprov iene
Ġpedir le
cos a
Ġp ones
ĠvÃŃn culo
Ġf ur
segu ÃŃ
t Ã©s
Ġperci bir
Ġf icciÃ³n
be li
Ġaplic arÃ¡n
Ġinte grantes
ĠC in
Ġman io
Ġex hor
por a
Ġal re
ris h
xi tos
teri as
Ġcampes inos
Ġmedi as
ĠOb je
se a
Ġestim ada
Ġfru tos
ĠForm aciÃ³n
Ġestu diÃ³
B ill
le tos
ĠJohn son
Ġidio tas
Ġatra er
ĠIra k
Ġdebi da
Ġtrad iciones
Ġsocio econÃ³m
Ġconven cido
pa ta
b ina
Ġpaci encia
a ta
F E
A co
Ġad her
Ġ1 000
Ġcan ad
di ll
Ġ196 4
tio pÃŃa
Ġsi enten
Ġman u
u lares
ile y
gor ÃŃa
ĠGir ona
Ã¡ndo los
Ġreun iÃ³
Ġp il
Ġacer car
201 6
Ġdemoc rÃ¡tica
ĠcÃ³mo do
Est arÃ¡
ĠMar sh
Ġta za
Ġgui on
Ġex ista
ĠCo un
uel va
Ġcre y
Ġtuvi ste
Ġro l
Ġc ementerio
ĠBos ton
Ġinf in
ĠMor gan
Ġpa cto
Exac tamente
Ġcoin cidencia
ĠmÃ³ viles
ĠDe b
Mi ke
Ġbeb Ã©s
o b
vi ar
Ba ja
or ar
Ġdeliber aciones
Ġdist ritos
Ġrodi llas
ĠS osten
Ġg l
ĠSeÃ±or ÃŃas
Ġcul min
Ġsorpren dente
dro me
Ġ196 6
ĠCh rist
Ġ <
ĠRec o
A tenciÃ³n
ĠdÃ³ lar
T C
Ġles iones
Ġhones to
re za
Ġt in
Ġsensi bi
Ġre ba
ĠS Ã¡nchez
Ġbastar do
h ar
Ã¡ u
ĠmÃŃ os
Ġemple os
ec Ã©
Ġser i
ĠclÃ¡s ica
ĠRec ursos
Ġmez cl
vel as
Ġencuent ren
Ġdu que
P ri
Ġdesp acio
er ry
i que
Ġg ros
ĠcatÃ¡ lo
te os
ĠXV II
ĠG ali
Ġsac Ã³
Pa ÃŃs
De pen
iz ados
Ġabaste cimiento
Ġatra pado
ĠT Ãºnez
Ġde ro
Ġverific ar
Ġencontrar lo
ĠelÃ©ctr ico
c adores
ez co
Ġimper ial
Ġdiam antes
Ġdirec tivas
Ġmor tal
ĠB ig
C uÃ©n
Ġe gip
Ġrecom pensa
ĠilÃŃ cito
Ġimag ino
ci sta
Ġpres a
Ġmol esto
Ġutiliz Ã³
ali tat
âĢĶ ,
Ġpregun tÃ©
L ey
ĠVe gas
u ca
Ġformul ada
ĠAr gelia
t ento
ĠQ uer
ĠGran ada
Ġrecomend Ã³
Ġexist ÃŃa
ĠacadÃ©m ico
Ġso is
Ġtom Ã©
Se is
Ġdirector a
ĠM ara
Ġante laciÃ³n
J ames
Ġautoriz ados
Ġinterme di
Ġdi jera
ĠRec ords
Ġru tas
ven en
Ġlimit ar
enci ado
ĠM amÃ¡
en co
aci miento
Ġfac tura
Ġlle ven
Ġconfirm Ã³
Ġencam inadas
Ġlo bo
cur s
Ġsir viÃ³
Ġsin dical
Ġespecial ista
Ġregu la
mi gos
g ad
Ġmatar Ã©
to dos
A g
quer ÃŃa
Ġhab ÃŃamos
G as
Ġp ru
ĠGa za
ĠH itler
ĠW ol
Ġna tal
Ġfrecu ente
Ġmon te
Ġinqui e
Ġton terÃŃas
qui li
Ġblan que
Ġeno jado
Ġderi vadas
d ÃŃas
Ġlevan ta
Ġpa pi
ĠAl cal
Ġaclar ar
ariz aciÃ³n
Ġsemin arios
ec os
Ġdis puesta
Se a
Har ry
Ġsal do
ĠÃ© xitos
erba iy
Ġcaden as
Con sejo
Ġre bo
Ġpresupues tarias
ÃŃn as
Ġsupi era
K e
ĠRo b
Ġglob ales
Ġcin emato
Ġconsec uciÃ³n
Ġ10 7
F or
Ġsecu encia
Ġadop te
vange lio
ĠUni versal
Ġme dal
T or
Ġgra bar
Ġdese e
ĠUn o
Ġaument ando
ĠCon fe
ĠGuar dia
Ġgua pa
d t
ra ba
Ġal er
Ġarm ada
ĠHo use
Ġestim aciones
Ġ7 9
Ġdescri ta
Ġetique ta
Ġv om
ab ul
R C
Ġrecha zar
ĠV is
ĠTarra gona
Ġexplo tar
te ar
Ġ19 40
Ġplane amiento
Ex celente
Ġno tificado
Ġen rique
R ea
Ġdirec tores
Ġexha ust
Ġexpres ado
fer os
Ġtrage dia
Ġentrevi st
Ġdibu jos
Ġregal os
ĠOfici ales
ap ro
Ġuni dos
Ġpar to
Ġapropi adas
Ġfal si
An teriormente
Ġtriun fo
Ġform ando
Ġlici taciÃ³n
Ġremuner aciÃ³n
Ġtermin al
l ora
ĠMal asia
Ġdeber es
ĠF C
ĠG uer
Ġautom Ã¡ticamente
Le vÃ¡ntate
ĠV III
ĠDa ve
tin es
ĠNig eria
ĠÃģl var
Ġdi aria
Ġconoci das
Ġacep tÃ³
ĠquÃŃm icas
n ar
ĠIn di
ĠD om
Ġam er
Ġpen it
Ġc ima
Ġver le
p acio
T S
Ġdeman das
Ġins ol
ĠSte ph
Ġintegr ar
Ġedi torial
Ġmos trado
Ġpreguntar le
as ÃŃ
CÃ¡l mate
ĠSubcom isiÃ³n
Ġinvi tar
Ġbas Ã¡ndose
Ġparce la
ĠaÃ± ade
H izo
Ġescla vi
DÃ©j eme
ĠH ey
ĠT res
Ġexcu sa
ĠG R
un ar
ĠM em
Ġci erra
Ġven dido
Jo e
Ġtab las
Ġsen ador
Ġrecha zo
Ġor illa
Ġc lor
Ġtras pas
Ġbar rios
Ġmis iles
Ġsolu cionar
ĠB il
ĠF ron
Ġ0 4
Ġth at
Ġras tro
Ġsome tidos
tal a
ĠG eo
Ġk i
Ġco he
P ER
Ġten ia
den al
Ġconf usiÃ³n
ĠDo ug
Ġcompar a
ller mo
Ġindi cÃ³
ĠEsp acio
ĠG obiernos
ĠO C
Ġra mas
di jo
Ġa v
Ġsegui mos
Ġcier tamente
Ġma taste
ĠÂ °
rÃ© st
z aciÃ³n
Ġedi tor
ĠG oo
abi liz
des h
qui ta
ĠD I
Ġfu ga
ĠautomÃ³ viles
Ġcomunic ar
Ġca ch
A gu
ĠprÃ³xim as
Ġs ales
ĠRos e
Ġpre ver
Ġtecn olÃ³gico
ĠCas tillo
br ÃŃ
th y
Ġcomp rimi
Ġcivi lizaciÃ³n
Ġver des
b ando
Ġarm adas
y d
Ġin gre
Cre ÃŃa
Ġarreg los
ĠSan tos
Ġdirec tos
Ġvolun taria
Ġdestr uido
Bien venidos
Ġencontr arÃ¡
Ġes par
Ġimag inaciÃ³n
Ġc il
Ġira quÃŃ
ig il
Ġprim or
ĠFon dos
Ġcontam in
aci entes
Ġ196 5
Ġanti ci
Lle v
Ġdef ensor
ĠC abo
Ġfas cin
Ġmucha cha
Ġfavor ecer
ĠModi ficado
ti zar
Ġreconoci Ã³
Ġcontra partida
Ġfun cional
Ġsuf re
C hi
Ġreal ice
Ġfores tal
Ġre ÃŃr
p her
Ex cepto
Ġdis p
Ġrum ores
ster dam
Ġ8 1
ĠLi bre
Ġhosp itales
â ĸ
x on
ĠmÃºs icos
Ġalre dedores
Ġroman o
ch an
Ġinter locu
Per sonal
Ġl entamente
st em
mi ll
Ġdibu jo
crip ciones
Ġllor ando
Ġreconoci dos
can es
Ġ7 1
Ġdetec tar
Ġliqui dez
Ġsac ado
E r
Ġdeclar ar
D ar
Ġases inos
Ġdej amos
Ġg iro
CN UR
Ġs ens
Ob viamente
M il
Ġven de
ĠIndust ria
Ġmue bles
R ich
Ġfundam ento
Ġoc tavo
Ġprepar ada
Ġ19 30
ĠS ri
com un
Ġpeligr osa
ĠI mp
ĠF amilia
Ġsig no
OlvÃŃ dalo
Ġejemp lares
Ġpar es
ud aciÃ³n
ĠEsco cia
Ġencon traste
. :
ĠM ir
Ġservi dor
ĠCol um
Me didas
Ġjustific ar
Ġcompati ble
Ġesper e
Ġarres tado
Ġaplic ando
Jos Ã©
er ÃŃas
Ġsolici tantes
V EN
tro ducciÃ³n
Ġpres ento
Ġhomici dio
Ex tra
ĠPro puesta
ĠW es
ĠLu cas
uesti ones
Ġh ueso
Ġbrin dar
ĠTay lor
Ġrue da
re os
fici encias
ĠmÃºs ico
Ġpen ÃŃnsula
Ġllevar te
Ġmulti lateral
ens es
ĠIS BN
Est udi
Ġd amos
Ġ196 3
ĠB io
Ġ8 2
ĠH ombre
Ġsindic ales
V Ã¡
Ġter restre
G ol
p ra
ĠCo ordinaciÃ³n
uc ÃŃa
ĠD or
ĠD VD
Ġurban ismo
fic ante
Ġm uÃ©
Tra bajo
and ra
ton ia
ĠBlan co
Ġcompe tir
Die z
S ecciÃ³n
Ġex puesto
f ol
Pu blic
Ġcre encias
duc to
ur s
Ġre mon
ĠN in
Ġdu cha
Ġjapones es
de as
Ġcre ados
a z
Ġrestr in
to l
Ġter cio
ĠRam Ã³n
ĠtelÃ©f onos
Ġdes ma
Ġah orro
ĠTa i
Ġsele c
Ġextraordin aria
Ġayudar nos
Des ta
C oo
ĠI m
Ġinter venir
Ġcome tidos
Ġa lo
ĠÃŃn te
ren a
du la
Ġpens amos
Ġde bilidad
ĠD ick
Ġcump l
Ġconj untos
Ġpo quito
Ġmanifes taciÃ³n
Ġpas tor
ras te
Ġra ma
ĠTim es
Ġvoc al
Nin guno
Ġinter iores
Ġdoc entes
lo t
ĠG h
ĠAn dal
ĠB ell
Ġenfer mos
FOR M
Ġcuar tos
Ġrespal do
Ġven cimiento
Ġ11 5
ĠS cho
Ð µ
Ġsu po
Ġpres iones
D emon
Ġleal tad
ĠJer ry
Ġcuan tas
ĠCas tro
j ui
Ġaco ger
p y
Ġespaci ales
Ġdin Ã¡mica
Ġon da
Ġapues to
Ġa venida
ĠD ur
Ġn oreste
ĠJes ucristo
Ġin tr
Ä į
ĠIn geni
Ġreglam entaciÃ³n
Ġcont ando
Ġretir Ã³
Ġex enciÃ³n
Ġma tr
Ġmonet ario
Ġnatur almente
Ġpers ecuciÃ³n
Ġcom a
Ġfabric antes
Ġo ve
ĠC P
Ġmar cos
tr aron
f usiÃ³n
Ġab usos
ac to
Ġre duce
Com itÃ©
ĠSom alia
Ġdejar me
ĠWil son
Ġadelan tados
Ġexplos ivos
Ġnega tivos
p ic
Ġcontra tado
Ġcontemp lados
se g
Ġpreguntar te
Ġjuven il
Ġcomb in
ĠEn ter
ÃŃo do
Ġcostum bres
Ġsolici tÃ³
ĠP ete
Ġtu bo
Ġmi res
Ġme lo
Ġcha queta
AS A
Ġp Ã¡nico
gn e
ĠEm bajador
Ġm ina
Ġloc alidades
cer ÃŃa
Fran cia
Ġmusul manes
Ġllev arse
ah ora
ĠlÃ¡gri mas
ĠAn dy
Ġcom ido
Ġdesign aciÃ³n
Ġesco ger
Ġmanten iendo
lan a
da je
Ġcon venciÃ³n
SE JO
Ġne to
Ġdepen diendo
Ġtom en
or ios
Ġpas illo
Ġcontrib uido
Ġpudi ste
Ġtrans mis
Ġpes adilla
p so
dis mo
me d
Ġsal arial
ĠDe ber
ĠCul tural
Ġcatal Ã¡n
ten e
Ġi glesias
n s
Ġinfra cciÃ³n
Ġcon du
Ġestable zca
ĠTec nologÃŃa
Ġpan or
gi ado
ĠS pi
ĠT orn
Ġmaes tra
ti cias
ed y
G eneral
Ã³ tica
ĠCar ter
Ġayu dado
Ġhelic Ã³ptero
Servi cios
Ġher encia
Ġapropi ada
p us
ĠI l
Ġasi entos
Ġalgo dÃ³n
I gualmente
Ġmaquin aria
Ġrecon str
Ġart ÃŃstico
ge lo
ĠhuÃ©spe des
ga pur
Ġim posiciÃ³n
Ġcor on
ĠCatal Ã¡n
Ã©ndo te
ĠmarÃŃti mo
ĠEslo venia
Ġcomplement arias
Ġveget ales
As unto
Ġdes centr
lar on
Ġcan to
n on
ĠGener alitat
Ġelim in
Ġg igantes
Ġdis per
Ġconsider arÃ¡
Ġinterpre tar
Ġgu bernamental
Ġcarac teriza
Ġreco ge
GL AMENTO
gin ia
Ġch ina
fi quen
Ġparro quia
M S
Ġespecial istas
Ma x
Ġhue vo
ĠCh o
b ica
Ġsub e
ĠAndr Ã©s
Ġcomp rado
ĠAl fre
Ġperman eciÃ³
ura tom
Ġagres iÃ³n
ĠM E
Ġhi g
abell Ã³n
ĠMa cedonia
Ġgran o
ĠTen iente
Ġac aban
T ÃŃtulo
Ġmate mÃ¡ticas
ĠP ER
pues tamente
Ġenfr enta
rÃ¡ c
ĠK ate
v ard
al os
Ġ ~~
Ġvay amos
Ġfin alizaciÃ³n
In ici
Ġg all
oc orro
an tos
Ġbol so
Ġag ro
Ġcre an
Ġretir ar
Ġpar ezca
V arios
Ġprotagon ista
Ġcristi ana
ac re
Ġcor recciÃ³n
ĠAm y
Ġconfigu raciÃ³n
Ġ~~ ~
ĠC las
ĠSE BC
M ent
Ġdul ces
shi p
ĠLle ida
Ġ196 2
us es
Ġsu presiÃ³n
Ġbal oncesto
Ġinclu ÃŃa
G re
Ġprotes ta
ĠÃ© sa
Pro fes
Ġtej idos
Ġem b
Ġpregun tado
Ġconsidera ciones
ĠC ambi
Ġcump la
Ġincluy Ã³
pa tri
Ġgri tar
Ð ½
Ġerradic aciÃ³n
Ġsan eamiento
Ġafec tada
Ġcam in
Ġcru cial
ad me
ĠF lo
Ġdepor tivo
ĠRa chel
Ven gan
Ġcas ualidad
Ġestric tamente
ĠCh e
gar o
Ġin capacidad
Fui ste
ari edad
ĠPres upuesto
ĠFa cebook
Ġcomple j
Ġcom arca
ĠÃ³r bita
ĠhectÃ¡ reas
Ġpres tando
na h
Ġregist rar
Ġsa co
Man tÃ©n
Ġprision ero
Ġcap ÃŃtulos
Ġinmo bili
All Ã¡
Ġbru ja
ec era
Ġmi re
ĠD ictamen
Ġmanten ga
Ġab ord
Ġne er
cin as
Ġenfr ente
Ġtem er
Ġextra cciÃ³n
Ä ĩ
vi ta
Ġinver tir
ĠT ran
ul d
Ã³me z
Ġdistrib uir
Ġencontra ban
le do
ES T
Ġcontes tar
la h
Ġdeman dante
ĠAt lan
Ġgen era
M IN
ĠG e
Ġvincul ados
aliz ando
se la
Ġagr ad
Ġgrie ga
Ġcan ta
Ġen venen
V ia
ĠCon n
Ġsecu estro
tr y
Ġse mestre
Ġcar o
00 1
cion ada
lar se
Ġregist rada
Ġpeda zos
198 7
Ġaport aciÃ³n
ho p
Ġconver gencia
ĠPes ca
Ġmedioambi ental
ĠÃ³ p
Ġun ido
D ig
ten ido
Ġpres os
cu lan
Ġvis ible
bier ta
Ġgobern anza
Ġmete or
Ġdes o
Ġobli gar
Ġcre ce
ab ra
H ol
Ġl Ã¡
CI AL
ĠHo ward
Ġurban as
car b
Ġpu si
Ġbicic leta
Ġin mor
Ġten Ã©is
c ante
Ġsab idu
Ġconqui sta
P an
ĠV ÃŃ
Ay er
Ġmedi ciÃ³n
Ni vel
Ġcon lle
Ġde dica
Ġvari ables
Ġarm ario
Ġreempla zar
ĠRos s
Ġlimit aciÃ³n
Ġes encia
pÃ¡ gina
Ġcria turas
os e
Ġllam Ã©
Ġpreocupar se
Ġcontra tar
Ġam aba
la go
form as
ÃŃ metro
Mo di
ĠI b
Ġpresent en
Ġl ist
ĠE tiopÃŃa
Ġhi dr
F C
f fer
" ".
ĠAra bia
po le
Ġri v
ĠA pro
Ġproduci da
Ġper misos
ĠpÃ¡jar o
ĠF ra
Ġma tri
q uÃ©s
Ġdepen den
Di ablos
Ġcir cular
Ã³x ido
ĠAra gÃ³n
Ġvini eron
Ġmexic ana
Pres upuesto
ĠÃŃ bamos
CA P
Ġco e
Ġadu ana
Ġcate dral
Ġobs es
Ã¡n d
Ġdev ol
Ġfi bras
---------------- ----------------
Ġme tÃ¡
Ġdespi erto
anim idad
ĠP E
Ġalim ento
Ġtrami taciÃ³n
ĠX III
Encon trÃ©
Ġfil as
Ġtranspar ente
Ġin cÃ³mo
Ġescu cho
ti m
fic os
ĠIn icia
ĠSo uth
Ġbloque o
ĠHa w
p ciones
R en
Ġtari fas
Ġdescar ga
Ġin a
ĠJ ud
Ġsab rÃ¡
s Ã©
Ġdej arÃ¡
ĠTu rismo
P ese
ĠL ui
gr adable
Ġhab rÃ¡n
D icha
fo bia
Ã¡pi ta
s us
Tom e
Ġsos tiene
br icas
Ġpromes as
Ġt ron
Ġque ja
Ġafron tar
Ġpri va
Ġabur rido
iz as
ĠIn f
ĠF ord
Ġentrevi stas
laz amiento
Ġ8 3
Ġimplan taciÃ³n
s ky
ud al
Ġpres idencial
Ġra pidez
ĠcaÃ± Ã³n
Ġir ÃŃa
Ã ª
Ġven drÃŃa
Ġbo x
g ari
erbaiy Ã¡n
j ara
ĠBro ok
Ġcobar de
in al
Ġpregun tando
Ġm uel
Ġcontra ctu
Ġdispar os
Ġdeci dieron
Ġso cor
ĠH y
Ġdistin guir
Ġmun iciones
u b
Ġcor ro
Resul ta
G ET
ĠdÃ©bi les
min ente
z oso
Ġsegui dores
Ġespos as
Ġmon tar
Ġocup Ã³
Ã©is bol
Ġinto ler
Ġ Å
Ġsubre gi
Ġfores tales
S ali
Ġne gÃ³
Ġprote ctor
Ġprovo cÃ³
Ġgol f
Ġmu ral
Ġse d
eric or
N aciÃ³
ĠescÃº chame
Ġmetodo logÃŃa
Ġde vas
ĠGobern ador
di ble
ĠApo yo
ĠEst amos
gu o
ĠXX I
A ust
Ġargu mentos
Cre emos
Ġde presiÃ³n
Ġad vi
Ġarbi tr
Ġcolabor ar
Ġ19 36
ĠG Ã©n
Ġcom iendo
Ġdesem bo
________ ________
M c
Ġautor iza
Ten ÃŃas
Ġmante quilla
Ġdic tadura
ĠLa ura
ĠBib lio
Ġestudi ando
D R
Ġconex iones
Ġoper ador
de la
ĠH asta
Ġtempera turas
ĠperiÃ³di camente
Ġmin or
os idad
Ġtoler ancia
Ġa zo
Ġavan zado
ĠF erro
H ora
ĠA bo
D ate
De tÃ©n
Ġdi versi
Ġsosten ibilidad
ĠM ario
Ġhor ror
Ġali ento
Ġdes fi
ĠCol le
Ġcali fic
Ġincluy a
Ġconcl uyÃ³
Ġespec ta
Ġclar as
Ġrefer entes
A pren
Ġllev arlo
Ġart ÃŃstica
Ġvari aciÃ³n
Ġma chos
Ġtra tamientos
Ġcambi ando
crimin aciÃ³n
iz Ã³
ĠmÃ³du lo
Ġre vela
ĠZ e
Ã Ĥ
in d
Ġllam amos
h asta
Ġadap tar
gui Ã³
Ġpublic ados
Ġpod ÃŃas
Ġ195 8
Ġb estia
Re vis
Ġpr en
Ġmues tre
Ġsalv Ã³
Ġdiscrimin a
ri son
Ġpoder osa
Ġar ren
Ġdivis iones
Ġpe gar
gan se
Ġmin erales
Ġc Ã¡pita
ĠEslo vaquia
0000 100
li mi
v iene
ent ados
7 00
Ġdenomin ados
Ġayu dante
T radu
ĠAr thur
B O
ĠreÃºn e
Ġsex agÃ©simo
Ġdeci mos
g ener
i ti
j imos
Ġfirm emente
ĠJ ason
gan tes
Ġllev amos
Ġley endo
pir os
Ġafro americanos
p ico
Ġg em
Ġtes is
ĠprÃ¡c tico
Ġvari edades
Ġocul tar
Ġvol vieron
ĠRo ger
Ġmi ti
Ġmulti plic
w anda
ĠÃ³ pera
Ġhi p
H ist
P T
Ġjust ifica
Ġad misiÃ³n
Ġdiri gidos
Ġcent ra
di rec
Ġgust as
I E
Ġaman ecer
Ġexperim ento
Ġabier tas
ĠS Ã¡
A trÃ¡s
Ġpas ta
Ġdiscul par
Ġimpor tarÃŃa
ĠEUROPE AS
Ġejemp lar
Ġregres e
Ġdescu bre
Ġrestitu ciÃ³n
g amiento
ros s
Ġcontrib uye
ĠdecÃŃr selo
s onas
abi lizaciÃ³n
Ġocur ra
Ġmencion Ã³
se Ã±or
Ä ģ
uen cia
Ġsobre pas
Ġdis cÃŃ
Ġotor ga
Ġdefin en
Ġestu pendo
Ġesca pÃ³
Ġfuncion e
Ġven go
ĠgrÃ¡ fico
us as
Ġinoc entes
Ġcu rioso
Ġencontrar emos
Ġre mol
ĠÃ¡n gulo
Ġloc alizaciÃ³n
ĠDepen dencia
Ġcaus Ã³
Ġc eb
Ġdiscul pa
es tra
Ġasi sti
Perdon e
en zo
Ġ zar
H or
w ar
V ino
Ġv aci
h el
Ġprece dentes
Ġaudio vis
Ġadul to
Ġman dÃ³
Ġtex tiles
Ġmar char
AN DO
te te
Ġ196 1
ĠSim on
ĠExper tos
us s
Ġplu ma
Ġestruc tur
Ġdesem bar
Ġmu r
Ġsigui eron
Ġencuent ros
Cambi o
tor as
Ġrevis ado
Ġir Ã¡s
Lle gÃ³
j aba
Ġnu bes
r ona
Ġsitu ados
Ġcere bral
di z
Ġtor tur
Ġretir arse
ĠEst rategia
Ġayudar lo
Ġpeti ciones
Ãī S
Ġplen aria
Ġaband ono
Ġcomplement aria
ur ado
ĠG or
n acional
Emp ie
Ġextin ciÃ³n
Ġcooper ar
Ġrep ent
Norm almente
ĠIV A
Ġreflex iÃ³n
Ġg ara
J en
Ġqued aba
Ġexten der
Ãī sa
Ġespeci alizado
ĠautomÃ³ vil
ĠMat t
Ġdist or
Ġconsoli dar
Ġsos tener
Ġinsu ficiente
O fici
B R
ĠFacul tativo
cea e
Ġdesarroll ando
Ġimpuls ar
ĠNor th
AR T
ĠDes arme
Ġauxili ar
Cab alleros
tor y
Ġcome dia
Ġvol Ãºmenes
ĠoÃŃ dos
se t
os amente
Ġb eca
Ġloc alizar
ĠCOMUN IDADES
Ġm onasterio
ĠN et
Ġcur va
que l
tas e
pos a
Ġexac ta
DÃŃ game
; &#
Ġanci anos
cion Ã³
Ġmoder nos
Ġpun tual
tro p
gre gaciÃ³n
f acciÃ³n
Ġm ama
c ta
ĠN aciÃ³n
on ÃŃa
Ġtu ristas
F uego
PR O
Ġen vÃŃ
ĠCon tin
Ġgras a
Ġambul ancia
Ġprome tido
ĠRo jo
Ġacus aciones
Ġdesplaz ados
ĠclÃ¡us ula
Ġposi tivas
Ġinvoluc rado
Ġregist rados
Ġprofes ora
br ados
Ġg lu
Ġmis er
Ġest rÃ©s
Ġdo taciÃ³n
Ġasent amientos
Ġp ad
id al
mi r
Ġretir ado
Ġinv is
P onte
Cu Ã¡les
ton a
gra m
den se
Ġven eno
Ġnervi osa
Ġra cional
ĠPre venciÃ³n
ĠP ala
Ġtrans curso
Ġpro fe
Ġadqui rido
Ġl Ã¡c
Ġaust rali
ĠU ganda
Ġne uro
Ġcol ina
Esper amos
ĠB ush
Ġdi eci
Ġurban ÃŃstica
tr icos
Ġn ac
Ġamer in
Ġcivi liz
lo e
Ġmu era
Ġhig iene
Ġsabidu rÃŃa
San ta
Ġsof Ã¡
Demon ios
Ġpub lici
Ġrecon ciliaciÃ³n
to p
Î ·
Ġver los
ĠCE CA
ĠF R
Ġquedar Ã©
ĠDÃŃa z
Re v
Ġmen ciÃ³n
Ġdejar te
G a
Ġca os
S ir
ĠSocial ista
ĠA venida
Ġexplo taciones
ĠEE UU
- .
T M
pro grama
c ron
Ġdar nos
ĠcompaÃ± era
Ġconf irma
201 4
Ġpien ses
ĠS IDA
ĠI P
V ic
Ġtrop ical
Ġun animidad
Ġadolesc ente
ĠWilliam s
Ġsobr ino
Ġbol as
Ġdesempe Ã±a
Ġdispu tÃ³
Ġba hÃŃa
ĠEle c
igh ts
J ust
ion ada
Ġdu plic
ĠFran co
A gente
Par te
I EN
Ġpa to
Ã©r pre
Ġprob abilidad
De jar
Ġen tab
Ġreun irse
Ã¶ n
bo ur
Ġmedal las
Ġespeci ficaciones
ell er
Ñ Ģ
xi lio
ĠS at
198 8
ĠmuÃ± eca
G ar
Ġextra Ã±os
Ã ¸
N E
Ġvia jeros
Ġfi de
in idad
ĠE mpleo
Ġdismin uir
Ġprevis iones
i dor
Ġo dia
Ġroman os
las h
ĠKen n
ru c
Ġdepen dencias
Ġliber al
Ġcu rar
ran da
ver y
Ġren diciÃ³n
Ġac aso
pa je
Ġsentir se
Ġl ÃŃo
Ġen d
ES CO
ĠOM C
ĠestÃ¡ndar es
ios o
Ġarries gar
ĠH aci
bor o
Ġven dedor
guar dia
j adas
Ġnav al
Ġ194 8
Ġsuje ta
cer ti
ĠF il
Ã³ st
Ã¡st ica
Ġseri amente
Ġpros e
c ente
z u
Ġmanz ana
Ġliber ar
Ġg us
P Ã³n
Ġinsul ina
Ġdig itales
s Ã³lo
uÃ©r f
Ġsue los
te m
T re
Ġ19 20
Ġfuncion Ã³
Ġacor dar
S ac
ĠR io
Ġsal sa
Ġsensibi lizaciÃ³n
Ġsu pre
ĠhÃŃ gado
Ġprob ado
m ones
Ġperman ece
ĠA si
Ġescrib iendo
qu inas
Ġinf lam
Ġh ombro
so cia
Ġso pa
Ġperten ecÃŃan
Ġinterpre tÃ³
Ġentr ando
Ġfavor ables
Ġconfirm ado
w ork
Ġb ecas
Ġeli giÃ³
Ġprelimin ar
N ick
D ra
se os
Ġri gu
Ġlasti mar
Ġad Ã³nde
Ġger ente
Se gundo
ĠSte ven
Ġcompar te
Ġcomplej idad
Ġsuje tas
Ġpre val
ĠGab riel
Ġproces amiento
Ġdedic Ã³
Ġal tar
Ġqued amos
Ġin esper
Ġlu min
Ġolvi dÃ©
Ġcre ciendo
Ġincon s
Ġes car
p rudencia
Ġhab ida
ĠR oc
Q UE
Ġingles es
Ġcami ones
Ġatra vi
n an
Ġameric ana
ĠJ ar
Ġve amos
ĠB ut
Ġres al
Ġfavor ita
Ġampar o
her iff
Ġaceler ar
Ġvol ando
ĠLegis la
Ġto x
ĠI X
Ġ194 4
ĠP am
Ten dremos
Ġminist erio
bs olu
Ġh Ãºn
ĠG Ã³mez
Ġin segu
it ro
r ÃŃan
Ġin al
ĠVi v
Ġem bajador
ches ter
a ch
Ġdif undir
ĠcatÃ¡ stro
Ġmedioambi entales
C ate
Ġofici osas
ĠTo wn
Ġsu reste
Ġblan cas
Ġpac ÃŃfica
Ġsu ro
ĠV era
Ġcon trar
ĠMay o
S Ã¡
Ġo k
Ġsin tÃ©
d aba
Ġpas ivo
el li
Ġsa ca
Ġ194 9
ĠE li
Ġnie ga
Ġpe di
tÃ³ mica
Ġsupervis ar
ĠLar ry
ĠtÃŃp ico
Ġmer idional
ĠescÃ¡n dalo
Ġma tric
S ec
Ġb in
Ġinvestig ador
Ġresul tante
Ġtras era
Ġpoten ciales
ĠAl ban
Ġpopul aridad
l is
ĠN C
ĠCar men
re cuer
Ġprovo ca
Ġma to
Ġres umi
Ġpas Ã©
Ġda ta
a der
Ġob reros
ĠCON SEJO
Ġ oso
Ġen jui
ĠF ri
ĠIndustri al
ĠV d
u co
cla tura
teriz os
Â» )
Ġpas arÃŃa
ĠX II
ĠRic ardo
ĠT eresa
Ġprote ÃŃnas
Ġme tab
Ġautoriz ada
Ġasegu ra
Ġres ol
ĠD re
du mping
Ġllam arme
T ur
Ġar gentina
ir Ã¡n
Ġestad ÃŃsticos
Ġcic los
ce les
ÃŃ sta
du ra
le Ã±os
Ima g
Ġalf abe
Ġque jas
Ġcent ÃŃmetros
i Ã©ndose
Ġdeterior o
tene gro
col n
g li
Ġmin im
ĠR ural
man as
ez ol
d ale
Ġneu tr
Ġjard ines
c m
Ġ11 4
Ġcorrec ciones
Ġllu vi
Ġcom an
A cep
ĠobstÃ¡ culo
Ġmonum ento
" ",
ĠcuÃ¡n tos
ol Ã¡s
Ġsi entas
ĠK ent
ĠfÃŃs icos
ĠGui llermo
and al
Ġast ero
Ġpasa porte
Ver Ã¡s
tr Ã¡
ĠE U
ce d
Â¡ Â¡
ĠH all
Ġali vio
Ġauxili ares
ĠNi k
Ġnomin al
Ġex trad
ĠL isa
Ġtan que
Ġmu ros
Ġesti pul
Ġmejor ado
es s
Ġme tales
ambi a
ĠO bserv
i er
Ġoscu ra
Ġcab ina
Ġinternacional mente
Ġprovin cial
Al rededor
Ġcorre dor
Ġpor tal
Ġmar inos
Ġmovi lizaciÃ³n
Ġor questa
Ġiden tificado
Ġper e
ĠquiÃ©n es
Ġemi tidos
ĠM itch
Ġmanifi esta
ĠB un
Ġmedi anas
Ġmani pul
res oluciÃ³n
Segura mente
Ġa yuntamiento
Rea f
Ã¡ ramos
Ġcar dÃŃa
Ġacab as
ĠDe le
bre gat
Ġconf ÃŃa
Ġobe de
ĠcatÃ¡lo go
Ti po
ĠA sistencia
mbol os
ĠQu inta
Ġcru ce
Ġinclu sive
Ġsent imos
Ġestro pe
Ġmar ino
Ġsali eron
Ġenfrent an
Ġplane ado
Ġmediano che
lor ia
ĠCla ire
Ġu se
Ġpro vi
ĠAr menia
Ġo igo
Ġactu alizar
Ġn arra
ĠAr t
ĠN ar
Ay Ãº
Ġdu do
Ġin us
Ġco brar
ĠK it
Ġpatri a
Ġf icha
s ch
Ġoper acionales
gr ar
Ġreal icen
ĠL E
lic en
ĠFo x
Ġflex ible
Ġindic aciones
Le van
Ġreci bo
Ġpreserv ar
Ġdest inos
Ġenamor ada
Ġcuad rados
tÃ¡n ea
Ġhomolo gaciÃ³n
Ġcre ciÃ³
Ġlu cro
cep tor
Ġintergu bernamentales
Ġimple mentaciÃ³n
Ġcolon ial
Ġna ce
b Ã³n
V ie
Ġbar ba
Ġor ÃŃgenes
ĠF M
Ġdeb ÃŃ
E mi
v ich
Ġsin cero
Ġportu guÃ©s
Ġfi jan
Ġdiscur sos
i p
Ġamerin dios
Ġsacerdo tes
Ġdoctor a
vi ado
Ġmas iva
ti ma
ĠMujer es
Ġprepara tivos
M AN
cri tos
Ġlec ciones
Ġtecn olÃ³gica
Ġcircun stancia
ĠP ere
n ado
P at
T ri
ĠLiber ia
Ġdespe dida
De v
et ero
Ġtor tu
Ġre inado
ar ta
Ġh orm
gun as
Ġc itas
Ġcolum nas
Ġespeci alidad
Ġv Ã¡monos
Ġsu yos
Ã¡l v
Ġcorrespon dencia
ĠK elly
Ġp ra
rÃ³ f
Ġhabl Ã©
MuÃ© vete
Ġinteg rante
Ġaliment icios
man da
Ġpr Ã³r
ĠV icepresidente
Ġl Ã¡m
B er
ĠL im
Ġpilo tos
Hen ry
Ġgestion ar
Ġparti d
ĠEr n
Ġpo p
me la
Com par
Ġexplic Ã³
Ġestim ado
an ie
Ġali enta
Ġmoles tar
A parte
la desh
mi tes
Ġven diÃ³
ĠC L
Ġitali anos
It alia
Ġcercan os
Ġse ca
Ano che
ĠRegi ones
Ġex ponen
Ġfin ca
et y
Ġsupon er
Ġc aridad
Ġdomin ante
Ġemo ciÃ³n
Ġnombr Ã³
ĠDomin icana
Ġdes po
ĠSin gapur
Ġpre dic
Ġmal ditos
Ġau tÃ³
ĠLu z
ĠsimultÃ¡n eamente
ĠB is
ĠRey es
Ġus ada
Ġinterrump ir
ĠLi bia
ĠP ic
Ġde mor
Ġentr an
Ġcan tÃ³n
gu ra
Ġequival entes
Ġd anza
Ġem bri
ĠG uy
ver tido
Ġins piraciÃ³n
Ġderro tar
Res pecto
ĠpÃ¡jar os
ĠUni ted
Ġterremo to
Ġsan itarios
Ġcr on
g aban
bi rÃ¡
Ġvi al
Ġki los
Ġestren Ã³
yec tos
rib uciÃ³n
Ġper dieron
Ġespec tadores
ĠYo ung
Ġcab ecera
Ġven ezol
Ten drÃ¡s
Ġmu dar
Ġdedi car
ĠA CNUR
s ica
n m
ĠC ielo
Ġ0 6
Ġinspec tor
Ġliber alizaciÃ³n
ĠN ie
Ġinten so
Ġir Ã¡n
L ista
Ġconten gan
Ġpo ema
Ġfij ados
Bus ca
Ġcre ma
Ġve la
ĠAd junto
ĠsÃ³ lida
Sol amente
D ictamen
ay o
ĠcÃ¡l culos
ĠâĢ ¦
Ġdi e
" !
Ġter restres
Ġinteres antes
ĠTra tados
Ġarti ficial
Ġan Ã¡lo
Ġlle go
Ġexist encias
ĠAr chi
av al
Ġcristi ano
bo ard
ĠAndal ucÃŃa
Ġrepresent ado
ĠP ens
h y
Ġob sta
Ġtra iciÃ³n
ĠR wanda
ĠDepor tivo
Ġtra mp
ĠLlo bregat
ĠL on
h r
gui la
01 00
ĠfenÃ³m enos
A seg
Ġpon gan
Ġcole Ã³ptero
Ġestre cho
D amas
pe ones
Ġcont enta
MuÃ© vanse
aliz aciones
Ġexter no
Ġcorpor a
Ġ ic
Ġdi era
gres os
Ġdin Ã¡m
Escu che
Ġfuerte mente
ĠCat Ã³lica
Ġconven cionales
gan os
ĠTo da
Ġcelebr adas
Ġemo cional
Ġcent r
Ġg ent
Ġpes os
Ġ7 00
Ġcent en
ĠMill er
Ġ195 7
Ġapoy ado
pue de
ĠAutÃ³n oma
Ġponer me
Ġencan tador
Ġsub terrÃ¡n
ul es
Ä ±
Ġdormi torio
ĠCam po
den a
ÃŃ tico
cri bir
Ġin cidentes
Ġele vados
Ġinver na
ti go
Ġver nos
con s
ĠAl bert
Ġcompr endo
Ġuni vers
Ġdemos traciÃ³n
Ġtal entos
ĠTAR GET
Discul pen
Ġ19 39
Ġpere gr
te mos
Ġequip amiento
Ġap u
ĠSal Ã³n
Ġsel va
Ġimpi de
ar ÃŃan
Ġadver tencia
Ã¡s ico
Ġarquitec tÃ³n
Ġ195 5
Ġfe o
Ġrad ic
le m
Ġcre as
Ġsa cu
Ġconsider en
Ġregular mente
+ +
aliz an
Ġde ficiencias
Ġmater nidad
ĠTor res
Ġesper as
Ġacus aciÃ³n
Com e
ĠÃ į
Ġsi Ã©ntate
t ÃŃan
Ġcorreg ir
e val
Ġc aba
ĠE lizabeth
Ġsensi bilidad
Pregun ta
Ġale jar
Ġestim aciÃ³n
N I
Ġco aliciÃ³n
Ġco bre
beli Ã³n
gr Ã³
Ġnoven o
ER A
Ġais lamiento
Ġs ano
c ali
Ġlogr aron
ll Ã³
Ġl lÃ©
c aciones
Ġprodu zca
ad ÃŃa
tra mos
Ġdispu ta
Quer ida
Ġli ti
Ġd orm
Ġdivi de
Ġvin iendo
V is
ĠP ap
Ġpis os
ĠK ra
ĠSu plemento
Ġurban ÃŃsticas
T Ã©cn
Ġin certi
Ġesc asa
ĠIs land
Ġrode ado
A bajo
Ġam ado
Ġinm ue
ĠF rente
Ġcas ados
Ġdec or
Ġale gre
k an
Ġliter almente
Ġex pon
Ġconsidera ba
des de
ĠAz erbaiyÃ¡n
Ġpor tada
n am
li stas
Ġentre gado
ĠD y
ent onces
ĠMus ic
Ġconcent raciones
Ġolvi de
Ġemocion ante
Ġcompati bles
ĠM ick
seÃ± anza
Ġpatr ones
Ġdel a
Ġru p
lin s
Ġint Ã©rpre
ĠautÃ³n oma
ĠZel anda
Ġexpe dientes
Ġsuf ren
Ġinici os
Ġi i
ĠPar is
ĠT oma
As es
ĠD ay
ĠC R
ĠW i
val or
N L
Ġdenom ina
Ġor adores
Ġto cando
Ġrad ical
ĠD C
U m
Ġexp ulsiÃ³n
Ġcol gar
Ġ[ âĢ¦
ĠVal ent
dor as
Ġmens uales
Ti empo
on ados
Ġmover se
taliz as
Ġacep table
ĠA vi
Ġde fecto
Ġrefer ÃŃa
Ġacab e
Ac aba
Ġresul tantes
Ġcu entos
SÃŃ r
Ġparticip aciones
co tt
Ġsal vaciÃ³n
Ġhor talizas
Ġvie jas
el los
Ġsal ariales
Ġvin iste
Ġprote gido
Ġv uestras
Ġfal la
Ġre pos
Vi ve
Ġ13 0
Ã³r ico
ĠPo der
ĠH il
Ġrecibi das
Ġreme dio
. ).
Di ga
ĠTok io
ĠcÃ³n yu
ĠBur undi
Ġca ca
Ã¡ndo les
Ġdoc trina
Ġcontin gente
Ġasust ada
Ġbol sas
Ġve ge
Ġpon gas
Ġexperim entado
f ÃŃ
Ġles iÃ³n
Ġs ta
uri as
Ġemi tiÃ³
Ġaduan ero
ĠsÃ³ lido
Ġproto colos
Ġanti dumping
le x
Ġhume dad
Ġdi as
Ġsistem Ã¡tica
Ġsignifica tivamente
Ã¼ r
Ġcos tado
ĠA gua
Ġpon drÃ©
Ġdur Ã³
ter ios
cuer dos
ĠConfe deraciÃ³n
jes e
p rin
ON AL
Ġqued Ã©
Ġas pi
Ġro mana
b oya
ĠB lo
Lle vo
Ha ga
Ġsuro este
ĠO R
Ġca pi
H abi
Ġsal vado
ĠAs esor
Com unic
Ġben di
Ġencom en
ĠS ac
Ġveget aciÃ³n
rad ora
Ġconvir tiÃ©ndose
A do
Ġcons cientes
ĠSupre ma
dio ta
ĠAr mada
Ġorgullos a
ĠMon tenegro
Ġj ab
ĠOs car
Ġarre pent
pe d
tu oso
Ġseleccion ar
ĠcontinÃº an
Ġde ud
en ciones
Ġorden ado
Ġhosp it
Ġpa yas
Ġvivi mos
ĠmÃ¡s cara
zo b
Ġespeci alizada
Ġdeb utÃ³
Ġestim ular
Sab ÃŃas
xim o
Ġb Ã³
ĠCh il
Ġbara to
Ġbi olÃ³gica
Ġesencial mente
Ġinsu ficiencia
Ġmutu amente
Ġin fr
ĠRos ario
Ġmuer en
ci tas
Ġautop ista
Ġopera tivos
Ġcon ducciÃ³n
Di ario
Ġcam ina
ĠMis s
Su be
Ġprovis ionales
Ġllen ar
limin aciÃ³n
ve da
I den
ĠJ avier
ĠhÃ¡bi tat
ĠA bra
me di
p ica
B ur
Ġre porte
ĠZ ona
ĠU R
Ġsur giÃ³
ĠO bserva
Ġ18 0
J E
ĠL ic
Ġfo tÃ³
Ġ% .
ĠÃ¡n geles
C ent
ĠRe fu
cu las
Ġgen Ã©tica
Ġmar car
Ġconcl uido
ĠCom pan
ta in
Ġreci nto
Mar y
Ġempe zamos
Ġconsist ente
ĠcadÃ¡ver es
Ġmul ta
ĠcientÃŃfic as
p Ã³n
Ġser piente
Ġven gas
Ġc ica
Ġhom o
ĠGol fo
Ġse pul
Ï ĥ
ĠRo berto
Volver Ã©
Ġservi do
ĠelÃ©ctr icos
Ã ¯
CrÃ© eme
yan se
h l
li an
Ġadminist rar
Con ven
Ġep ÃŃ
Recon oci
Ġinvers ores
Ġrar as
Ġpo zo
ĠUN A
Ġfru ta
Ġc ueva
Mi embro
Ġse ver
Ġata cÃ³
Ġencar ga
ri as
h es
Cual quiera
Ġaport aciones
bi mos
n g
Ġprotes tas
ĠS ky
Ġh uÃ©rf
M ag
Ã¡ z
Ġdar Ã¡n
Ġ0 9
b ab
Ġcor o
Ġfa una
om ento
Ġsepar a
ĠsÃŃ mbolos
Ġrecep tor
Ġsab ÃŃan
Ġescas ez
Ġparticip en
Ġenve je
Ġempres ariales
ĠSus an
ami e
ara go
Ġer rÃ³n
Ġ195 6
Ġnervi os
Ġempren der
ĠE se
Ġtor pe
ĠHaci enda
Ġescri tores
ĠAl teza
ĠVir ginia
Ġprofun das
ĠLiber tad
ĠTrin idad
minist ra
2 50
ĠB ag
zob ispo
Ġsecre taria
Pien sas
ti cia
em y
Ġg ab
Ġpas amos
Ġconex as
Res uelvo
Ġvi abilidad
Ġ0 7
Ã³ geno
Ã¡g ina
Ġen c
ber os
B ru
ba te
Tra e
Ġta x
ĠS w
Ġuniversi tario
Ġenfo ques
Ġre organ
Ġsospechos os
Ġconstit uido
Ġresul te
ĠS k
ĠPolÃŃ ticos
ri ta
ĠJe ho
Ġuniversi tarios
Ġhue le
Ġvol cÃ¡n
Ġmonta je
Ġdispar aron
Ġampli as
Ġne o
un i
Ġencan to
Ġwh isky
el son
Ġcompro baciÃ³n
Ġ195 9
ĠAmeric an
vi ente
arlo tte
Her mano
ĠNeces ito
Ġsu puestamente
Ġexcep cionales
Ġcorpor al
ho use
Ġefectu ado
bas te
Ġ194 1
ĠD avis
ĠAng ola
Ġdes com
it tle
ul t
Ġreembol so
Prefi ero
Ġdistrib ui
Ġesp ÃŃa
r ino
eci endo
Ġestatu a
ĠA eropuerto
Ġtom amos
ĠL ady
ĠNa tural
Ġpa quetes
Ġa re
ĠP U
Ġbo de
Ġde ven
ĠdÃ© cimo
m el
Ġcon cepciÃ³n
Ġfamos os
Ġje fa
Ġenter rado
) }
Ġses enta
AR IO
ĠS tra
ĠE quipo
Ġdese quili
fici os
Ġ16 0
Ġsitu adas
ĠZ im
ĠOri entaciÃ³n
Ġcuar tel
198 5
Ġti bur
Ġsuperfici es
H el
ĠBru ce
ĠFin anzas
tur almente
S ue
po t
ĠÃģ rabes
ti es
Ġri val
Ġdif un
ĠB ren
Prim era
gu lares
Ġvi uda
ric aciÃ³n
ĠmÃ¡xim os
Ġlle guen
Ġgal ard
Ġde tuvo
cer ca
Ġnega tivas
Ġconf idencial
Ġcomprome ter
Ġcor e
Quer ido
ĠJer sey
Ġdesa gradable
Ġsuprimi r
P ase
ĠR ad
AR I
Ġref res
Ġconstru cciones
ĠPhi lip
Ġjo yas
ĠK at
ĠCoo per
G ener
ti ci
g able
Dan iel
M arÃŃa
Ġnoctur no
Ġotor gar
Ġsuper ado
Ġdistin gui
Ġsal dos
IN G
ĠEmi ly
Ġlig ero
Ġdesa fi
Ġ% ,
Ġfu si
Ġbri llan
Ġcombust ibles
Ġro ta
ien de
Ġcocin ar
Ġsin tiÃ³
Ġra yo
li tos
ĠGoo gle
Ġinsec tos
Ġestim ul
Ġga tos
ĠPa ulo
Hici ste
Ġcon mo
Ġtri mes
Ġen men
E y
Ġpar ientes
Ġtri go
Ġproduci dos
ari ciones
irm ado
Ġfantas ÃŃa
Ġcomple jos
Ġdi gamos
Ġobsta cu
Ġprostitu ciÃ³n
Ġo ch
S os
x ter
Ġna cer
Ġmodern izaciÃ³n
ĠLe tonia
Ġoc cidentales
Ġverda deros
ta g
Ġba uti
Ġinvesti gando
gra de
Ġad junto
Ġra tas
ĠOli ver
Ġgust ado
umin io
Ġin neces
ĠEst adio
Ġconv ento
Encon trar
ĠDe an
Ġvir gen
Ġasoci adas
T P
ĠTerri torio
Pro me
lÃ© tico
ÃŃs mo
Ġde ca
Ġmas co
Ġcubier tas
Ġintro ducido
Ġca zar
Ġfer ti
ĠAÃ© rea
Ġconce didas
ĠCuer po
ĠTw itter
Ġapues tas
p lo
Mu jer
ĠEst re
Un i
ĠJu ventud
Ġadqui rida
Ġenerg ÃŃas
Ġexplor ar
ĠE van
Ġex hi
fa to
Ġdivi dir
Ġp df
Ġexperim entos
Ġc ese
In vesti
Ġjapones a
Ġdepor tivas
in stitucional
Ġc ad
Ġtan ques
Deci de
Ġr Ãº
Ġreduci da
ia c
Ġim pone
Segu ridad
T Ã³m
ĠSh el
Ġsu mer
Ġinvent ario
Ġju gado
Ã©r citos
Ġsub s
baj adores
Pol icÃŃa
Ġanterior idad
Ġconst ar
Ġahor rar
ĠMiem bro
ĠLan ka
ĠIs landia
Ġdese arÃŃa
Ġautom Ã¡tica
B la
ĠSau dita
Ġcar tel
Ġbo tas
9 00
Ġc rÃ¡n
Ġinterlocu tores
Ã¡ rez
ĠD al
Ġti ra
Ġsuspen der
Despi erta
ke ting
Ġvic torias
Ġencu estas
Ġvolver ÃŃa
Ġdedic aciÃ³n
ĠR in
Ġdefini dos
Ġelector ales
tr ando
Ġayu dan
tÃº an
Ġasc ensor
Ġcuidados amente
Ġincent ivos
Ġdespe dido
S ch
Ġte orÃŃas
ĠhÃ©ro es
Ġp abellÃ³n
en de
Ġvol vÃŃ
ĠindÃŃgen a
ĠGlo bal
ĠaÃ© reas
Ġnad ar
Ġbon os
Ġus ados
Ġedi ciones
Ġrelev ante
Ġmatr ÃŃcula
Ġve as
Ġin co
Ġpos tu
ĠMa h
Ġplante amiento
Ġal mor
f ort
Ġma triz
Ġcolabor adores
on de
E di
ĠRE GLAMENTO
Ġagr aria
Ġregu lares
Ġhistor ial
Ġacumul aciÃ³n
ĠTorn eo
Incre ÃŃble
C las
Hab lando
Rec ono
Ġofre cido
Es pecialmente
ĠCon de
Ġmejor ando
Ġen Ã©r
ti pos
Ġas pira
Ġexplor aciÃ³n
Ġsig las
ĠL yn
ĠScho ol
jer ÃŃa
Ġmis ion
ĠFin al
con oci
Ġalum no
ĠEm ma
Ġargu ment
ĠCan arias
ri ll
ti zado
Par eces
Ġe I
Ġencan tadora
Ġf Ã©r
F P
Ġen tro
ÃŃ feros
Ġdeci da
Ġim puestas
ĠI gual
bsolu tamente
Ġprevi as
A tra
Ġsegui rÃ¡n
Ġurban izaciÃ³n
San to
Ġincu m
Ġconoci mos
n ica
S or
Ġmejor amiento
Ġreal ista
polit ana
A I
Gan Ã³
Ġa erop
s able
ĠD ame
Ġinform arÃ¡
Ġpresent aciones
Ġol ÃŃmp
Ġtrabaj as
tre a
Ġdes orden
Ġaprovech amiento
Ġretrib uciÃ³n
Ġllev arme
Ġoper ar
Organ izaciÃ³n
cion ario
Ġpa tÃ©
Ġpa Ã±
C ul
Ġentien den
bur y
Ġautoriz ar
ĠÃ© tica
Ġdispon ga
Ġprefi ero
Ġgran dioso
Est aban
ĠInicia tiva
Ġinten sa
Ġlab ores
Ġmentir oso
ĠSosten ible
ci ma
Ġc ale
ĠP ho
Ġarti ficiales
gui ente
Ġprop ici
es tar
fon ÃŃa
Ġcul par
tÃ¡ stico
ĠEstad ÃŃstica
Ġinter ino
gi bles
Ġcomp ensa
p ÃŃ
Ġclar os
Ġmal tra
Ġap liquen
Ġalco h
M enos
Ġfu sion
Ġsil ves
Ġrecibi da
Ġlig era
Ġdivis as
ĠV ida
Ġdec ente
Defini tivamente
ac tiv
Ġnaran ja
ĠEl ena
ĠBar ry
Ġcontrol ado
Ġ195 4
Ġproven ientes
T el
Ġases inar
ĠC N
zas te
Ġasign ados
ĠMarsh all
Ġpor ta
ĠLea gue
Ġaerona ves
Ġpla yas
Ġarmon ÃŃa
Ġcab les
ĠseÃ±or as
Ġconce diÃ³
Ġma pas
EN CIA
ĠJe fes
Ġbas an
ĠCh uck
Ġcomp rÃ©
ĠB ene
Ten iente
Ġfundam entos
Ġdirec tas
Ġpal o
ĠIN TER
Ġexperim ental
Ġbanc aria
Ġdiscip lin
ĠromÃ¡n tico
ĠCon stan
Ġbenefici aria
Ã «
ere k
Ġp ecu
Ġbel ga
Ã¡r ra
Ġmu ero
Ġsosp echa
Ġdes pues
Ġoblig ada
ĠT on
Ġpla cas
ĠT r
Ġimpres cin
Ġrec ta
Ġbar reras
Ġespal das
por to
Ġintegr ados
Vay an
u z
Je an
Ġdecir nos
Ġautob uses
Ġcomple ja
ĠCi ent
Ġde ton
Ġme tiÃ³
Ġpon erte
Ġacus ados
Ġcomien zan
Ġhay amos
Ġch am
N uestras
Ġpas ara
Ġt Ã³x
ĠGra ce
Ġasi gna
Ġdetal lado
ĠFran ces
t ana
ĠMer cado
Ġautom o
Ġver Ã¡n
vis ion
Ġproporcion an
Ġa zar
Ġentre gÃ³
Ġdig no
Ġmater na
ĠautÃ©n tica
Ġconec tado
m era
Ġven ce
EN ER
gÃ¡ moslo
u tos
Ġdi gan
Escu chen
Ġex puestos
Ġto cÃ³
ti t
Ġdin as
ĠDÃ©j ame
i ana
ĠS to
ĠJord ania
tos a
Ġresist ir
Ġch im
ĠÃŃn dices
Ġmi r
Ġinclui rÃ¡
ĠCri sti
Ġ12 5
Ġconven ciones
g g
Ġque mar
di tas
Ġrenov ables
Ġcenta vos
Ġpa tas
Ġ194 7
Ġpresupues tarios
In stitu
T OS
cor e
ĠVene cia
Con oc
p rim
Ġhaber le
Des cu
Ġcontro la
ĠI sa
ĠLu ke
Ġasquer oso
Ġretro ce
Ġsent idos
ĠPue do
ĠDis criminaciÃ³n
ci tamente
Ġre ctor
Ġazul es
Ġa me
ĠPro mociÃ³n
Ġcorpor aciÃ³n
Ġmar cÃ³
ĠRoy al
ĠL ista
Ġina cep
ĠDis cul
ĠLor enzo
Ġpien se
Ġtom adas
ĠDef ensor
di versidad
S P
o tas
Ġdes ar
CE R
ĠA gust
Ġgolpe ar
tent ri
Ġadjudic aciÃ³n
Ġva ca
Ġm s
DO GC
Ġch is
ĠMauri cio
ĠNic olÃ¡s
Ġparale lo
Ġgolpe Ã³
an til
ĠEsta tal
Ġhabi li
de mi
Ġdesarro llan
ĠProfes or
Ġle ÃŃ
Ten drÃ©
Ġcre cido
Ġc rÃŃa
f ero
ĠclÃŃn icos
Ġk B
ĠEst aba
ĠL abor
as i
Ġmascul ino
Ġsal udar
Ġpi on
ĠNe ws
ĠHa z
le os
Ġencan tan
Ġtu mor
Ġconcent rar
ĠSebasti Ã¡n
Ġcu ero
Ġbus cas
Ġsa grado
Ġmis ericor
Ġexces ivo
Ġaconte cimiento
arago za
ĠCul turales
E li
ĠmecÃ¡n ica
ĠC I
H able
g alo
Ġau toma
ĠMari e
Ġempe or
Car ta
Ã³n ima
Ġcomun ista
Ġsan itario
S ta
ĠJ ac
Ġajust an
ĠdesempeÃ± Ã³
Ġdivor ci
Rec o
Ten ga
ĠL ong
bl an
Ġcubier tos
Ġdestac ados
Ġacord Ã³
A bri
Ġinverna dero
Ġalien ÃŃ
Ġmara villa
v ing
a unque
Ġapa gar
ĠH igh
Ġsindica to
Ġcer teza
z is
CE N
ich t
Ġ194 2
tÃ¡n ica
ĠCatal ana
Ġcal cula
D ES
Ġro taciÃ³n
Ġenvi aron
Ġ194 6
Ġlater al
si vas
g adores
Ġex tras
Ġgrie gos
ten a
Ġencar cel
oci dio
ene gal
ĠG ordon
Ġmutu a
es co
LlÃ¡m ame
Ġen loque
ell s
ĠD am
Ã³cra tas
Ġmedio dÃŃa
Ġfantas mas
Ġpiz za
Ġru inas
ĠSi empre
Ġa yun
Ġgra vemente
Ġco br
Ġbusc aba
Ġilumin aciÃ³n
al im
Pre gÃºn
Ġf Ã³si
Ġagrup aciÃ³n
ĠdecÃŃr telo
Ġ10 5
Ġc uel
Ġavi aciÃ³n
ĠO x
Ġmanu fac
Ġex poner
Ġentusias mo
Ġsub es
K ar
Ġpo table
Ġextre mos
Ġdivul gaciÃ³n
ĠColle ge
Ġsus cep
Ġllev ada
Ġhero ÃŃna
ĠE M
Ġllam aron
Ġrestric ciÃ³n
ĠWay ne
Ġpu diendo
Ġoper an
Ġp ur
ust on
Ġpuntu aciÃ³n
Ġa je
ĠÃ¡lbum es
ĠcÃ¡ ps
Ġnom en
Ġesclavi tud
Ġe terna
Le e
Ġta pa
Al Ã©jate
que Ã±o
Am bas
ĠCons orcio
a to
ĠLuc y
ĠprÃ¡c ticos
Ġconten idas
Ġcom pone
QuÃŃ tate
Ġcos echa
Felici dades
ra tos
Ġcar n
Ġestacion amiento
Podr ÃŃan
Ġest reno
Ġcui dad
P OS
Ġcomis ario
Ġreligi ones
ĠCam boya
tan ia
Ġeduca tiva
Ġpor te
a ca
Ġmercan cÃŃa
Ġvo tado
ĠLe wis
Dis par
Ġapreci ar
V E
Ġverti cal
Ġseman al
Ġas amblea
ĠMar te
ĠR ES
Ġcandida tura
ĠSe lecciÃ³n
do m
Ġsalud able
va te
Ġ14 0
Ġbille te
Ġrobo t
b era
Ġh im
Ġdic tÃ¡menes
usse ll
ĠJ ay
Ġprop Ã³sitos
f eo
Ġap Ã©ndice
Ġchil eno
t d
ĠA lice
Ġpes ada
Ġasumi Ã³
Ġg ru
Ġbus cado
Ġvulner abilidad
W ow
Ġp ale
Ġglob alizaciÃ³n
g ono
Ġinform Ã¡tica
Ġa fe
Ġfab ul
Ġaz u
Ġdefin iciones
O li
b oy
Ġconst antes
Ġsalva jes
ĠÃºn icas
us ura
ul os
Ġ194 3
ÃŃ pro
Ġactu Ã³
cri ta
Ġvuel ves
Ġser emos
uer as
Ġcontemp ladas
Ġmacro econÃ³m
Ġmes as
Ġrecha zÃ³
Î »
ĠBa ja
Ġra ta
ĠcaÃ± ones
Ġconfirm aciÃ³n
ist ic
ĠI gn
Ġras gos
Ġalim entar
bÃŃ d
Ġcamis eta
Ġconsider adas
ÃŃ date
ĠTo tal
Ġto cado
In troducciÃ³n
ĠorgÃ¡n ico
Ġb Ã©isbol
E vi
Ġcoca ÃŃna
ĠT em
Ġvali oso
Ġmi ren
Ġimpro vis
Ġprosper idad
j ec
P unto
Ġdic tado
ĠDe ci
ĠP om
Ġhorizon tal
p sis
Ġalu cin
ona to
Ġbeb iendo
ĠBiblio teca
ĠBuen a
Ġt ÃŃos
Ġcal lar
ch t
Ġno velas
Ġpre ferencia
Ġases inados
ens os
Ã³cra ta
ri z
u ar
yan mar
Ġestablecer se
gu er
ui z
man os
Ġcap as
Ġcer dos
ĠPro cedimiento
Ã© ticamente
Ġduer me
fic as
S U
Ġestar ÃŃas
Ġdese en
ĠP it
Ġcomput adoras
Ġlad rones
ĠBe at
Ġayudar la
gu sto
Ġrecomen dar
ĠJu di
Ġdecen io
ĠHu go
Ġinter fa
ĠquÃŃm ico
te to
Ġse amos
Ġrelev antes
Ġobserv ando
Ġrecono cen
0 80
Ġin dio
Ġ11 6
ĠE va
Ġinm unidad
Ġcuer das
Ġedi fic
ph ie
Ġro mpe
Ġdepor tiva
Ġfran cos
ĠlÃ³g ico
Ar t
ga ta
ĠAdministra tivo
Ġuni formes
Te xto
Ġm ami
gar et
Ġcontroversi a
Ġfin alizÃ³
ĠG enial
ĠZel andia
w orth
b et
endo za
Ġfres ca
ĠStar k
Ġhistori ador
ĠC A
Li ber
Ġejer ce
Ġson idos
ĠNi vel
Ġin tes
Des pe
Ã´ te
ĠC B
S ha
ĠP OL
Ġcor tos
Ġre beliÃ³n
ĠHab ana
Ġpre ve
Ġvuel van
Jim my
Ġ195 1
L an
Ġcredi bilidad
ade cu
Ġdemasi ada
Ġservi rÃ¡
Ġmanten drÃ¡
Ġgratui to
ur recciÃ³n
Ġjuris prudencia
W e
Ġmani pulaciÃ³n
Ġcoinci de
Ġrecon si
Ġflu jos
Rich ard
Ġtempor almente
ĠHan k
Ġdesgra ciado
ĠJu lia
ĠAs socia
Ġlegisla tiva
Ġcon seguÃŃ
Ġdecep cion
om i
Ã³ so
ĠE valuaciÃ³n
Ġarran car
Ġvi deos
pe ta
Ġsus ci
ĠD ale
ĠAli mentaciÃ³n
M os
Ġadap tarse
Ġagu ja
Ġsent arse
Ġeficaz mente
Ġimpu gn
Ġpromo vido
T ony
Ġelim inado
Ġt ap
Ġap lique
Ġvig Ã©simo
g am
Ġur banos
Ġasegurar me
Ġtur co
Ġadquisi ciones
bri dge
es tre
Ġcom edor
Ġcomp lace
Ġper didos
Ġ195 2
Ġsecund ario
Ġarru inar
ĠM ora
ar cal
ĠCon stitucional
Ġcontinu amente
Ġconsegui ste
cu rio
ĠE D
Pues to
L ament
Ġdev oluciÃ³n
A mor
ĠsÃŃn tesis
ig ma
Ġac oso
cha te
CE S
ĠespectÃ¡ culos
Ġesque ma
Ġconven cional
Ġres idencial
pen ha
Ġcigar rillos
ĠGol d
Ġvar ones
ĠcontinÃº e
ĠJun ior
p ton
Ġautor a
Ġdebi li
Ġrefuer zos
Ġarti llerÃŃa
Ġconf ron
Ġadop tarÃ¡
ĠN adie
Ġuti licen
go tÃ¡
V ER
Ġcomo di
Ġtom ada
Ġdefin ida
F I
Ġbon dad
as tas
Ġat mos
Ġre vÃ©s
ĠH A
Ġenerg Ã©tico
A mo
Ġc esiÃ³n
ce des
ĠsÃº per
ĠPRES ID
ĠEn tre
Ġcompens ar
Ġpublic arÃ¡
Ġpriv acidad
Ġreh enes
Ġpres tan
Sara h
Ġpa gÃ³
ur bios
Ġinfra cciones
Ġhabi tualmente
Ġexperim entar
Ġres idente
Ã¶ r
Ġrece ta
lu la
Ġpie dad
Ġexclusi vo
O C
Ġpas tillas
Ġan ces
Ġtem bl
Ġham bri
Ġesti los
Ġu bica
ĠJama ica
am ora
Ġte la
ĠAten as
ĠMan tenimiento
Ġconcier ne
f ina
c ribe
Ġhabi tuales
Ġvesti dos
c le
Ġcance lar
Ġal entar
Ġolvi do
Ġ Ã©n
ĠCal le
Ġescon dido
A qui
n ell
Ġtom arse
Ġcas arme
C ha
aci endo
cu al
Ġinv as
ĠSe an
Ġaguan tar
ĠacadÃ©m icos
Ġpa te
Ġincor rec
Ġsocor ro
Ġindi cados
Ġm ueva
ĠespaÃ±ol as
ĠEx cel
du re
Ġparro qui
P D
e tes
ue les
Ġcontribuy en
Ġen tes
Ġextra er
Ġintent Ã©
Escuch Ã©
ĠDe lito
ĠN u
Ġderro tado
j amos
re ll
Sol ici
Ġtes or
Ġequi paje
ĠT ambiÃ©n
Ġse pan
ri es
Ġas co
and Ã©s
Ġbel lo
Ġintro dujo
ĠM AR
Sol ÃŃa
tra ba
Ġexamin ando
ĠIn fan
ĠNe go
G B
Ġhar to
Ġexac to
Cono ce
Ġdivi dido
Ġdes in
Ġcontac tar
Ġtra uma
Ġprimor dial
ĠXI V
15 0
ci dades
ĠN Ã¡
ĠJo ey
Ġm y
Ġle gado
ĠPar ker
Com ien
Ġele gida
Ġla var
Ġprecip it
oc ol
v ame
Ġrec ÃŃpro
Ġhablar le
ĠCap ÃŃtulo
vi deo
Ġb all
Ġgal erÃŃa
Ġconsidera bles
ton io
Ġpsi quia
Ġpe dimos
Ġsignifica tivos
Ġvac ÃŃa
ĠK yle
Ġra cion
ĠPatri monio
ĠAl ma
Ġpasa je
Ġcanad iense
Ġvecin dario
Ġresul tan
ĠacompaÃ± ada
Ġnombr ar
Ġliger as
ĠA gente
Ġdeb an
Ġcon fec
van ia
Ġcambi an
ĠLin coln
Ġprovo cado
Ġape te
h ist
Ġrepar ar
ĠI T
Se Ã±
ws ki
Ġtener lo
Ġpl omo
Ġestuvi eran
y ase
Ġg re
abili zar
Ġjugue tes
Ġcatal ana
ar ÃŃas
lida e
Ġfi anza
Ġsugi riÃ³
Ġf eria
Ġso bor
Ġbenefici arse
Ġton terÃŃa
Pre pÃ¡
Ġli tros
ĠÃŃnte gra
Ġjuz gado
Ġpre di
Ġmagist rados
Ġhor no
Ġador able
Ġaterri zaje
g no
Ġch iste
Ġp aliza
et ti
pe f
ĠAm or
ĠD ig
Ġtendr ÃŃan
Ġvi ves
Ġa tas
Ġll Ã¡m
ĠN am
Ġesca p
de m
Ġtran se
Mar k
Ġdescrib en
Ġdemos trÃ³
Ġespec tro
Ġdejar ÃŃa
Ġautom Ã¡tico
Ġproducir se
fas is
Ġacer carse
ĠJeho vÃ¡
Ġcom idas
esti as
th ony
ĠTo ledo
cin co
Ġdegrad aciÃ³n
ĠC ES
Ġreun idos
Ġconsol idad
Ã¡r telo
NU MA
Ġdo cena
Ġemp ecÃ©
Ġv ec
ĠB ud
Ġtrans acciÃ³n
Ġd ale
ĠI ll
Si gues
De je
Si go
Ġf lam
ren ce
Ġllam aste
Ġl lo
Ġdi si
Ġru tina
Ġdec oraciÃ³n
Ro bert
Ġb ul
Ġconf esiÃ³n
Ġbi lateral
R i
Ġpers u
ker s
Ġgimnas io
Ġcon traste
Ġcre aron
Ġmer ecen
Ġempie zan
B u
ĠL iz
ĠS pr
hi dra
Ġneg ras
Ġreproduc tiva
de me
Ġrefle jan
Ġenfad ado
Ġagar rar
Ġsi erra
Ġconsul tivo
te ma
Ġdepor tista
Ġcomen zando
Cons ul
Ġmal eta
ill ones
Per ten
Ġplata formas
Ġarte fac
ĠCompan y
Ġpod ÃŃamos
ĠprohÃŃ be
ĠNe pal
Ġadminist rador
Ġfi eles
Ġapar ecido
es is
Ġsuce da
k el
at s
P G
T on
gen os
Ġinter roga
Ġpose er
Ġad jun
PerdÃ³n ame
ĠS ie
ĠC AR
ra to
I vo
ch ura
Ġno ciÃ³n
Ġtur ÃŃstico
ĠAn gel
... ]
Ġsan ciÃ³n
Ġconsi dero
gi ble
tor ce
Ġhi er
Ġingre dientes
Ġdise Ã±os
Ġren al
Ġprohi bir
B E
ĠpÃºbl icamente
Ġapropi ados
j aron
di damente
iz adas
Ġconf is
Ġliber ado
ora zÃ³n
Ġten is
Ġreconoci das
Ġanfitri Ã³n
Ġconf ÃŃo
Ġt Ã³
Ġdispar ado
Ġpres identa
Ġescu che
Ġhuman itarias
Ġenla ces
Ġprob abilidades
Ġdepos it
a a
Ġretra to
Ġal uminio
Ġvac antes
Ġordin aria
Ġadivin ar
Con segui
Con fÃŃa
pul os
ari ana
Ġvolun tarias
ctor al
Ġenfrent arse
H os
ON A
Ġcigar rillo
Ġsemi fin
Ġofre ciendo
tiv es
Ġpropor cional
ĠMil Ã¡n
b Ã³
Ġson ar
Ġaf ueras
gra fi
ĠEx amen
ĠA plicaciÃ³n
Ġno tables
ĠprÃ³r roga
ĠB uda
Tu vimos
Ġsolici te
Ġpersegui r
Ġdura dera
Ġmet Ã¡l
Ġ11 7
Ġcer Ã¡mica
Ġcompro bado
ĠM ED
Ġenvi ados
Ġrev esti
h h
MuÃ© st
ĠAlban ia
Ġproduc ciones
Ġprece dente
ci encia
Cer ca
gu ero
Ġmar gin
Ã©r icos
Ġper mÃŃ
ĠBang ladesh
Ġ195 3
Ġaco g
Ġense Ã±a
ĠtÃŃ mi
ti bles
ir as
Regres a
ĠO peraciÃ³n
ĠCon si
Ġseleccion ado
Ġadver tir
Ġsex ta
Ġencan tado
Ġpobl ado
Ġrecep tores
car gado
Ġcol lar
Ġcontin ental
Ġag ru
Ġpudi eras
Ġplane tas
Ġfa tal
ĠW all
Ġdia gnos
Ġpa tente
dr ÃŃan
Ġpermi tiendo
Ġcan tando
ĠW oo
ĠVÃŃ ctor
Ġoc ta
ĠBo o
Ġprome te
ĠE mp
Ġten siones
Ġsur ge
Ġbrin da
Ġsent ada
ĠS argento
Ġmedi aciÃ³n
Con diciones
Ġaerop uertos
primi do
Ch ina
Ġconcl uye
S tar
x y
Ġas im
cen o
Ġac Ãº
ĠcÃŃr culos
Ġb uro
Ġcondi cional
ĠS p
ĠAz ul
Wal ter
ĠJ in
Ġlabora torios
b ula
Ġsuf riendo
Ġsub asta
Ġsi mpa
Ġgara je
Ġaman tes
T em
ĠProfes ional
d rez
Der echo
Ġto p
Ġr uidos
Ġfrances as
ĠCent er
Ġderi vado
Ġvisit Ã³
Ġhere dero
ÃŃs imas
Per ceptor
Ġobserv ador
Ġprote ge
ĠGar y
ĠUN ESCO
OP S
ĠHon or
Ġcor rup
Ġpenit enci
Ġre du
Ġexam ina
Felici taciones
Ġelim ina
ĠEUROPE A
Ġafirm aciÃ³n
IN A
G U
Ġabsor ciÃ³n
Ġej Ã©rcitos
ĠLo u
ĠmÃ¡r genes
Ġsuces or
recuer das
za j
Ġnie to
j unta
ĠCh ad
Ġmad u
Ġinfec ciones
Comen zÃ³
res t
Ġalterna tivo
Ġmonstru os
Ġgri tando
en z
Ġoch enta
ari ado
Ġencontrar Ã¡s
gan cia
Ġpre mi
ĠAn geles
N C
ri das
Ġi ran
ÃŃs ica
ĠPor t
Ġlog rando
ver n
mill ones
Ġetique tado
Ġrevel Ã³
Con fi
Ġre ten
Ġaf irmar
ĠS port
ĠM ala
Deb ÃŃ
mo vi
ĠDi ari
cios os
Ġcontemp lado
Ġcomunic arse
Servi cio
Ġexi gen
ĠAn nie
c Ã¡
Ġprevent iva
ĠT ol
Ġtor res
Ġcastel lano
Ġreun ido
Ġabsur do
ĠB y
Ãģ N
w al
Ã³ l
ch u
ĠK al
Ġguar di
Ġvincul ado
ĠE ast
de ci
Ġreci ba
B al
Ġinci so
Ġinte gra
ĠJaco b
A bra
Ġre tom
ĠRo ad
Ġsab ia
Ġindic ador
si vos
Ġis leÃ±os
ĠF ro
ĠÃ© sto
Ġit iner
enten dido
eno fobia
Ġllam es
Ġref uerzo
ĠComun ista
Ġrecha zado
Est aremos
Ġentr aron
Ġac titudes
Si Ã©ntese
% ).
ĠsÃŃn drome
Ġestatu s
Ġmu ri
Ġencer rado
ĠCla u
ĠF E
Ġvege tal
Ġvi entos
D eclaraciÃ³n
Ġsan tos
TR O
ĠPue de
Ġcontrad ic
Ġsu cesiÃ³n
li ga
Ġ19 38
ar s
Ġva g
Ġdesfavor eci
Ġen z
Ġpecu li
Ġlec tores
L AN
V ienes
pe tencia
ĠÃ©n fasis
ĠS um
Ġfal sos
d amiento
Ġprome tiÃ³
Ġno tar
Ġconvo car
M el
Ġobten iendo
Ivo ire
Ġgrab aciones
ã ģ
Ġtur nos
z ara
Ġau tent
Ġcompar ten
et ta
Ġescri tas
Ġmi x
vas e
ĠcrÃ¡n eo
Ġeduca tivas
w ick
ĠPo blaciÃ³n
ĠD ec
Ġestudi ado
l fo
ĠR ib
pef acientes
Ġestar ÃŃan
SuÃ©l tame
Ġsuger encias
s alo
ĠespÃŃritu s
Ġtrans portar
ĠS tone
Fran cis
Ġpron Ã³stico
Ġpod Ã©is
Ġadi ciÃ³n
) )
Ġreco pilaciÃ³n
Ġgri tos
ĠObserva torio
Ġtal la
Ġvincul adas
Ġreglament arias
Ġrecibi rÃ¡
1 01
Ġpermitir ÃŃa
Ġcre encia
Ġsu av
Ġcorre os
Ġdele gado
M r
Est arÃ¡s
olÃ³g icamente
ona than
Ġrei vin
Ġtrib us
ĠE uratom
port aciÃ³n
ĠPar ece
bi dos
k as
Ġe dades
Ġfacili ta
Ġcontrol ada
Ġpo emas
ĠJ i
Ġcontemp la
Ġsan idad
fic antes
Ġuti lice
Ġcon fer
ĠM endoza
Ġorden ar
Bra vo
Ġinfluen cias
Ġdinas tÃŃa
ti mo
ĠelÃ©ctr icas
Ġcasti gar
Ġcolon ias
Ġres uel
Ġprote gida
Ġolvi dÃ³
Ġdes pro
al th
ti entes
Ġtrans fi
Ġpor tÃ¡
ol la
ĠAr gent
Ġinevi table
Ġgrad ual
Des cripciÃ³n
ĠQ a
Ġtranscur rido
ĠEn seÃ±anza
ĠLo ui
ĠSab es
Ġrefle jo
Ġhe y
Ġfom ent
ĠOb ama
Ġprodu zcan
ĠZ aragoza
ĠfÃ¡ bricas
cu a
Ġinm un
Ne w
Ġextre mi
Ġf rÃ¡
Ġs heriff
Ġ19 37
ĠLo ve
Ġacces orios
ĠF ED
ĠPatr ick
ĠH om
Ġman us
ada gas
ĠKar en
l aridad
ĠCar olina
Ġregist rÃ³
Ġdemues tran
Ġele f
es tan
Ġech ado
Ġhumil de
Ġch al
Ã§ o
Ġe man
rÃ©st amos
ĠTrans porte
Ġsubra ya
Z A
Ġmoder nas
Hab lo
ue vos
ĠmarÃŃti ma
Ġur gentes
s ur
A ta
me dia
k et
l inas
Ġsensi bles
Ġmi len
Ġmonet arias
Ġincerti dumbre
Esper aba
Ġdescon o
Ġdesign ados
Dese arÃŃa
Ġno va
ba ta
Ġpos tal
p ina
Ġ3 50
ĠL lam
Ġrecon oc
on so
Ġla vado
Ġal turas
Ġhi lo
Ġre patri
Ġcora je
Ġcuan ti
ĠM Ãºsica
Par ecÃŃa
Ġinca paz
Ġloc alizado
Ġrefer ido
Ġtuvi eran
Ġavent uras
Ġdesn udo
ĠÂ¡ Â¿
Ġil usiÃ³n
Ġefectu adas
ti cado
Ġal mo
ĠEUROPE O
ĠMar cos
Ġestablecer Ã¡
r Ãºr
s amente
Ã ¬
ĠF la
Ãļ lti
ll Ã³n
Ġco gido
Ġaudi tor
ĠJue z
ĠPRESID ENTE
tan to
198 6
ar qui
bi era
ĠViv ienda
Ġnar co
Ġpes quera
Ġcono zca
Ġpelo tas
Ġpre cep
Ġacom o
Ġajust ar
ĠMinist er
Ġtras cen
Ġte tas
Re ino
Ġde pre
ÃŃ qu
ĠH um
12 0
Ġmi de
Ġincon ven
Ġfalle cimiento
% ),
ror ismo
Ġanci ano
A pa
Ġclan dest
Ġfir mas
Ġpara ÃŃso
Ġpe trol
A gar
Ġrefle jar
v ana
ĠcomÃºn mente
ĠG ib
Ġma cho
t ton
ali da
Ġat entado
Ġintent an
Ġnorma tivas
Ġcin tas
Ġecos istemas
S istema
Ġfelici tar
aquÃŃ n
Ġapar camiento
e Ã±o
Ġcons onancia
Ġvam piro
Ġnomen clatura
P en
Ã ¥
Ten drÃ¡
Ġviv ÃŃan
Ġexitos a
f ue
Ġmatar Ã¡
Ġlevan tÃ³
gen e
um ento
Ġra tÃ³n
ĠEs a
Ġin adecu
ĠT ig
Ã¨ re
Ġinter valo
Ġmorir Ã¡
on na
Ġpo tes
Ġlater ales
l Ã¡
Ġop tar
ĠCor ona
Ġdi rÃ¡s
Ġcaba Ã±a
Ġcomp asiÃ³n
ĠInvesti gaciones
l aba
Ġfil Ã³so
Ġdu mping
Ġsorpren dido
ĠE liminaciÃ³n
Ġres piraciÃ³n
c lo
ble mas
pres s
Ġinst ancias
Con se
Ġfalle cido
b ell
Ġrup tura
Ci udad
Ġsolu cion
Ġcont able
Ġrepercu siÃ³n
Ġdese as
Ġsal imos
z amiento
Consi dera
ri ght
ĠC Ã´te
Ġatmos f
Ġinter fer
Ma estro
Ġhablar te
Ġno bles
D IS
Ġaus p
ros a
N at
ĠP D
Ġblo ques
ques a
Ġpul so
Ġsepar adas
ĠAn ne
A z
Ġben diciÃ³n
Ġf rom
ĠhÃŃ bri
Ġg esto
Ġmono pol
ĠFeder ico
Ġconocer lo
ĠO TAN
Ġlo go
ĠS I
ĠPi erre
ĠC Ã¡llate
Ġsab rÃŃa
ĠB ad
ff y
f lu
Ġacondi cionado
C ele
Ġal zada
Ġin ad
ge o
z be
Ġexcel encia
Con trol
Ġk ilo
v Ã³
Ġextra Ã±as
Ġtom arÃ©
human os
Ġfor os
ĠPres s
ich i
Ġja zz
Ġdis ol
Ġpreocu parte
dr en
ĠM ON
ĠFlor encia
Ġpropa ganda
Ġdefini das
Ġres iden
pi e
ta je
Ġmovi lizar
Ġhable mos
ĠNat han
Ġga fas
adagas car
Ġestableci eron
Ġca yendo
Ġanunci ado
Su ficiente
Ġpresti gio
um iendo
Ġpe didos
Ġdescri biÃ³
I remos
Ġpar ques
bier tos
Ġinstal ar
m ÃŃn
Ġreflex ion
Ġincorpor ado
ĠIndepen dencia
Ġmun dos
Ġtu bos
Ġsatisf echo
so lo
la del
bl as
Ġgal letas
v ero
Pa pi
Ġcil in
tre al
ĠL and
de le
Ġsan ta
Ġv est
mper ador
Ġec les
ĠVe ga
Ġque den
ur nal
Ġ/ /
dill era
................ ................
Ġy u
Ġexplic aciones
Ni Ã±os
Ġintro du
Ġps ÃŃqu
Ġmedi terrÃ¡n
ĠChri stian
ĠG ales
En vi
ur us
gan me
Ġab us
ĠsÃ³ lidos
Ġdelincu entes
Ġtra idor
ent ra
Car los
ĠO f
ible mente
Ġintelig entes
Ġcontamin antes
ĠCambi o
Ġencontrar la
Ġpres te
Ġm entes
Ġsocial ista
Ġevent ualmente
Ġle e
Ġdispar a
Tranqui la
D em
D ec
ĠA v
ĠAm er
ĠTan zan
Ġquer idos
U sa
ir Ã©
ili pol
Ġimp unidad
ĠSud amÃ©rica
Ġbrillan tes
Ġocul ta
Ġdirigir se
ĠK h
ĠCo ordin
Ġdu ras
Ġoport un
Rel Ã¡jate
) -
ent ada
Ġpres un
ĠDis ney
Ġmol Ã©
ĠS or
ĠBa u
Ã¡r ma
Ġases in
Ġcri st
ĠMc C
Ġbatal las
tec nologÃŃa
Ġextrad iciÃ³n
R ed
Ġtra jes
Ġju dÃŃa
In tenta
ĠaÃ±ad iÃ³
Ġâ ĸ
Ã§ a
Ġllevar la
tific ar
Ġuniversi taria
te x
Ġsuces os
Ġgrad uaciÃ³n
z ol
Ġton tos
Tra ta
A migos
ĠGran d
bi l
Ġdi al
ĠS pa
Ġperio dos
Ġsu pera
Ġprove er
Ġexport adores
Ġafortun ado
Ġapel aciÃ³n
Ġsof istic
Ġpro pu
Ġdis oluciÃ³n
Ġse di
Ġprote gidos
Ġdescu ento
uy eron
Ġescul tura
ĠBel ar
Ġpos icion
ci aciÃ³n
Ġap as
v y
. ),
Ġinf il
Ġocupar se
Ġli toral
Ġsencil los
f s
Ġreco pi
ĠSh in
DÃ©j enme
Ġms nm
ĠAndre w
ij ing
Ġac cidental
Ġcu alidades
ĠF MI
Ġcent rado
Ġdeci sivo
Ġingres Ã³
Ġasist entes
tro po
Ġasoci ada
Ġregul adoras
Ã¡s er
Ġoblig Ã³
Ġman ga
ĠAt lÃ©tico
Ġsab iendo
Prim er
PaÃŃs es
Ãį C
Ġdes venta
Ġtecn olÃ³gicos
Ġofen siva
rÃ¡ tico
Ġrequer ida
Ġabor to
ĠL ex
Ġcr Ã³nica
Ġin ta
Ñ Ĥ
Ġv ice
ĠGran des
ĠC EN
Ġdesapar ece
Ġn Ã³
Ġmin orÃŃa
Ġj uicios
ĠA la
ĠRefu giados
liz ado
Ġacre edores
ĠPla y
ĠIn no
c rib
Ġpatrul la
Com ple
Ġtab l
? ".
S ocorro
Ġs ho
Ġin ac
ĠA bu
d ina
Ġac ento
Ġo la
Ġo le
duc tor
Cre en
ĠBl ue
C he
ĠDar fur
Ġ10 4
Ġpartid arios
Ġs ana
Ġadop ta
Ġtra ma
Ġpanor ama
Ġpes cadores
Ġexcel entes
c ad
Ġhacer la
Ġapre cio
Ġes lo
ĠactÃº an
Ġcru cero
Ġsin gular
Ġtri pul
Ġcomp rador
Ġprefi ere
Ġal za
ĠB ase
Ġsal gan
ĠAh ÃŃ
ather ine
E uropa
Ġtras tornos
z er
Ġfal tan
Ġvari ar
ĠIt ali
C AR
Ġsu dor
ment s
Ġtrop icales
th or
Ġ% )
Ġsub yac
Ġbru tal
Ofici na
Ġacab amos
Ġpata tas
ĠFe dera
ĠfÃ¡ ciles
Ġenga Ã±o
Ġocur riendo
Ġgrad ualmente
Ġe cho
G ui
Ġexcl uir
sie ur
ĠSer ie
Ġrecom pens
ĠautÃ³n omos
Ġven cido
ĠJos ep
Ġacredi taciÃ³n
Ġm ali
Ġfal sas
Ġf ic
ĠBro ad
ĠOC DE
Ġinsi gni
la ga
Ġp uls
O n
Ġd uros
Ġay Ãºdame
Ġingres ar
ĠE mer
Ġincons ciente
Ġbo das
Ġviol ento
ĠBo gotÃ¡
ĠK yo
Ġfa x
Ġa ero
Ġcomun istas
ten stein
Ġpi dieron
Ġgrab Ã³
Ġguer rero
ti cano
Ġtelef Ã³nica
Ġcar tu
Ġrecl ut
Ġtien den
Ġrestable cer
Ġbre vemente
Ġllev arÃŃa
ĠC rÃ©
ĠCo penha
Ġob is
ĠM yanmar
Ġcom ando
Si ete
Ġsom br
Ġefectu ados
ĠS lo
P in
ĠG len
Ġatrac tiva
An ti
Ġse tenta
c encia
Ġpolici ales
Ã¡ lti
Ġhor arios
Ġhom bros
Ġju ramento
Ġv ano
Ġcaptur ado
Ġequivo cas
ocol mo
Com pro
PA Ãĳ
Ġconden ados
v ic
ĠaquÃ© l
Ġresidu ales
h ard
Ġnaci dos
c ord
Ġres ide
er na
Ġprome tÃŃ
T im
Ġg i
Ġt ime
MÃ© xico
r arÃ©
re gi
Ġre ll
Ġapu Ã±al
Con clu
Ġre cal
Ġasust a
Ġencar gÃ³
Ġten or
Ġimpres o
Ġan chura
Mar tin
Ġali anzas
Ġv arÃŃa
Ġad onde
Ġsac aste
ĠDes de
Ġrecor rer
Ġpa gas
Wil liam
Ġ[âĢ¦ ]
ce ta
Ġdetermin arÃ¡
Ï ħ
er Ãºn
ra cia
Ġfor ense
Ġmedi eval
jas te
ĠJ on
ba ck
Yo u
Ġcontinu arÃ¡
Ġ19 33
xili ar
Ġson ora
Ġcompati bilidad
Ġtro zo
Ġtriste za
ĠE p
Ġpre visiÃ³n
Ġcomerci antes
Ġon das
Ġfra cciÃ³n
Ġre pÃºblica
ĠT ras
Ġasombros o
Des can
F PA
Ġmer ca
S R
' )
Ġale jado
Ġcaracter es
ci stas
Ġem po
ÃŃcu los
za te
ĠdiseÃ± ados
Dig amos
Ġconvir tieron
ĠC l
cer os
Dan ny
J ane
tori amente
Ġestuvi eras
ĠH oy
Ġ201 9
r ico
gue me
Ġco co
ĠR aci
Ġquedar nos
ĠlegÃŃti mo
Ġindic ada
Ġre por
Ġrepresent aciones
ĠP el
Es cri
Ha go
Ġdescen dientes
Ġra p
da y
C alla
li te
Ġb ando
Ġimport an
Ñ ģ
IC AS
Ġ10 3
Ġbio diversidad
Ġpro puestos
Ġconex os
g iste
ĠEst aciÃ³n
P ele
Ġva is
lio t
Ġprivile gio
Ġcomb inado
Ġcer ro
zz i
tu ve
Ġdeba tir
ĠcÃ³mo da
Tra to
ĠEspaÃ± ol
ĠIntern acionales
n ol
gra fos
gra mos
Ġescen arios
Ġi da
Ġro jos
Ã¡ i
pi as
ĠTer ry
Ã©n ez
Ġcla ves
Ġinst an
Ġcolombi ano
CAP ÃįTULO
S argento
ĠC ine
den me
ĠAlex ander
uc ky
Ã ¹
Ġmanifes tÃ³
ĠLa ur
Ġconec tar
Ġdi d
c li
Ġ19 31
ĠÃĵ r
am bul
Ġgen ocidio
Ġveterin ario
ĠAc tividades
ĠRec on
Ġcomp res
es iones
ĠRi ver
Ġbanc arias
Ġresca tar
gu s
ĠG aran
Ġrad iac
Ð »
Ġregres ado
ĠKar l
cul tural
Ġmuel le
Ġobten ida
os h
ĠmÃºs culos
Ġru mor
Ġgaranti ce
ĠSO BRE
Ġform almente
Ġdoctor es
Ġham bur
Ġelec to
ĠV igil
Ġvi llan
Ġvia jÃ³
Ġdue Ã±os
Ġmis eria
ĠS ER
Tom ando
Ġla zos
Ġsue co
Ġdej aba
Ġb il
Ġrepresent ada
gen as
bor ra
Ġsali das
ĠH aya
Ġperson alidades
ĠP O
A bran
Ġarru in
ĠCate dral
Ġsangu ÃŃn
Ġpul mones
Ġmu dÃ³
Ġdoctor ado
Ġch ist
Ġllen os
ĠÂ« "
Å Ĥ
ĠS enegal
Ġcon greso
ĠJane iro
ĠpÃ¡g s
hat tan
Ġaf lu
ĠIn versiones
th o
Po d
Ġapoy ando
Ġcen izas
Ġca talo
ĠV ia
Ġesp antos
Cier tamente
Ġre dujo
Ġexig encia
P rueba
Ġcomun ica
Ġconvir tiendo
ĠeconÃ³m icamente
P PE
Ġinter rupciÃ³n
Ġtra igo
Ġapo der
Ġmec Ã¡nico
ĠFran cesa
P OR
Ġven diendo
Ã³m ica
Ã± ada
Ġagre gar
ra m
Ġ QuiÃ©n
Ġlle gaste
chas te
Ġne ta
Apar entemente
Ġbal anza
Cor onel
to grafÃŃa
Ġcompar ti
g icamente
ĠY an
ĠMon ter
H al
ĠD IS
g ras
ĠChri sto
ue vas
Ġhuel la
Ġtener se
Ġintoler ancia
Ġreduc ciones
ab ar
Ġrepresent ados
Ġproporcion ado
ĠCap ital
ĠBa h
Ġembaj ada
n el
ry s
drÃ¡ ul
Ġtransfer ir
Ġbendi ga
te xto
Ġconvi erten
pa te
Ġcaus ando
k g
Ġprom ueve
velo p
ĠNav arra
mbi to
Ġoport una
S tan
Ġtra zado
Ġextra ter
) "
Ġr osas
Ġactu alizada
Ġad hi
Ġo puesto
pri se
G AN
the w
Ġfili al
et ÃŃ
Ġz orra
A A
Ġdiver tida
Ġempa te
ĠCi viles
tiz aciones
Ġdiscu siones
e uropa
ĠLu cha
ĠUniversi ty
I EA
Ġens al
Ġdescar gar
ĠVall Ã¨s
Ġen ro
Ġintercambi ar
ES C
Ġolvi da
Ġrecord Ã³
Ġencen der
Ã©n ico
Ġvam piros
Ġemple ar
Ġadqui riÃ³
ran e
Ġgas tar
Estu diÃ³
Ġno venta
Ġcri tic
vo ca
ĠHern Ã¡ndez
vi t
ĠVal enci
Ġcomis arÃŃa
âĸ ł
Ġcer rados
ĠpÃ¡rr s
Ġsustit uido
Ġbrasile Ã±o
ti empo
Ġpas as
ĠL td
Ġagrade cido
Ġobje ciones
Ġpoder osos
S C
ĠR as
Ġadop tarse
Ġrela to
or ias
u li
Ġsector iales
Encan tado
zquier da
f amilia
ĠC ru
Ġtra ves
Ġla va
Ġdepor tivos
ĠMedi cina
Ġactivi stas
Ġpele as
Ġformul ado
Ġlluvi as
W ho
Ġenten dÃŃ
is cal
Ġex cur
Ġ1 19
Des af
tentri onal
Ġagr ado
Ġa val
Ã¡ vez
j ante
ĠF IN
Ġb l
ĠP ari
im al
ĠP M
Ġproyec ciÃ³n
Ġpudi mos
Ġma ten
Ġej es
Ġefectu arÃ¡
Ġcam peona
Ġestatu tos
os ible
Ġclasific ados
ĠVas co
Ġal Ã©r
ĠB ron
Ġsur gir
ĠO EA
Ġatra cciÃ³n
si onal
ĠR uiz
ĠGro up
Ġ10 9
d able
Ġmul tin
Ġestu pidez
Ġterri bles
I OR
Ġestable zcan
ÃŃ e
ĠBel las
Ġinform Ã¡ticos
Ġinspec ciones
Ġop ina
ĠSuper visiÃ³n
Ġsi mb
t ariamente
Ġdej ara
ĠE mperador
Ġpre ma
Ġre porta
ĠhÃ¡bi l
ĠV aya
Ġor ejas
Ġexter nas
ĠB EI
Ġexpres iones
ĠWal ker
po drÃŃa
Ġmon to
ĠRuman ÃŃa
Ġinus ual
Ġir landÃ©s
Ġcir co
Ġarreg lado
M y
Ġvel as
gim os
Ġfl uc
carb uros
ĠCa ja
Ġguitar rista
Ġblanque o
k ie
Ġescuch Ã³
ĠA Ãºn
ĠVi la
Ġplu rian
ĠE CU
Ġac tas
Ġvac un
ĠdiÃ³ cesis
am b
ĠdesempeÃ± an
ĠPÃºbl ico
Ġconstit uida
Ġne ur
Ġdo bles
Ġ QuizÃ¡
aci os
Ġoper acional
c ru
Con oci
Ġadver sos
Lu gar
l era
Ġli diar
rue be
ab il
der ÃŃas
Ġi limi
Ġregu lan
hu ana
c ui
Bro me
Ġta tu
Ġan orm
Ġpan el
g rante
Ġs ombras
ĠTom Ã¡s
ĠPer dÃ³n
Ġintent aba
Ġenvi ada
Ġcompon en
Ġlan zada
Ġhermos as
ĠUl tra
val os
Ġinfl uir
on t
ĠA UT
Ġespecta cular
Ġencontrar Ã©
Ġpol aco
Ġen fa
Ġacom paÃ±a
ĠMu chas
Ġrelev ancia
Z ona
An na
Ġenjui ci
ci lla
Ġadmi te
Ġinvoluc rados
landes es
Ġadecu aciÃ³n
de x
Ġcomb inada
Ġf os
Ġcons piraciÃ³n
Ġimprescin dible
ĠC OR
Ġhab ia
Ġre en
Ġtir os
Ġinvis ible
ĠV Ã©ase
Ġde fectos
Ġsent encias
ĠBo w
ĠV el
Ġra tificado
Ġmoto cic
Estu pendo
10 5
Ġdra gÃ³n
Ġcircui tos
Profes or
Ġdetermin an
Ġdec ÃŃan
ĠPres u
ter izo
Ġcor ral
Ġin her
Ġproyec ciones
Ġf emin
Ġec olÃ³gica
esto y
R am
Ã³n icos
ro w
I diota
ĠA g
ĠengaÃ± ar
L OS
Mir ad
mon t
Ġdiplom Ã¡tico
J an
Ġorganiz ados
Ġcit ar
eb ra
irÃ¡ mi
iden cialidad
ĠSe gundo
Ġliber ales
Ġ" .
Ġop inas
Ġirre gular
en ciales
Ġplante ar
aci l
vir tiÃ³
Ġdi fi
ĠAd ri
ĠrÃ¡pi dos
Ġenfrent amiento
Ġbre cha
ambi que
gin s
ĠMon treal
Ġcaball erÃŃa
Ġata cado
Ġretrib uciones
Ġqui rÃºr
Ġcal mar
Ġatrap ados
vi al
Ġsub di
Ġtes tamento
Ġcoin ciden
Ġentre tenimiento
Â ĥ
Ġcre ador
ur y
s ado
ĠAnti gua
Ġdedic ados
Ġinund aciones
s oci
ĠCon ten
Ġvac una
Ġcar ece
ck er
Ġesca pa
Ġmostr ando
Ã© ctor
ĠT eo
ĠlÃ¡c teos
Ã¡bi tat
Ġprogres iva
Ġreca udaciÃ³n
Ġconstitu cionales
Ġor ina
Ġ9 00
IC OS
ĠAu to
Ġestu pen
Ġbar rera
tel las
de mo
Ġexten sa
ĠMo z
Ġinter rup
IN E
Ġatrib uye
Ġpes car
ĠAgust ÃŃn
Ãº rese
Ġdeclar ada
Ten ÃŃamos
F ab
Ġvigil ando
ĠM it
Ġac tivas
irm ando
Ġperten ecÃŃa
Ġcho que
Ġases inada
ban k
Ġincorpor a
Ġvol vi
Ġmagn ÃŃfico
cen as
pol es
Ġna tivos
ĠestratÃ© gicas
ĠS Ã£o
tr icas
ĠBe ijing
Ġnu be
Ġdestina tarios
Ġpreocup ados
tre mos
Ġasent amiento
Ġguer reros
S Ãº
Ġpermi tÃŃa
Ġb lin
Ġgab inete
Ġle Ã³n
ha i
Ġmar rÃ³n
ame lo
Ġper dimos
Ġas ciende
ĠJa ime
Ġconces iones
Ġparticip ando
an al
era to
ga z
n aciÃ³n
Ġdeci dÃŃ
Sal vo
Ġmen Ãº
Ġcole gios
oli ciÃ³n
tur aleza
Ġfl ora
ĠVic tor
Ġdesn uda
st es
ĠhÃ¡bi tos
Ġdiplom Ã¡tica
Ġp iden
ĠcÃ¡ llate
ĠG an
Ġgaranti zado
ĠBa talla
Ġconcili aciÃ³n
Ġ19 29
Ġm entales
Ġfi bra
Hab ida
ĠDocu mentos
Ġinsol vencia
bi as
ĠÃģlvar ez
ĠacadÃ©m ica
Ġampli os
Cal ma
Estu viste
Ġabund ante
M ara
Ġint ente
Ġpar lamento
Ġno ci
Ġale gaciones
Ãĳ OS
dr os
Ġl Ã¡pi
Ġdejar la
ĠS ing
Ġ19 34
ĠEj ecuciÃ³n
pÃ© u
Ġinstal ado
ĠEst ocolmo
ĠlÃŃqui dos
Ġfin gir
W h
Ġinter cep
ĠR A
Ġsab io
ĠRo dri
ĠIgn acio
si de
Ġprose guir
Ġv Ã¡lv
Â ±
ĠVa ticano
D ÃŃa
ĠArm adas
Ġtre ce
Ġprote gidas
Ch ris
Ġsu mas
Ġas ume
ĠRes erva
rish na
ĠUni verso
Ġtitu laridad
ĠJen ny
Ġprodu jeron
Pas Ã³
ĠsatÃ©li tes
Ġpa tentes
Ġpel u
Habi ta
Ġexces iva
Dich as
Ġtradicional mente
li ps
Ġapoy an
DiscÃºlp eme
Ġre posiciÃ³n
ĠcÃ© lula
Ġllam arte
Ġejecu tado
Ã¡r melo
Ġempi ece
Ġpres idenciales
par aciÃ³n
Ġdese ado
Ġtien de
Ġvali osa
h on
Ð ²
Ġcor tas
ere o
O G
Ġsu yas
m icos
ĠMag gie
Ġque des
ĠCopenha gue
ĠG un
1 10
tt s
A bsolutamente
Ġirre gul
Ġhaber la
Ġpin tar
Ġinterpre tado
ĠTh om
U CT
Ġpres identes
ĠOc cidente
ĠBelar Ãºs
ali as
fi cia
Ġases ores
D Ã¡
li d
ĠF AR
C CIÃĵN
u o
ĠAr qui
Ġmotiv aciÃ³n
Ġhoriz onte
aci ona
Ġcompar tida
Ġavan zando
Ġcre yÃ³
ĠdomÃ©st ica
Ġjugue te
Ġmad ru
Ġbanc ario
ĠCar acas
o tros
CH OS
ĠAyu da
Ġto po
Ġqui eto
te le
Ġus arlo
ĠEle ctoral
Ã©ndo la
ech tenstein
Ġseleccion ados
ĠEs pe
ĠEst Ã¡n
Ġtra tarse
ĠC lin
Ġhe pÃ¡
G er
Ġurban ÃŃstico
Ġgradu Ã³
Ġcontra tÃ³
Ġredon da
qui s
Ġtor ne
Ġexi lio
Ġcon dujo
gu laciÃ³n
Ġinaugu raciÃ³n
Ġl enta
Ġacces ible
Ġasign ar
Ġtrib ut
Ġ dados
Ġplane ando
il ados
Hab rÃŃa
FORM ACIÃĵN
m bres
ĠZim bab
Ġm ales
Ġfun dadores
ĠLatino amÃ©rica
b by
ĠT ab
ĠLin da
ĠE P
eci eron
Ġpro visiÃ³n
MI ENTO
Ã¡st icos
Ġcale facciÃ³n
Ġno tado
Ġvari ante
Ãģ S
H aremos
Ġe mail
Ven go
Ġ19 18
ii i
C osas
ĠH ard
Ġale a
Ġmanten gan
ĠCab all
i um
ĠP NUMA
Ġmer cen
Ġreac cion
in da
we en
Ġper diste
Ġestuvi mos
ĠD Ã©
ĠÃ©po cas
Ġcu ente
Ġdese aba
re al
ĠB ec
Ġdev uel
ci ano
Ġso port
Ġdelan tero
ĠJord an
Ġcon ejo
Ãį N
C AN
ni fer
l lam
Ġponer le
Ã©n donos
Ġper ÃŃmetro
AM I
Ġdelici oso
Ġdesemp le
ar cas
ĠD ro
ĠB eck
ĠBea ch
Est able
ion e
L istos
Ġmu seos
Ġeno jada
col ar
Ġprivile gios
Ġaport an
Ġsustan tivo
' m
Ġcens ura
Ġmi ro
Ġenter rar
Ġsecu es
t ÃŃtulos
les s
Ġ2 20
Ġand ando
Ġinf e
Ġsu cia
Ġu Ã±as
Ġcuales quiera
Ġres uci
i anos
ran os
ĠPos t
Ġse da
Ġllegar a
ĠTy ler
pe a
Ġalmo h
... )
ĠNo che
Ġtransform ar
qui Ã¡
Ġdes pren
Ġemer gencias
Ġllam arlo
financi aciÃ³n
Ġdesen ca
Ġpa is
Ġllev arÃ¡n
Ġvolun tariamente
Ġcompi tiÃ³
Fan tÃ¡stico
Ġejec ut
K o
Ġdiv ina
Ġa tar
G E
om bar
ĠT RA
Ġquer ÃŃamos
Ġarbi traje
n ist
Ġrevel ar
J ue
ien des
Ġenfrent Ã³
Ġb ÃŃ
ĠT ech
Com pren
Ġpens arlo
Ġponer lo
Ġautoriz adas
ĠL ang
M ami
ĠMo ham
Ġevacu aciÃ³n
ĠCla y
Ġsepar ada
Ġcer rÃ³
Ã± ones
Ġcontr aria
Ġi b
Des eo
ĠPr ensa
ĠmÃ³du los
Ġgu antes
Ġaplic adas
Ġvini era
Ġmanz anas
Ġarre ba
Ġinter ven
g rupo
d ing
Ġ19 32
Ġefec tivas
ĠA k
Ġdetener lo
ĠS tr
Ġaten diendo
ĠN as
ĠInf ancia
ĠHa ce
Hab iendo
v ÃŃan
Ġem bal
Ġsignifica tivas
Ã©n dum
ĠDes puÃ©s
Ġ19 35
Ġejecu tivos
Ġinser ciÃ³n
Ġnorte americano
Ġimpa c
to wn
Ġide ales
Ġtranqui lidad
Ġcomple tos
ĠS how
. !
G I
Ġcru ci
Ġbuscar lo
at tle
D OS
d Ãº
li r
Ġmiser able
Ġpin ta
ĠColum bia
Ġingeni eros
culos is
A ver
om al
Ġrestitu ciones
Ġcompar ar
ĠKa zaj
Ste ve
Ġconsidera mos
Ġorigin ario
Ġpu entes
Ġmar ginal
ĠoÃŃ ste
Ġmexic anos
ĠmÃ© dicas
Ġbar es
Ġpi lares
ĠSteph en
Ġrad ar
ĠV ÃŃa
Ġ19 17
Ġbus co
D ices
Ġde prisa
Ġatrib uciones
Ġre ele
Ġapar ente
Ġtuvi eras
Ġgri pe
qui en
Ġinterme dio
ĠI os
M AR
i v
ĠF ort
Ġconten edores
Ġesper en
gu los
ĠOr le
Ġtrabaj adoras
Ġinvi to
Ok ay
ĠA du
Ġpertur b
Ġaprue be
Ġfal los
n acido
Ġsu biÃ³
Ġcel oso
U r
En seguida
ĠVin cent
ĠP ad
Ġapoy Ã³
Ġaje drez
Ġcomple tado
Dej Ã©
ĠE vangelio
ĠC inco
s or
Di jeron
Ġo yÃ³
st ad
Ġus aba
Ġor illas
ĠFran ce
Ġalqui lar
Ġapar tamentos
Ġprom ue
V O
ali e
ĠM IN
W ill
el Ã©ctr
Ġri gen
ic om
Ġprotagon izada
ĠAm sterdam
n u
Ġtera pÃ©u
Ã¡r qu
Ġpol icia
iz os
Ġsuminist rar
xim adamente
Ġgolpe ado
ĠHar vard
Ġrode a
Ġexitos o
Ġevitar lo
Ġfas tidi
Ġcontroversi as
Ġa por
U ds
Ġconjun tas
ĠM adagascar
ĠcientÃŃfic amente
am ar
Ġlu chas
ĠC ara
Ġrevolucion ario
Ġp ali
Ġcomple jas
Ġpresti gi
Ġespeci fica
Ġtri ple
Ġgen es
Char les
EL C
ĠreÃºn en
An d
ĠRec omendaciÃ³n
Ġanunci ar
Ġculp ables
en g
cu Ã¡nto
ĠHel en
ĠEx c
SI ÃĵN
ĠAll en
ĠM AN
ques e
Ġf Ã¡rma
ĠcatÃ³ licos
Ġcamp us
Ġmin eral
ĠHol anda
Ġescla vo
Ġcaus ados
Ġmo le
Ġfras es
Ġcali ficaciones
Ġtex til
ĠK on
Ġego ÃŃsta
En tren
Ġconstru yendo
Ġsosten ido
Ġcoment Ã³
Ġinsu lares
ĠF lores
Ġintelectu ales
Ġhidr Ã³geno
Ġpo tente
Ï Ģ
ĠMi erda
Ġconvo cado
A gua
Ġexist ÃŃan
ĠSam uel
ĠcÃŃ v
Ġpe ga
ex cepto
S iendo
Ġpre c
ĠSem ana
Ġre as
Ġcas ino
Ġvo tantes
Ġrecibi dos
Ġvincul ante
in eros
Ġvi able
ĠMer cedes
teriz as
Ġove jas
Ġvi era
C S
Ġase g
Ġsuger encia
ve d
ĠInter gu
Ã©li x
ĠJ ard
ĠMan hattan
Ġbur gues
Ã³p teros
Ġal fa
Ġsus crito
ĠCon cepciÃ³n
ĠvÃ¡ lido
ĠEri trea
ĠmÃ¡ gico
gu r
Ġcam as
bl ame
dic amente
Ġseleccion e
Ġadqui ridos
ĠcuÃ¡n tas
ĠRe public
bec ca
ĠT I
min o
termin aciÃ³n
Ġcompar tido
Pre fer
Ġmodific ados
Ġf lan
p pe
ĠN Ãºmero
Ġtrans por
Ġex pi
Ġja ula
Ġan ul
Ġcont ables
Ġcolo cado
ĠHar ris
e urope
Ġo las
ĠT IC
Ġconf undido
Ġpe diste
ĠPon encia
ĠGh ana
Ġcoe ficiente
k ina
Ġinsec to
f ran
Ãģ n
pe dia
Ġproduci endo
Ġinter v
Ġperfec ciÃ³n
Ġansi edad
Ġ12 3
ĠJo aquÃŃn
Ġcos tar
ĠEs cri
Ġ( -
Ġacu dir
Hab lamos
Ġadelan tado
Ġescrib ÃŃ
Ġev olu
ĠJos h
Ġexac titud
Ġdepen diente
ĠM ER
ĠGu ÃŃa
Ġcar denal
Ġpusi ste
Ġpar ad
Ġcos tÃ³
Ġapos tar
col m
Ġcambi e
Ġadoptar Ã¡n
Ġparce las
Ġins in
ĠDe be
e tos
Ġcor tado
Ġ à¸Ģ
m erÃŃa
Ġencen dido
Ġcontribuy Ã³
ĠclÃ¡s icos
Ġvol ante
Ġven den
hi dro
c ones
Ġb la
IS TA
ĠIS O
Deber ÃŃan
Ø §
ĠBa hÃŃa
ĠG io
Ġedi ficaciones
Ġex hibiciÃ³n
Ġson re
Ġvideoj uegos
Ġvas os
Ġa porte
ĠA B
ĠM ana
ĠcatÃ³ lico
ĠS tal
Î ¼
Ġsi mbol
Ġvir tual
Ġcolo caciÃ³n
Ġmarch Ã³
Ġcoordin ador
Ġv ist
Ġordin arios
Ġpin tores
Traba ja
Ġmodific an
ĠIn glÃ©s
Ġquer rÃ¡
ĠAn tÃ¡r
ĠDE RE
Particip Ã³
Ġquedar Ã¡n
Ġsal ÃŃ
Ġpatrocin adores
ana derÃŃa
Ġles bi
Ġatre ves
ĠL ily
ĠestratÃ© gicos
Ġsosten ibles
Ġre tenciÃ³n
Ġfi los
Ġ10 6
Ġpu ri
Ġcit ados
Ġpreten dÃŃa
Ġestableci endo
Ġde tiene
Ġequi tativa
Ġca en
Ġ10 8
Ġprostitu ta
m ular
F L
ĠtÃŃp ica
dar Ã¡
dos o
pu lo
Ġarm amento
Ġcumpl iendo
V ir
pen cer
dor f
Ġbo tellas
v on
Ġe ros
Ġvac uno
Ġcon g
Ġali viar
Ġconsegui mos
Ġcoopera tivas
" Â»
John ny
T y
ar ch
Ġlimit ados
Ag Ã¡r
E ras
ci e
Ġequi dad
L Ã¡rgate
ĠN E
Ġabra zo
Ġotor gÃ³
Ġarti cul
Ġescas os
timi dad
Ġvis u
Ġdesarroll ada
Ġdes ech
ĠG ENER
ĠFA O
Ġroman ce
Ġacor de
ĠGran t
Ġinfl uy
Ex amen
Ġconten ÃŃa
Ġmis a
ĠKenn edy
De tective
ĠB eth
ĠB ry
Ġdescon ec
Ġdiri gen
Dis posiciones
st en
Ġsal go
Ġinv ali
vi embre
Ãº o
Ġexcl uidos
G al
ĠTele visiÃ³n
o ke
ĠIs lam
ĠJ r
ĠniÃ± era
emp res
Ġcomprome te
Ġprotagon istas
Ġvolver emos
Ġsubmar ino
Ġal deas
Ġri sa
Ġdesign ar
Ġsan tuario
ĠW y
UR A
Ġpos tre
Ġp Ã³n
con o
Ġagrup aciones
ĠP leno
di men
Ġcotidi ana
ĠSch en
Ġtea tral
ĠN acionales
Ġrestr ing
Ġocas ional
Ġfan s
Ġafici onados
Ġcercan as
ĠlegÃŃti ma
Ġvac as
Ġcompren den
Ġintro duc
Ġportu guesa
Ġpele ando
all er
Ġca udal
Ġvulner able
Ġjorn adas
Ġinacep table
ĠlingÃ¼ ÃŃstica
ĠAl ba
Ġh Ã¡
ĠBen jam
ĠAl onso
Ġllev aban
Ġestad ÃŃstico
M ac
rÃ¡ ter
Ġalmor zar
ĠDirec tivas
Ġlec tor
ĠWh it
Ġmar keting
ĠProvin cial
Re la
Ġfacilitar Ã¡
Ġd uelo
ĠÃģ rea
Ġplante an
Ġca torce
Des apar
Ġfrag mentos
ĠPre para
Ġminister ios
Na turalmente
o v
ĠAr mas
Ha gamos
ĠKen ya
Ġl ema
net t
Ġcalle jÃ³n
re la
par ta
Ġsan cion
Ġcelebr aron
Ġele var
Ġin du
Ã ¦
po demos
ĠHar vey
Ġcolon os
ĠC M
Ġat entados
Ġre ma
ĠY emen
Ġvisit ante
Ġindirec tamente
ĠONU DI
Ġafec ten
m icas
M ol
Ġderi vada
ĠI R
C ali
P lus
Ġgust ar
can os
IC ACIÃĵN
{ \
Ġestric to
do va
ba o
ĠR ussell
Ġhi drÃ¡ul
ĠAmbi ental
Ġdesgra ci
Ġalcan zados
Rec or
on ada
Ġiden tifica
Ġviol entos
Ġtrabaj amos
Depen de
Ġd c
Ġoli va
Ġsome tida
Ġtru cos
Ġindi cios
Ġhem orra
Ġsole dad
Ġtraslad ado
ĠcÃ© le
Ġreinte graciÃ³n
Ġv Ã©r
C Ã¡
Ġre zar
Ġsubray ar
ĠA P
Ġconduc tores
Ġsal ÃŃa
Ġri tual
Ġbom beros
H I
- (
T ab
g Ã³g
ta h
ea u
z cas
ĠT ranqui
F IN
ig Ã¼
Ser Ã©
ÃŃc olas
Ġel enco
Ġsu ba
in ga
Ġem ble
ĠH oo
ĠJurÃŃ dicos
Ġprevi os
Ġbusc amos
Ġle ve
tr ados
ĠmÃºlti ple
G ente
ea h
Ġfuncion arÃ¡
Ġatraves ar
Ġrar os
di sta
Ġpre ferencias
Ġmisericor dia
ĠCam erÃºn
Ġmostrar Ã©
ĠAssocia tion
Ġago tado
pole Ã³n
Ġhacer nos
su b
A dam
Ġju gada
is Ã©s
Ġpres o
Ġale gr
car riles
ĠDu que
v ando
Ġca Ã±a
Ġqui ta
Ġap esta
Ġdemasi ados
B illy
Ġpu tas
Ġconf idencialidad
Ġglo bo
Ġon line
Ġorden amiento
ĠM ec
Ġconven iencia
Ġsovi Ã©tico
Ġcont Ã©
ĠDirec tora
Encon tramos
Ġdese amos
Ġrequer ido
Ġpes ados
Ġnove dad
Ġmedi ana
Ġsector ial
Ġdecen as
as en
Ġafec to
Ġrent abilidad
ĠPro pi
ĠKyo to
Ġdes ci
ĠMi xto
Ġintensi ficar
T ed
Un as
w Ã¡n
ĠMonte video
ĠE duca
Ġdivi dida
w art
F und
o te
Ġperman encia
Ġindi que
er ie
ĠCh Ã¡vez
ios a
Ġcaptur ar
Ġpublic adas
Ġcas arte
Ġsepar ar
Ġasi stiÃ³
Tom my
ĠDu bl
ĠS as
Ġem par
Ġanim aciÃ³n
2 12
Ġse quÃŃa
Ġhar ÃŃan
ten go
ĠGra y
Ġinnov adoras
Ġre llen
Ġju go
Î º
Ġba u
ĠDirec trices
Ġclasific ado
Ġle j
ĠMo delo
Se gunda
n acionales
Ġdesarroll adas
Ġint entas
ĠPu ente
ĠES PE
ĠtrÃ¡ mites
Ġdedic adas
im ental
Ġacep tada
l uencia
ĠSo bre
I DO
ĠAn derson
Ġbar ras
Ġautoriz aciones
Ġ19 28
ĠHu gh
ĠAm Ã©ricas
Ġerradic ar
ĠMonter rey
B ER
Ġreconstr uir
p ones
on ario
Ã³m ico
ĠF le
Ġreserv ado
Modi ficaciÃ³n
Ġconst ancia
Ġhaci Ã©ndolo
Ġconf undir
Des gra
quisi tos
Ġmin i
l li
In sta
Ġem borra
ĠhÃ¡bi les
ĠSil va
Ġimp rimi
ĠRu ta
m acia
quilla je
Ġpres ten
ĠMi randa
Ġdiab etes
Ġtem Ã¡tica
ĠDa tos
J un
ĠVal ores
Ġcompeti tiva
- ...
ÃŃ ste
ens is
ĠNÃ¡ poles
Ġdeci den
Ġg ilipol
Ġres tante
ĠAl go
de ar
Ġbur bu
ĠN BA
ĠAri zona
B el
ĠbÃ³ veda
erra t
Ġconten ida
Ġele vadas
Ġre tener
Ġfi jos
Ġch anta
Ġor aciones
Ġfac turas
TIV A
aman ca
ri k
til los
Ġser ios
ĠA re
Ġd rÃ¡
Ġminister ial
per as
Ġago ta
ĠhistÃ³r icas
Ġexce da
Ġgri to
vir tiendo
Ġmonta Ã±os
ĠNan cy
Ġdetermin e
Ġtradu cir
Ġtir ado
Prin cip
ĠE h
Ġgan adores
ĠVer dad
Ġd ren
ĠN elson
i remos
Ġhier bas
Ġba Ã±os
ĠCon dado
Ġtraer Ã©
Com er
ĠEn can
es tes
Ġsol tar
Ġmar cador
Ġun ida
Ġ[ ...]
Lle gar
Ġcent rar
Ġg it
es as
Ġcompeti dores
Ġaplic ada
Ġarreglar lo
Ġre lo
Ã¡nd wich
Ġsent ados
Ġplu mas
Ġro jas
Ġconv ic
ĠEuros tat
Ġcelebr ados
ĠGener ales
Ġempe Ã±o
Empie za
ĠAs es
198 1
ock ey
ĠfÃ³si les
Ġvol vamos
Ġbus que
Ġ19 14
z ie
Ġru bia
Ġni do
Ġt est
ech e
ĠCh ap
Ġc rÃ¡ter
P Ã¡rra
ĠA ce
Ġdes prende
Ġm ero
F ac
z en
ĠLa go
Ġgo zar
ĠS S
Ġtu yos
Ġciru jano
ĠO IT
Ġrodi lla
li os
Ġimport aba
ĠAst urias
Ã© anos
Ġe ternidad
Ġinest abilidad
s burgo
Ġmanio bra
Ġesper ma
n ada
am par
Ġmanifes tantes
Ġhu yendo
Ġpre j
Ġhech izo
ĠLoc al
an ne
Ġt ali
Ġayudar Ã©
z aban
Ġcuali ficada
Ġhablar emos
Ġrecomen dado
cion alidad
Ġasegu rado
B M
L uc
ĠTra bajadores
s abe
Ġhem bras
Ġdesplaz amientos
Ġepi demia
g iÃ³n
ĠCh arlotte
ĠTh or
Ġinform Ã¡tico
Ġestuvi ese
Ġgener oso
ĠHol mes
Ġco jones
Ġecles i
Per dÃŃ
Obje tivo
Ġinv ad
g by
st one
bo x
ick s
y ente
Ãł s
T ro
ĠmÃ© rito
ĠMe didas
br Ã³
all en
Ġenf ri
o cup
Ġgala xia
Au tor
ĠMa gn
Tu viste
Ġdelan tera
ven a
Ġdur ar
Ġb udi
Am Ã©n
Ġlo te
Ġsup uso
ĠS ho
ĠtrÃ¡ mite
Ġma go
T ener
re d
Ġest ran
Ġjustific ada
Ġele vaciÃ³n
ĠQu ÃŃm
Ġo ir
Ġreci bÃŃ
Ġsan itarias
ĠD ic
Ġtel eno
Ġconsoli dado
am inas
zbe kistÃ¡n
qu ino
Lo uis
Ġre ga
Ġchim ene
Î ¯
ab amos
Sal gan
Ġcolo ca
l f
Ġcalcul ado
ur Ã³
Ġdin osa
ĠLi echtenstein
ĠBern ard
ĠAbra ham
F irmado
Ġl Ã¡ser
Ġpier den
ĠIntergu bernamental
Com pr
Ġaterri zar
Ġal gor
Ġmonum entos
Ġlogra mos
Ġmari huana
bi t
mis sion
Ġsometer se
Ġtra es
Ġfu gi
ĠÂ ·
re tt
ĠApro bar
ĠS erv
Ġpor ciÃ³n
br ales
Re tro
Ġdes activ
F ICI
ĠCor pora
Ġconstru yeron
Ġinsi ste
Ġagr ada
rÃ¡n dose
Ġdismin uido
us k
ĠO ce
tan me
Ġincorpor Ã³
ĠdiseÃ± ada
present ada
ar as
Ġorden a
Ġdon aciÃ³n
Ġnecesit arÃ¡
Agu anta
Ġdon aciones
r ina
ÃŃfic as
Ġagu jeros
Des tr
ĠJ am
ĠMor eno
ĠMich el
Ġagu ar
ĠMal lor
Ġver ÃŃa
Ġcol inas
Ġbo tÃ¡nico
gari ta
ĠfarmacÃ©u tico
Ġpens aste
pro yecto
Ġsorpren der
b ueno
ĠNorte amÃ©rica
Ġlegisla tivos
Ġnutri ciÃ³n
MÃŃ rate
Ġap unta
Ġocul to
ĠC lo
Ġsub esti
Ġ19 19
emin ario
L ic
Ġnum er
Ġabon arÃ¡
Ġlogr arlo
ĠCons erv
ĠDe tective
Ġlog ÃŃstica
ĠJ oy
Ġdelic ado
Ġgor da
Ġemb ala
D iles
Ġenvas es
Ġconseguir lo
Ġmanifes tado
Vay amos
N P
Ġsur gido
Ġh ard
Ġse cos
Ġdi arias
Ġconci enci
* )
Ġ dadas
man tes
ĠRela tora
Ġinte gran
ĠJu lie
Ġfal lar
Ġconten ciosa
Ġevi dencias
ĠclÃ¡us ulas
Ġpor querÃŃa
Ġseg mento
la v
uc emia
Ġen mar
ĠCu atro
ĠB uck
Ġvideoj uego
Ġgra titud
vas te
Ġcali entes
ba ch
Di ri
Ġremi tir
ro e
Ġmer eces
ã ĥ
ĠG ood
F ÃŃ
es sa
Ġa ga
cios as
ĠPra ga
h ue
Ġcuad ra
Ġcuestion ario
f oro
cu Ã¡ndo
Ġdesigual dad
Ġper dedor
In te
Ġcomplement arios
Ġman chas
n dice
di Ã©ndose
lÃ³g ico
ci Ã©
Ġlegis l
Ġbro mas
abor aciÃ³n
ino is
ĠOc Ã©ano
Ġn Ã¡
Hab lÃ©
J uega
an ca
Ġdetermin Ã³
ĠAr turo
Ġocur ren
ĠÃ¡ tom
a tori
Ġda to
ĠTer cer
Ġce der
Ġpedir te
Ġmon os
ĠO ne
J er
ĠTo p
ĠT O
Ġhem bra
Desaf ortunadamente
w o
Ġsuel dos
Ġcor ren
f ul
Ġarti culo
Ġefec tividad
Ġprim arias
cur os
ĠAli cia
ce lo
Ġproce derÃ¡
OM BRE
Ġperman ecen
ĠClar a
Lament ablemente
Ġun Ã¡n
Ġgras as
T H
ĠTerri toriales
min g
ES TI
ĠseÃ±al an
ĠIn stru
ĠAmer ica
on io
Ġevi tando
am in
Ġsin cron
Ġo v
Ġvac ante
si ete
Ġcap turas
g gy
Ġgener ado
Ġ17 0
Ġampli ado
di stas
Ġ( +
as tr
Ġapareci eron
ĠA tÃ³mica
Ġol er
ĠMon gol
Norm as
Ġdesem bol
nes s
ÃŃ var
Ġalber ga
O cho
ĠVie jo
Ġcole cciones
Ġcur r
ĠL ane
Ġpres tados
Ġperi f
Ġcom por
Ġu cran
Ġor todo
ĠgrÃ¡ ficos
Ġpi la
Ġespeci alizadas
Ġtorne os
Ġtom es
peci es
B lan
Ġpre curs
tn ey
10 9
Ġtransi torio
Ġmal etas
ma gn
Ã¡n ica
gu acil
Reci entemente
Ġconv icciÃ³n
Ġdar emos
Ġcontes ta
Ġfres cos
Ġs ensores
Ġrob aron
Ġregist radas
ĠQ U
jar te
ĠR onda
ĠInstitu ciones
ĠS ici
tor e
ĠS ti
Ġpas en
Ja ke
an ual
ĠBat man
H mm
o a
Ġven drÃ¡n
M ur
Ġve cina
Ġconsider arÃ¡n
Ġti pi
Ġequip amientos
Ġestric ta
Ġso dio
ĠAlcal de
CuÃ©n tame
Ġdomin gos
Ġth is
Ġrebo tes
Ġelabor ados
Ġal am
ami bia
Ġrevis iones
Ġf ea
ĠBan cos
er tan
âĢ¦ âĢ¦
ĠB in
Ġsuper mer
ĠExcel encia
bri os
dis cip
ĠPR OD
Ġh ala
ĠK n
Ġfinanci ado
ĠK rishna
Ġpar ano
Ġmo viendo
el s
u ga
Ġayudar ÃŃa
Ġen gan
Ġform aron
Ġleg alidad
Ġata caron
Ġhem o
Ġprede ces
Ġsuje ciÃ³n
Ġexist an
ĠT E
Ġferrovi aria
Ġcomplic aciones
ĠSe xta
Ġhal lan
Ġtermin aron
Ġorden adores
Ġgeo grÃ¡fico
Ġsustit uirÃ¡
ĠP ay
Ġfres cas
Ġor bi
ĠCent rales
Ġdivi den
Ġotor gada
em ento
Ġparlament aria
Ġesca pado
ĠvÃ¡ lida
Ġ19 24
Ġmisterios o
Ġx enofobia
Ġmor tales
Ġcalent amiento
Ġalf ombra
Ġinter con
Ġencargar Ã©
Ġna zis
V osotros
Ġnove dades
i era
it en
Ġrespe tando
per sonal
ĠfÃŃs icamente
Ġmal vado
ĠCor tes
Ġapete ce
Ġgo ta
Ġna zi
Ġ19 10
Ġcamp amentos
Ġrecha za
Ġvi vas
Ġmol estia
Ġf ec
Ġinter institucional
Ġcircun s
Ġobe decer
v oluciÃ³n
Ġdesfi le
ĠÃ©tn ico
Ġter n
Th omas
! ...
Ġtransmi te
tos an
ĠIn dÃŃgen
bili ario
Cara y
Ġecu aciÃ³n
es tos
Ġj ar
Ġval er
Ġun en
Ġviol enta
Coo peraciÃ³n
Ġvin culaciÃ³n
Can tidad
ĠÃ©tn icas
ĠRom ano
Ġest ereo
ĠCol onia
Contin u
Ġc Ã©n
cla je
ban as
ĠÃ¡r bi
Reconoci endo
ĠInspec tor
Ġast ron
Ġul terior
V arias
Ġemp lazamiento
ris as
Ġmatar ÃŃa
Fal le
fici l
ĠdomÃ©st icos
A na
C uestiones
ing ue
ĠdomÃ©st ico
g rando
ff rey
Ġsome tidas
Ġex pone
Ġliter aria
Ġ ),
Ġinfe liz
Ġcaus ada
Ġa ba
er ve
Ġdeci siva
Ġba te
s abilidad
dos is
Ġproporcion ada
DÃŃ gale
Ġar ra
M T
Ġindi cando
ĠIngeni erÃŃa
ĠR al
Ġdo lores
Ġgeo grÃ¡ficas
S ui
Ġofen der
Ġmostr aron
Ġahor ros
Ġlegi timidad
Ġan illos
Ã©n salo
Ġpira tas
Ġpudi Ã©ramos
Ġterra za
Ã³ licos
Ġcon vin
Ġplante ado
ĠPolÃŃ ticas
Ġadop tados
Ġjue gan
Ġfinanci amiento
Ġnot ablemente
ĠCrist ina
z onas
ur ada
Ġprovis iones
ĠC ic
Ġco ar
at t
H am
Ġtra jiste
Ġh ur
Ġescuchas te
ĠdiseÃ± ar
tavo z
Ġrecuer de
di encia
ĠMar ty
Ġme ti
duci ario
Ġderro tÃ³
Ġau mentos
Ġsig na
Ġreempla zo
ĠLeon ard
i us
Ġfun d
ĠHar t
ĠN ico
Ġtur ÃŃstica
Ġdestac ada
Ġgir ar
Ġel ige
Ġabar car
an Ã¡s
pro ducciÃ³n
Ġatravi esa
N acido
ĠÃ ł
Ġal ba
Ġescri tora
Ġporno grafÃŃa
r encia
ac ter
De ten
ĠLiber aciÃ³n
Ġtrabaj adora
ĠI PC
Ġarres tar
ĠO a
on izaciÃ³n
t abilidad
ĠYugosla va
Ġpa pas
Ġreun ieron
Ġvoc aciÃ³n
Mad rid
f et
Ġsab ÃŃamos
anci aciÃ³n
Ġmar inas
Ġcomba tes
Ġincorpor arse
Ġinaugu rÃ³
Ġconvi erta
ĠRe forma
Ġhe bre
Ġlevan tado
Ġarro yo
Ġinfan terÃŃa
Ġvis ado
Ġs era
Ġa porta
ĠAr n
Ġad versas
Se an
s em
Ac abas
Ġhue co
Ġpas ados
Ġrefer Ã©ndum
ĠtÃ©cn icamente
Ġpon ÃŃa
Ġbas arse
Ġin minente
48 200
Ġcafe terÃŃa
S cott
Ġexport ador
Ġdescri tas
Ġcomprimi dos
tific aciones
Ġsubsi dios
Bob by
Ġpa gando
Ġllev adas
Ġinmue bles
F ER
Ġapren dÃŃ
ĠHan s
AT T
Co ge
Ġdiv ino
Jos e
Ġdo bl
ĠenseÃ± ado
Aque llos
ĠGali cia
Ġaccion istas
l ismo
ab uena
Ġreci ban
Ġtra mos
Ġsugi ero
rÃ¡ fico
Ġconsigui endo
Ġsistem Ã¡ticamente
Ġconduci endo
Ġfamili ari
Ġso ca
Ġllev ados
di llas
dente mente
Ġtiro teo
Ġllegue mos
ĠOx ford
Ġorigin arias
Ġconserv an
Ġdi mos
Ġcome tidas
Ġnorma tivo
Ġcomp la
re l
ĠB ond
Ġindi gn
Ġtari fa
In tern
Ġper d
ĠF uego
Ġfi able
Ġs am
ĠCON S
ala jara
Ġgen Ã©rico
chill erato
st ar
qui l
ĠHo uston
Ġvincul ada
Ġbor rar
Ġcer emon
ĠW o
Ġaudiovis ual
U SE
Ġinterfa z
cip es
T Ã³
Ġproduc tivo
ã Ĥ
Ġacep to
Ġma tas
ĠPari taria
tu osa
ĠS pe
Ġpudi ese
Ġban ca
g ales
Ġyo ur
Ġco pas
ĠCol orado
Â» ),
Ġrespal dar
ĠAUT OR
Ġvol vemos
g amento
Ġinterpre ta
Ġencontr ados
v eme
ff in
Ġnegoci ables
Ġsuperfici al
Cate gorÃŃa
Ġv itales
Ġfrecu encias
ĠPal abra
Ġpreca uciÃ³n
Ġsolici tada
Ġsent arme
Ġprogres ivamente
el amente
Ġrespon da
ĠCE IP
Ġconform an
Ġentre gas
ĠPa u
Ġefectu ada
Ġmanifes tar
Ġcu bano
ĠN ich
ĠBrook lyn
L en
Ġra bia
Ġalcan zando
AM A
Ġrecuper ado
g ed
Ġindic adas
Fui mos
ent iendes
di fusiÃ³n
O bserva
Ġsent ar
ĠAmeric ana
Ġfarma co
Ġdi osa
Ġ19 25
gan lo
Ġdeud or
Ġperfec cionamiento
ĠP RE
ĠK in
ĠGuer rero
ĠA pel
ĠM inas
AR IA
ĠSE C
Ġrequer imientos
Ġpi da
de remos
Ġob tienen
Ġpes queros
Ġcau te
ta ts
Ġar en
ĠJes se
Ġaro ma
ĠfantÃ¡ stica
Ac tividades
g ÃŃas
Ġsex os
ĠÃŃntegra mente
Å «
Ġpon der
ĠTran si
Ġpro cu
inter pre
Ġace ites
Ð º
Ġincom ple
Ġjuven iles
Der echos
ĠVol un
R ick
Form a
ĠD A
Ġba terÃŃas
Ġenveje cimiento
ĠMongol ia
ĠC es
Ġincl inaciÃ³n
ome traje
ti Ã©r
Ġabo gada
ĠaÃ© reos
si o
E quipo
S Ã¡c
ĠL ÃŃnea
Ġreempla zado
EN A
Contin Ãºa
ras burgo
S he
tar ra
Ġdistrib uye
Ġenferm erÃŃa
Ġi dÃ³n
ĠV lad
gar es
Ġsal ch
Ġpersi gue
Ġabund ancia
Quien es
Ġla van
ĠUni da
ĠM uerte
Ã¡ce as
Ġpi erda
yun g
es p
Ġbal Ã³n
Ġjo dida
ĠSin dica
ĠMoz ambique
ic ano
pre cio
or ros
Ġhablar Ã©
Ġma quillaje
Ġpes te
ti ce
Ġvolver Ã¡s
qui ere
Ġlevan tamiento
Ġagre gado
z ono
G aran
Ġacep tadas
Ġp ill
Ġcompar ado
mon ial
ĠperiÃ³di cas
Ġser ias
Ġsugi eren
Ġdestr uida
Ġconec ta
Ġafric ano
Ġdenomin aciones
S M
ĠJack ie
Ġar cos
ĠReg lamentos
Ġcel os
ui mos
Ġcontrib uirÃ¡
Secre taria
me t
ĠT ribun
Ġquedar ÃŃa
Ġanticip ada
Ġredac tado
M Ãºsica
ĠMonet ario
ĠincÃ³mo do
Ġas pir
Ġba jando
Ġcontemp lada
Ġdes van
Ġar zobispo
j ala
Ġinst into
Ġefec tÃº
ĠUni on
P M
cul tura
oo t
Com andante
Ġplan a
Ġtras torno
N or
Ġdis u
ĠN Ãº
Ġvia ja
il ado
Ġis lÃ¡m
Ġsemi lla
2 20
ci ble
Un idad
Ġinstitu tos
ĠA ran
Ġas o
Ġsac arlo
he ad
mun do
Ġinspir ado
s ecciÃ³n
tra te
ĠPe Ã±a
ĠSh ar
Ġdesenca den
ĠC r
Ġe du
Ġcon ducido
Ġs ensor
Ġcent rarse
Ġprior itario
ĠdesempeÃ± ado
Ġrecre a
Ġtra iga
Que dan
que Ã±a
ĠCar re
ĠhÃŃ dr
Ġresul taron
Ġformul Ã³
Ġsuce derÃ¡
roso ft
Ġver gon
ines s
Ġreaf irm
Ġexi li
c aban
Ġdes movi
ome trÃŃa
B or
Re pito
Ġprepar Ã³
ĠR ena
ÃŃ fero
Ġco bro
ĠcÃ¡l mate
Ġotor gamiento
ina je
Ġher ed
Ġcancel aciÃ³n
Ġpsi quiÃ¡
N T
Ġsin gle
an Ã¡
Ġalgor it
ĠS tate
Ġres pi
ĠIndepen diente
Ġadelan to
ĠCon stitu
Ġpayas o
Ġsan gri
Ġol vÃŃ
Ġpa p
bri l
Ġla gunas
Ġcas ta
Ġasegu rÃ³
p ino
in f
Ġo ut
Ġagradecer ÃŃa
co pia
ĠSchen gen
Ġw as
Ġacer vo
y era
ĠBo letÃŃn
c H
e jos
uc ker
Ġurban iz
a Ã±o
ĠA th
Ġsol ares
ĠMÃ¡ laga
Ġda te
Ġan uncia
Ġofrec emos
an des
Ġau diciÃ³n
Ġrebel de
ol s
ĠR Ã©gimen
Ġinaugu rado
Ġa gi
Ġs Ã¡ndwich
po der
Ġcuad rado
Ġvag ab
Bien venida
Ġperj u
Te le
Ġfes tivos
Ġinform al
ĠV ete
ĠC C
Ġaerona ve
c las
ll y
Ġoc Ã©anos
l ab
Ġcontrar res
ĠTai wÃ¡n
Ġ19 27
Fre d
ĠIn c
ami ta
Ã³ vil
Ġo posi
ano va
Ġusu almente
Ġreclut amiento
Co le
m uy
dal ena
l Ã©n
Ġescu dos
Ġconsigui eron
pu ra
Ġtron co
Ġpl ural
R T
Ġfinanci ados
te ctor
Ġpes quero
Ġsignific aba
Ġexpres aron
Ġ3 60
Ġadop tando
Ġsol tero
Ġgen u
Ġsacri fic
Ġsub iendo
te z
z alo
Des arrollo
ĠG loria
Ġle gen
Ġindirec ta
ĠA di
Ġferrovi ario
ĠAdministra ciones
Ġlo bos
ĠF os
x x
Ġespiritu ales
Ġprov echo
ĠI an
Ġestal lar
Ġcar nes
ĠFun cionamiento
emp lo
Ñ ĥ
Ġencontrar Ã¡n
T OR
En fer
Ġal iado
Ġan to
ini eron
S en
ad uras
ce y
ado lid
Ġpregun te
I X
Ġdig na
Ġpotencial mente
Ġlament able
Ġver bal
G ri
er vo
Ġpresent ando
z el
ĠN A
Ġcap it
ĠdiscÃŃ pulos
al s
CI ON
Ġide ologÃŃa
Ġl un
D in
Ġman cha
u raciÃ³n
Ġevidente mente
Ġvi entre
Ġcristi anismo
Ġdespre ci
Ġcri ado
Ġinfan tiles
ĠorgÃ¡n icos
Ġintro duce
Ġpres cripciones
OS C
Ġ10 2
Ġesti pula
ĠcÃ³mp uto
Ġpropa gaciÃ³n
Le on
Res pira
Ap Ãºrate
Ġmi rÃ³
Ġhuman itarios
un cio
Ã³ bal
hor abuena
ĠSha w
v ente
Ġcre ÃŃdo
ul lo
Ġinquie tud
ĠLa ke
Ġbac terias
Ġhidro carburos
ÃŃm ulo
oso tras
ĠfotÃ³ grafo
AS E
ad illas
Ġ19 00
Ġfigu rar
ĠsÃ© ptima
Ġservi dores
ĠAr ti
ĠPar ticip
Ġpermi ti
Ġlle gas
Ġsab rÃ¡s
ĠpolÃŃ gono
b ada
ĠSal om
Ġhabr ÃŃas
di eran
ad ministra
Ġpr endas
Ġd Ã¡ndole
ĠP MA
p t
Ġprefer ido
Ġdesconoci da
Ġneum Ã¡ticos
Ġmila gros
Ġv ÃŃs
Ġse t
Ġquer Ã©is
ĠacompaÃ± ados
ĠTer rorismo
ĠRepresent antes
ĠdemocrÃ¡ ticas
R on
Ġsor pres
Ġbail ando
Pas o
Ġfu m
Ġdescan s
Ġplas ma
Ġn at
Ġl entes
ĠT os
par as
Ġante pas
Ġsol tera
Ġpreocup an
y ar
om an
pec tos
Ġdemasi adas
B rian
as is
Ġo tom
Ġpresent arÃ¡n
Ġchil ena
Ã¼ n
ĠAd d
Ġg oma
ĠPro gramas
Ġparlament arios
ĠM U
de d
ru sia
ÃŃ p
ĠMar garet
ĠT rib
Ġsub sist
da e
Ġinterro gar
Mucha chos
Ġdi ariamente
ĠFrank lin
Ġfi tosan
Ã³di co
A cu
ien ses
Car ol
Ġab ol
K im
Ġfor zado
Ġcui da
I bÃŃd
ĠP L
Ġemi tida
Ġenfrent amientos
ĠOh io
ĠIn cl
Ġprome tida
P Ã¡s
V io
L ea
il ton
ĠZ ambia
Ġri fle
Hist oria
Ġtrans bor
ĠMas sa
ER S
Ġexp ro
vi la
ĠEn cu
Ġf ero
mos o
Ġsegu ÃŃan
ĠacompaÃ± ar
Ġacab aron
Ġarm adura
Ġbode ga
Ġinvi tada
mo ver
Ġmuestre o
Ġreg ener
Ġmal dad
Ġopera tiva
F lor
Ġprote ÃŃna
Ġproduc tiva
Ġacostum brado
Ġarras trar
Ġperio dismo
Ġfle cha
Ġpsic Ã³
ĠhÃ¡bi to
Ġtermin arÃ¡
A Ã±o
ĠSim pson
Ġre cto
Ġenvi ando
ĠR ights
ĠT ara
Ġrazon ables
Ġque ma
Ġto bi
Ġs r
Ġa fer
g Ã¡is
Bas tante
Ġrevis ada
trÃ³ geno
Ã¡st icas
Ġcol abora
ent ÃŃa
Ġcor bata
Est ar
velop ment
Ġech Ã³
De prisa
Ġnum ero
Ġqui ebra
C olo
Ġacre dita
Ġvoc ales
Ġbru ta
ĠB es
Ġcar ecen
Ġs w
Ġde tente
OR A
Ġhaci enda
ĠVigil ancia
er tes
car ga
Ġrepu gn
Ġavan zados
ĠT in
Ġenv ol
Ġconocer la
ĠD erek
Ġnoble za
ĠO ctubre
Ġultra terrestre
Ġsobrevi vientes
Ã µ
ĠO IEA
Ġdese ar
ĠTor tura
Ġdes es
Ġfabric ar
V ienen
Ġcontinu ado
ĠSy stem
ĠAn thony
Es co
Ġh olo
ĠautÃ³n omo
cu m
Ġemple ada
Ġhistori adores
ĠEst ruc
ĠImper ial
Gu au
Ġg ano
Ãį S
bo t
Ġfavor itos
Ġabier tamente
Ġpres tÃ³
Ġgal le
Ġcompren didos
ĠP un
ĠcatÃ¡stro fe
orn ada
Ġperj uicios
A ra
Ġem bos
ĠMar cus
Ġcorre dores
h t
Ġdepen der
A t
per ÃŃodo
Ġlle gaba
Ġp p
oy le
rÃ³f ono
Ġcer radas
Ġcontemp lar
Ġaf irman
g la
ĠEste ban
Ġga tillo
Ġ20 20
i ona
pi on
ĠGuar di
Ġher ir
Ġpen de
om ba
Ġmedi cinas
Ġembara zadas
Pro ductos
Ġale manas
Ġor eja
poner se
Per man
Ġman dado
Ġcole gi
Ġbri llo
Ġperf iles
ĠK ara
ĠTi empo
Ġescuad rÃ³n
EstÃ¡ is
Ġcohe tes
te ga
Ġreco gido
Ġla ta
Ġfilos Ã³
Ġ13 6
Ġexce dencia
Ġan omal
Ġconsist ÃŃa
Ġejecu tiva
ĠSoci ety
vi de
Ser Ã¡n
Ġli ban
ĠdÃ©j alo
ĠCom p
Ġprelimin ares
ĠU zbekistÃ¡n
ĠCol lins
ĠUN FPA
L este
ol in
cion ista
ĠincreÃŃble mente
est able
Ġara Ã±a
w itz
is as
Ġconsi ga
Ġinsegu ridad
Ġllev ara
An dre
Ġpaisa jes
Ġmira ba
j Ã¡
ÃŃ rez
Ġen re
ĠBet ty
p Ã³sitos
ladel fia
C Ã³
Ġesco gido
Ġe terno
Ġintimi dad
Ġfir mes
h rer
Ġ19 26
Ġinforma tivo
ĠTrans portes
ĠnÃºc leos
ĠÃ©tn icos
ĠcÃº pula
Ġfascin ante
ti ga
Ġater ror
Ġchi p
Ġsatisfac toria
Ġin hibi
Ġreclam ar
c ales
Ġcomenzar Ã¡
Ġconec tados
u siones
Ġrespe ten
ĠPrin cesa
Ã³ grafo
ĠC alidad
dro mo
ĠPer io
ĠEstu dio
Ġcrea tividad
Si gan
Ġtermin amos
Ã¡r bara
Ġtermin an
Rec omendaciÃ³n
ĠTec n
ĠCat her
Ġfi lo
Ġnombr ada
Ġtuber culosis
b b
vin os
Ġvi bra
Ġenter ado
ĠBel la
ĠPro to
Ġenfad ada
ĠPi er
et ty
Ġmantener lo
Ġvar ÃŃan
Ġco ge
Ġest ir
ĠAs oci
ĠG am
Ġceleb ran
Ġcar gado
Ġanti biÃ³
Ġpromo vida
Ġsobr ina
Ġregist ra
H aciendo
Ġ5 000
mar k
ĠCal der
Ġdirec tivos
Ġmas acre
Ġsubsidi arias
Ġproxim idad
Ġhac ÃŃas
Ġman uales
Ġfor zar
p ha
Ġpor tero
Ġchanta je
Ġt ent
Ġfin alizado
Ġsemej antes
Ġorient ada
Ġrei tera
r Ãº
br ÃŃa
iz ando
Ġest abilizaciÃ³n
Dej en
Ġencar gadas
AD RO
ĠMar ino
Ġimp lÃŃ
Ġprim ario
Ġp irÃ¡mi
primi r
C ur
T AL
ĠOrle ans
is fer
Ġdist ancias
ĠUS A
Ġacostum br
Ġex puestas
Ġinici aron
de c
Ġtendr ÃŃamos
Ġpagar Ã¡
Ġcorte za
m ados
d ame
Ġlic enci
Ġcomprome tida
Ġrespon den
Ġdi jimos
qui llas
... ,
ĠNe gra
Ġexten dido
b raciÃ³n
ĠCent ros
ĠK han
Ġorigin aria
ĠniÃ± ez
Ġindividu almente
Ġan ulaciÃ³n
ĠCom ple
alla ce
1 30
Ġan ular
Ġtermin ales
i vi
Ġocup ando
ĠCol Ã³n
Ġaplic ados
Ġreco lec
Ġdisculpar me
T AS
f fe
Ġt rin
f abe
Ġpsiquia tra
ĠCons ol
Ġqui mio
Ġoscu ras
Haz me
Ġexpuls ado
Ġmar es
l ones
Ġfranqui cia
z osa
Ġbara tos
Ġencon tremos
tal os
ĠExc mo
Ġreal istas
ĠA ward
tific ada
ll ada
ĠB BC
ment aria
Ġ19 23
Ġimplic ados
Ġmic ros
D L
ĠCatal ina
ĠF aso
Ġrepar aciones
Ġcomplic ada
Ġaverigu arlo
Ġnecesit es
Ġdesa cuerdo
tiÃ©r rez
Ġha ve
de cisiÃ³n
ĠTur ner
Ġamari lla
Ã§o is
in amente
Ġla guna
CE L
Ġano tÃ³
lÃ³g ica
E ducaciÃ³n
end y
ĠAde lante
ĠP ur
Ġdan Ã©s
Ġc oy
Intent Ã©
ĠSec tor
Ġe cha
Ġvan guardia
su mo
Ġreci cl
Ġc Ã©s
Ġal li
ĠE ver
ĠCor r
Ġfich ero
b rando
ĠEx tra
ĠvÃŃ deos
cre es
Ġinad mis
Ġsub ordin
Ġd aban
1 12
Le o
Ġalterna tivos
Ġllev Ã©
ĠDy lan
Ġch amp
Ġtermin aciÃ³n
Ġentender lo
Ġajust arse
Ġcor tÃ³
ĠJac ques
VÃ¡ yanse
Ġvar Ã³n
Ġcamp ana
Ġmostrar te
li er
ĠSe attle
Ġw e
A grade
rid ge
ĠcÃ³nyu ge
ĠP AC
erv os
Ġgana derÃŃa
er tos
Ġpa gue
di ci
Ġinnov adores
Ġpac ÃŃficos
Ġentren ar
Ġsab Ã©is
Ġsigni ficar
Ph il
Ġvalor ar
ĠB R
tis h
Ġer mita
Ġtra jeron
Ġfran ja
g imiento
Ġv ener
Ġ19 12
Ġcontra bando
Ġfron tal
Ġexhor ta
mb H
ĠMo der
Ġsep tentrional
Ġjug aba
ĠPer sonas
Ġorgullos os
ist erio
Ġf reno
Ġbien venido
ust ed
Ġexam ine
Ġpas es
Ġpar Ã¡s
car as
ĠRi vera
ĠBol ÃŃvar
d n
Ġhorri bles
ĠR y
Ġdismin uye
vi das
ĠkilÃ³ metro
Ġdolor oso
Ra chel
Ġprohibi da
Pol ÃŃtica
Ġter cios
ĠCh rys
ni k
ĠMe j
Ġsincer amente
se e
inas te
ll amente
Ġtor o
Ġgan aron
Ġaduan era
Ġinscri bir
Ġo cio
Ġperten ecer
qui llo
ĠEm baj
Ġvari antes
Ġ19 22
Ġevent ual
ĠN ad
10 4
H O
U A
ĠM O
Ġcomba tientes
piÃ© lago
Ġsupon en
Ġregu lado
S uel
ĠIll inois
ĠKan sas
ĠCÃ¡ diz
U so
ĠA las
Ġpres cripciÃ³n
v ora
Ġaspira ciones
tr all
Ġaduan eras
Ġperu ano
M AS
Ġencontrar me
Cu ÃŃdate
ĠLuc ÃŃa
ĠP ir
Ġdiri gente
Ġhubi Ã©ramos
ĠM iles
ĠPo drÃŃa
Ġmi ran
Ġdispar en
Ġne tos
Ġefectu arse
Ġnombr ados
rac Ã¡n
Ġpan dilla
M ich
ĠS qu
Ġcorrespon dan
Ġ11 2
Ġpsico logÃŃa
Ġfi abilidad
Ġpresent ara
ide a
Form aciÃ³n
vÃ© anse
er tas
Ġdi l
ĠSer Ã¡
ĠJurÃŃ dica
Ġp lie
Ġim po
ĠDo wn
Ġsir va
ĠQue en
k is
Hab Ã©is
Fo to
dr ich
Ġsal gas
CH O
Ġcuali ficaciones
Ġsi llas
ĠR ap
ĠR acial
Ġesc aso
Ġest ÃŃmulo
ĠNa poleÃ³n
Ġbo tones
ĠD G
ĠF itz
Ġcali bre
Car l
s ona
Ġpier des
Ġtriun f
Ġcomunic arÃ¡
Ġmatar la
Ġgall ina
C ru
c ton
ĠDe ja
ex iÃ³n
Ġobje ciÃ³n
Ġrespon dido
Ġri ge
al go
ĠgrÃ¡ fica
Ġ12 2
ĠPre mios
ĠMas on
Ġver s
Ġtener te
ĠWat son
Ġtre men
Ġcambi arÃ¡
ĠPue des
Ġpagar Ã©
Ġnoctur na
ĠCar lo
Ġmadru gada
Ġdispu tar
Ġpropi amente
Vi va
ha us
it ada
t ten
vil loso
ĠMor ales
Ġaer ol
Ġti gre
Ġap titudes
Ġmem bran
C asa
pe ti
cis amente
bul os
Ġcomun as
i amos
ten siÃ³n
Ġsin er
Ġdeci dirÃ¡
Ġcontinu aron
Ġmic rÃ³fono
Ġro pas
ĠK re
ecen io
Di lo
ĠValenci ana
w ald
ĠN amibia
Ġfol leto
ĠJohan nes
Ġa cademia
Ġsubregi onales
Ġmu til
Ã¡n gulo
Ġinjust o
Ã³ mi
Ġcomp l
Qui eto
Ġconce didos
is y
Ġcaz ador
Ġcomplement ario
ĠTi po
at ch
W in
Ġus amos
Ġenorm emente
PR ES
cu atro
Pro ce
w ig
en lo
Ġsal vador
ri osa
Ġfur gon
ina to
Ġases inÃ³
Ġconcer n
Ġpar ciales
Ġsu ble
Ġmam ÃŃferos
Ġsu deste
Ġsubra yÃ³
ĠA manda
Ġbo letÃŃn
Ġcola pso
Ġa dic
Ġambi ciÃ³n
Ġinm ensa
Ġquer rÃ¡s
ĠiraquÃŃ es
Ġnorm alizaciÃ³n
Ġpier das
Ġhici eran
Ġfil me
ĠC ala
ver sa
Ġca yeron
ĠWol f
Ġreco pil
Da tos
Ġconquist ar
Ġform aciones
Observ aciones
Ġtem e
rÃŃ e
Ġdepen dientes
ĠDipu tados
Ġhu yÃ³
Ke vin
ĠQa tar
Ap Ã¡r
ĠI C
Ġqui tÃ³
Ã ½
Ġm ÃŃas
Ġfuer e
Ġencer rar
Ġdeso be
Ġhoy o
Å ¾
ĠCather ine
cas te
Ãº e
ĠP uerta
Ġcr ueles
usta vo
ĠdemocrÃ¡ ticos
ĠAlfre do
form ula
vie w
Ġcomodi dad
Ġest elar
ĠMed ina
Au xilio
Ġdiscapaci tados
tor s
ĠRu th
Ġcome tiÃ³
Ġayudar los
Ġar terial
Comunic aciÃ³n
TR OS
Ã¡ndo las
Ġcas e
Ġestar ÃŃamos
Ġsac arte
in ten
ĠIndustri as
x is
ĠelectrÃ³n icas
ĠGuad alajara
ĠM et
Ġcar nic
Ġre a
Ġcos ech
Gener almente
ĠS AN
Cla ire
ĠBal canes
Ġmar cada
Ġa rist
ante mente
Ġciudad ana
Ġfal se
Ġdestru yÃ³
ĠsoÃ± ando
Ġca iga
Ġenumer ados
ĠV ent
ĠDon na
Ġprobar lo
Con tes
Sa ca
Vi vo
Ġdisfra z
Ġend Ã©mica
Ġhar ina
Ġresta urar
ĠoÃŃr me
w ana
Ġreduci endo
im ir
hor ta
Ġdi ficil
Ġceleb rando
Ġdetal ladas
ĠC ual
va ca
Ġarm amentos
port aciones
ĠlÃ¡m para
ĠA ca
Ġpromo tor
Ed die
ĠMur cia
Ġform ales
Ġgan an
Ġproble mÃ¡tica
ĠÏ Ħ
Ġauto de
Ġacre edor
Ġcomprome tidos
Ã©n dez
bral tar
ĠJim Ã©nez
Lin da
Ġcons um
c ala
Ġjurisdic cional
ĠK er
Ġmor ales
ĠA ELC
ĠR T
gu erra
s ervi
Ġimpres ionado
Ġincompati ble
Ġar bust
Ġintent amos
ĠBau tista
Ġjust amente
Ġori entado
ĠDoug las
Ġcons uelo
ĠH Ã©ctor
Ġfich as
ĠK as
ĠIgual dad
an ista
Ġpe dÃŃa
Ġad yac
g ma
jer ci
ha w
di st
Ġtermin o
Sali Ã³
se gÃºn
Ġob rero
M iles
Ġadap tado
h ola
Ġcos teras
Ġoport unas
ĠSecre taria
ĠB ale
gues as
Ġprior itarias
Ġin tri
198 4
Ġdeshacer se
Ġperman entemente
O GA
Ġbi olÃ³gicos
Ġequi vale
Ġest ables
ones a
Ã¤ n
ud y
ĠS AL
las te
Ġenvi Ã©
Ġescuch en
198 3
Ġciviliz aciones
la us
Ġanti con
Acab amos
ÃŃ bles
Ġconst at
Ġlic or
ĠPro vis
uen ca
De partamento
Ġapre cia
M mm
Ġporcenta jes
ĠComis aria
Ġdespi do
ĠJes sica
iro bi
tom ÃŃa
ĠPlan ificaciÃ³n
Ġs orte
Ġpes a
ĠPre mi
Ġes quÃŃ
Ġf este
Ġb izan
Ġrec tan
Ġadmi ra
Ġas om
ĠmÃ¡ gica
ĠAn des
Ġa ci
Ġmuer tas
10 6
ĠH ur
ĠSim Ã³n
Ġalter aciÃ³n
Ġven ciÃ³
ic ar
ĠT ener
Ġfe li
Ġdormi da
Ġdu dar
Ġconstitu yÃ³
ĠA cuerdos
K ate
il as
Ġgran os
ĠCa iro
m ero
Ġincen di
Ġentr Ã©
dera ciones
Ġmon tes
Ġintergu bernamental
ĠTown ship
J A
Ġgener alizada
I TA
it ariamente
f amili
ct ancia
sil vania
cio cho
que tas
ĠFiscal ÃŃa
ĠenseÃ± arÃ©
Imp osible
Ġcel ulares
Ġllam aban
Ġexten diÃ³
ĠP ent
min al
ĠestÃºpi dos
Ġais lada
Ġpar iente
Ġintent aron
Ġrob ando
ĠexplÃŃ citamente
Ġexpro pi
G T
A v
Ġsub cam
Ġlar g
Ġam ables
Ġcortes ÃŃa
Ġcontinu ada
Ġproduc tora
Ġ19 21
Ġhu racÃ¡n
ĠRib era
Ġdiam ante
Ġaj ena
ĠES TA
Ġfij ada
Ġacep tan
Ġac ent
Ġescon di
ĠBri gada
Ã© anse
Ġcontra er
Ġpues tas
Ġhermos os
ĠMol ly
Ġriv ales
ĠCentro amÃ©rica
ĠF ul
ĠcÃ©s ped
B eb
Ġconlle va
ENT OS
ĠSal amanca
Ġrenunci Ã³
Ġsin te
Ġayu do
aci ente
Ġman siÃ³n
Ġle o
Ġdi ligencia
An dy
Ġprogra mado
Ġtransfer ido
Ġgir as
Ġemis ora
Ġhici eras
Ġbenefici arias
Ġ00 1
ud rey
eb la
ĠM ÃŃ
Ġim it
ĠK ay
z zo
19 79
ĠPlata forma
ĠAdministra tivos
ĠA Y
R oy
ĠE ll
don e
. '
Ġtra tas
Ch icas
ĠRo ca
ĠC AS
Ġcora zon
pri l
Ġbiblio tecas
le a
Dis posiciÃ³n
Ġa bren
Ġinforma tiva
ĠBla ke
Ġun d
Ġconstruc tivo
P edro
h oy
ĠS ad
Ġimpa ctos
Ġmer curio
ĠConsul tivo
p lica
n io
ho u
Ġd Ãºo
den ciales
ĠEs pero
ĠO K
Ġgust arÃ¡
P Ã¡gina
Ġdestac ando
Me dio
Ġdedi can
Ġre pas
Ġinoc encia
pa tÃŃa
Ġle ves
Ġsufra gar
ĠK m
Ġasumi do
D uer
Ġsegu ras
ĠCrist Ã³bal
CI SIÃĵN
ren da
Ġgen Ã©ticamente
ar re
Ġfun da
Ġlu ce
en ne
Ġexamin arÃ¡
Ġni ebla
Ġgener ador
Ġmetab ol
ĠM ack
TR AL
ĠComunic aciones
Ġo ce
ĠNo va
D C
Ġr entas
Ġsober ano
gui to
ĠInte ligencia
Ġescon de
ta tivos
Ġman tuvieron
Ġa per
Ġcru zado
Ġab ras
Ġejecu tividad
Ġ( )
Ġpromo viendo
pi ta
ĠPro ductos
b lo
Ġenter amente
du lo
Ġvis ibles
Ġpase ar
In tento
Ġhelic Ã³pteros
ĠSici lia
ĠÂ º
ĠNo bel
Lo c
b log
al lo
Ġlogr ados
fric ano
polit ano
Ġro daje
Ġetique tas
na val
M anos
Ġhos pe
E UR
et an
Ġ11 1
ha ce
ĠautÃ©n ticos
D oc
ĠUR SS
P P
ĠmÃŃ rame
Ġpod ria
Ġmar quÃ©s
ĠCOM ER
Ġsin cera
ID AS
Ġpon emos
ĠOM S
Ġpar ecÃŃan
ĠS ally
Ġproto tipo
hi re
Ġlabor ables
ĠInspec ciÃ³n
ĠfrÃ¡ gil
ĠM ano
Ġrastre ar
Ġc emento
Ġlo cu
er ciÃ³n
Ġproporcion Ã³
Ġofici os
ĠHar old
Ġaprovech ando
ĠA gui
Ġexpres adas
Ġvest ÃŃ
Ġsemifin ales
Ġnave gar
Ġres e
ile a
ĠAn ual
Ġvin culan
Ġt io
ĠMitch ell
ĠV es
Quer ÃŃas
Ġenter Ã©
ran io
Ã©m ico
AN A
Ġque mado
ĠJun io
f uer
ĠG r
Ġcontar le
Ġape tito
tin i
ĠDO C
ĠGre y
Clar k
Ġprior itarios
H ombres
c able
Ġven gar
Ġos curos
Ġconten edor
tro it
tas io
ĠJ amie
Ġcomien ce
ĠObje tivos
ĠVall adolid
Ġproce dencia
Ġest rib
E ric
Ġsorpren diÃ³
Ġrevel ado
Ġsi em
Ġprome ter
Ġ ÃŃdo
Mar co
Ġrel aciona
ĠMich elle
Ġestu dia
Ġpul gadas
Ġa tes
Ġt inta
ĠK y
Ġparti Ã³
Ġsu pri
ine tes
ĠVen ga
Ġhones ta
ĠhÃºme do
ĠEspe ciales
p uso
ĠR ÃŃos
Ġutilizar on
Ġint ui
Ġapreci aciÃ³n
LlÃ© ven
Ġ11 8
c ruz
ĠA par
il er
Ġcomb ina
ĠF ores
198 2
Ġcre cen
Ġfin o
cos o
Ġno w
Ġver duras
Ġpura mente
Ġllevar emos
Ġnorm alidad
Ġmar ic
Ġcab ra
Ġins ur
Ġcapital ismo
ĠReco pilaciÃ³n
S D
tiz ados
Ġhemorra gia
Ġais lado
p lante
Ġavis ar
Est im
Ġconsecu tivos
Ġmue ven
Ġinnov aciones
sÃ© Ã±
ĠGu tiÃ©rrez
Ġgan adora
Ġrespe ta
Ġnave gador
ĠBil bao
i ka
Ġdesesper ado
s un
ur ice
ĠDe portes
Ġl Ãº
Ġdisfru ta
pl om
Ġdi Ã³xido
Ġves tuario
ĠromÃ¡n tica
ĠBo ur
ch adas
Ġsent arte
ĠWal t
land s
ĠMal ÃŃ
Ġtum bas
UC CIÃĵN
shi re
Ġpose ÃŃa
ĠPro duc
Ġcohe te
Ġcoar tada
Ġro llo
ĠRev olucion
ĠilÃŃ citos
Ġper cep
. ;
Ġan aliza
Ġadqui ere
b alo
Ġal zado
Ġw a
ĠD ecenio
Ġsab remos
ĠKir k
Ġcontar Ã©
ĠG ene
l n
Ġrepresent ando
tu ar
mp i
gra cias
ĠintÃ©rpre te
ĠR EL
Esper emos
p ta
Ġdesplaz adas
Ġline al
Ma tar
ĠR em
ĠFi ladelfia
Ġembar caciones
ĠLi bert
Ġreco gen
Ġdecir se
Ġsalvaguar dias
Ġascen der
Ġcit adas
Ġpa vi
Ġma fia
ĠNorm an
G reg
h ad
Ġde ducir
ĠLa gos
Ġpoten cias
Ġdene gaciÃ³n
x el
Ġe u
Uni versidad
an y
nist ÃŃa
ĠCarta gena
cien den
f Ã³n
Ġindemn izaciones
ĠP olo
Ġalcan zan
Ġdescri tos
ĠAnti guo
ĠN ASA
Ġzapa to
Ġrevel aciÃ³n
ĠMar tha
Ġacab arÃ¡
Ġrecord ado
Ġob tuvieron
ĠL ittle
ĠPU OSC
Ġcom eta
Ġsu bida
Ġ19 13
ti tas
ĠMo ore
ĠInno vaciÃ³n
D AD
Ġde mar
Ġcompren didas
g Ã©
Ġcoord inada
tom e
Ġpro fec
ĠIsa ac
ĠE co
De biÃ³
Su pon
ĠY e
Ġcumpli Ã³
Ġampli tud
ĠEnter prise
ĠCor poraciÃ³n
Ġcer rad
Ġ2 30
Ac Ã©r
ĠllÃ¡m ame
Ġcenta vo
Ġla menta
DÃŃ melo
ĠperiÃ³di ca
g ala
ĠComunic arlo
Ġadminist radores
Ġ12 8
Ġenvas e
Ġh adas
Ġvent ilaciÃ³n
ĠP T
A Y
ce o
Ġcar teles
it t
Ġconstr uidos
Ġatro pe
S ala
Ġequi pado
Ġequili brado
Ġd orado
Ġf Ã©
Ġcontractu ales
ĠCent re
Ġsubsi dio
Ġgesti ones
Ġorient adas
Ġenten demos
so via
ĠCh loe
Ġincon di
Ġretras os
ĠAn to
Qu in
Ġintent arÃ©
ĠEx tre
si ana
Si ga
ĠMo isÃ©s
Ġintensi fic
Ġpon te
h os
Ġllen as
ĠtÃ¡c tica
H un
Ġsuger ir
Ġcontrol ados
ĠCoordin ador
Ġu d
Ġsuper e
Ġconmem ora
Ġurbaniz able
m all
ĠG mbH
Ġan gust
Ġgus ano
Ġobserv ancia
Ġinstal Ã³
ch Ã©
Ar gentina
ĠSer ies
Ġreco gidos
ĠAu gusto
Ġsacri ficios
Ġarran que
Ġarru inado
B Ã©lgica
Ġvis iones
12 5
Ġbru jas
Ġgaranti cen
Ġirregul aridades
Ġtatu aje
Hici mos
isfer io
Ġacer cÃ³
ÃŃ ticos
G ab
Ġfuncion ales
ĠÃ Ĺ
48200 0100
ĠDi ana
B Ã¡
Ġni trÃ³geno
ĠS po
Falle ciÃ³
m ales
Ġast ill
Ġbombar deo
ĠO tras
L uis
Ġsimpli ficaciÃ³n
Ġpil as
Ġprofun dos
Ġalter aciones
ch in
Ha gÃ¡moslo
Ġrode an
AN OS
ti lidad
Ġadu anas
Â» ).
Ġllegar ÃŃa
Ġar men
ĠConstan tino
Ġpermi tieron
Ġp Ã©
Ġdes liz
ĠtÃºn eles
ĠhuÃ©spe d
S y
Si tuaciÃ³n
Ġexplic ado
tin e
Hac emos
Ã¡ce os
SeÃ± ores
tu aciones
Ġfacili tado
Ġmatar Ã¡n
ĠMur phy
J untos
Ãĳ O
TIV O
Ġco bra
Ġjust i
Ġapren diendo
Ġgilipol las
Ġextraordin arios
k ÃŃn
ĠD ime
ĠA mi
CH A
En vÃŃ
Ġconoci ste
Ġconte x
Ġajust a
van ni
Ġimposi bilidad
Ġidentific ados
Ġcercan ÃŃas
IN O
Ġfirm aron
Ġb er
Ġpor cent
aci da
ĠS aba
ĠRam ÃŃrez
De le
ÃŃs imos
r ara
Ġafec te
Ġ Quieres
Ġincluir Ã¡n
Con forme
ĠcrÃ© eme
estiv ales
Ġimagin Ã©
Ġu va
Ġalim enta
li ve
Ġj es
ĠestÃ© tica
10 2
Ġtramp as
Ġpros pecto
Ġbi olÃ³gicas
ĠFe liz
Ġdisfru tando
co pio
Ġposterior idad
ĠFinanci ero
ĠS ent
Ġdisco grÃ¡fica
L ÃŃ
Ġocurri rÃ¡
ĠoÃŃr lo
Ġat leta
ĠÃĵr gano
B LE
Ġcontras eÃ±a
Ġcompeti ciones
Ġagu da
A my
gar d
ĠA frica
Ġrode ada
Ġtra taron
Ġest abiliz
ĠKazaj stÃ¡n
Ġad judi
ĠPen ny
Ġpel os
Ġutilizar Ã¡
Ġobten idas
Ġin n
Ġhubi esen
ĠDERE CHOS
P RE
Ġale ga
Ġes bo
Ġinver tido
f Ã³nica
Ġtransmi tido
Ġbon itas
Ġestren ada
Ġnorte americanos
Ġo pone
Ġrequer imiento
ĠMin n
Ġmas ivo
Ġejerci Ã³
Ġc una
re in
ES PAÃĳ
Ġan arqui
[...]
