{
  "version": "1.0",
  "truncation": {
    "direction": "Right",
    "max_length": 128,
    "strategy": "LongestFirst",
    "stride": 0
  },
  "padding": {
    "strategy": {
      "Fixed": 128
    },
    "direction": "Right",
    "pad_to_multiple_of": null,
    "pad_id": 50265,
    "pad_type_id": 0,
    "pad_token": "<|endoftext|>"
  },
  "added_tokens": [
    {
      "id": 0,
      "content": "<s>",
      "single_word": false,
      "lstrip": false,
      "rstrip": false,
      "normalized": false,
      "special": true
    },
    {
      "id": 1,
      "content": "<pad>",
      "single_word": false,
      "lstrip": false,
      "rstrip": false,
      "normalized": false,
      "special": true
    },
    {
      "id": 2,
      "content": "</s>",
      "single_word": false,
      "lstrip": false,
      "rstrip": false,
      "normalized": false,
      "special": true
    },
    {
      "id": 3,
      "content": "<unk>",
      "single_word": false,
      "lstrip": false,
      "rstrip": false,
      "normalized": false,
      "special": true
    },
    {
      "id": 4,
      "content": "<mask>",
      "single_word": false,
      "lstrip": false,
      "rstrip": false,
      "normalized": false,
      "special": true
    },
    {
      "id": 50265,
      "content": "<|endoftext|>",
      "single_word": false,
      "lstrip": false,
      "rstrip": false,
      "normalized": false,
      "special": true
    },
    {
      "id": 50266,
      "content": "[ABOGADA]",
      "single_word": false,
      "lstrip": false,
      "rstrip": false,
      "normalized": false,
      "special": true
    },
    {
      "id": 50267,
      "content": "[ABUELA]",
      "single_word": false,
      "lstrip": false,
      "rstrip": false,
      "normalized": false,
      "special": true
    },
    {
      "id": 50268,
      "content": "[ABUELO]",
      "single_word": false,
      "lstrip": false,
      "rstrip": false,
      "normalized": false,
      "special": true
    },
    {
      "id": 50269,
      "content": "[ADOLESCENTE 1]",
      "single_word": false,
      "lstrip": false,
      "rstrip": false,
      "normalized": false,
      "special": true
    },
    {
      "id": 50270,
      "content": "[ADOLESCENTE 2]",
      "single_word": false,
      "lstrip": false,
      "rstrip": false,
      "normalized": false,
      "special": true
    },
    {
      "id": 50271,
      "content": "[ADOLFO]",
      "single_word": false,
      "lstrip": false,
      "rstrip": false,
      "normalized": false,
      "special": true
    },
    {
      "id": 50272,
      "content": "[ALUMNO 1]",
      "single_word": false,
      "lstrip": false,
      "rstrip": false,
      "normalized": false,
      "special": true
    },
    {
      "id": 50273,
      "content": "[ALUMNO 2]",
      "single_word": false,
      "lstrip": false,
      "rstrip": false,
      "normalized": false,
      "special": true
    },
    {
      "id": 50274,
      "content": "[ALUMNO]",
      "single_word": false,
      "lstrip": false,
      "rstrip": false,
      "normalized": false,
      "special": true
    },
    {
      "id": 50275,
      "content": "[AMANTE 1]",
      "single_word": false,
      "lstrip": false,
      "rstrip": false,
      "normalized": false,
      "special": true
    },
    {
      "id": 50276,
      "content": "[AMANTE 2]",
      "single_word": false,
      "lstrip": false,
      "rstrip": false,
      "normalized": false,
      "special": true
    },
    {
      "id": 50277,
      "content": "[AMIGA 1]",
      "single_word": false,
      "lstrip": false,
      "rstrip": false,
      "normalized": false,
      "special": true
    },
    {
      "id": 50278,
      "content": "[AMIGA 2]",
      "single_word": false,
      "lstrip": false,
      "rstrip": false,
      "normalized": false,
      "special": true
    },
    {
      "id": 50279,
      "content": "[AMIGO 1]",
      "single_word": false,
      "lstrip": false,
      "rstrip": false,
      "normalized": false,
      "special": true
    },
    {
      "id": 50280,
      "content": "[AMIGO 2]",
      "single_word": false,
      "lstrip": false,
      "rstrip": false,
      "normalized": false,
      "special": true
    },
    {
      "id": 50281,
      "content": "[ANA]",
      "single_word": false,
      "lstrip": false,
      "rstrip": false,
      "normalized": false,
      "special": true
    },
    {
      "id": 50282,
      "content": "[ANDREA]",
      "single_word": false,
      "lstrip": false,
      "rstrip": false,
      "normalized": false,
      "special": true
    },
    {
      "id": 50283,
      "content": "[ANDRÉS]",
      "single_word": false,
      "lstrip": false,
      "rstrip": false,
      "normalized": false,
      "special": true
    },
    {
      "id": 50284,
      "content": "[APRENDIZ]",
      "single_word": false,
      "lstrip": false,
      "rstrip": false,
      "normalized": false,
      "special": true
    },
    {
      "id": 50285,
      "content": "[ARQUEÓLOGO 1]",
      "single_word": false,
      "lstrip": false,
      "rstrip": false,
      "normalized": false,
      "special": true
    },
    {
      "id": 50286,
      "content": "[ARQUEÓLOGO 2]",
      "single_word": false,
      "lstrip": false,
      "rstrip": false,
      "normalized": false,
      "special": true
    },
    {
      "id": 50287,
      "content": "[ARQUITECTO 1]",
      "single_word": false,
      "lstrip": false,
      "rstrip": false,
      "normalized": false,
      "special": true
    },
    {
      "id": 50288,
      "content": "[ARQUITECTO 2]",
      "single_word": false,
      "lstrip": false,
      "rstrip": false,
      "normalized": false,
      "special": true
    },
    {
      "id": 50289,
      "content": "[ARTISTA 1]",
      "single_word": false,
      "lstrip": false,
      "rstrip": false,
      "normalized": false,
      "special": true
    },
    {
      "id": 50290,
      "content": "[ARTISTA 2]",
      "single_word": false,
      "lstrip": false,
      "rstrip": false,
      "normalized": false,
      "special": true
    },
    {
      "id": 50291,
      "content": "[ASTRONAUTA 1]",
      "single_word": false,
      "lstrip": false,
      "rstrip": false,
      "normalized": false,
      "special": true
    },
    {
      "id": 50292,
      "content": "[ASTRONAUTA 2]",
      "single_word": false,
      "lstrip": false,
      "rstrip": false,
      "normalized": false,
      "special": true
    },
    {
      "id": 50293,
      "content": "[ATLETA 1]",
      "single_word": false,
      "lstrip": false,
      "rstrip": false,
      "normalized": false,
      "special": true
    },
    {
      "id": 50294,
      "content": "[ATLETA 2]",
      "single_word": false,
      "lstrip": false,
      "rstrip": false,
      "normalized": false,
      "special": true
    },
    {
      "id": 50295,
      "content": "[AVENTURERO 1]",
      "single_word": false,
      "lstrip": false,
      "rstrip": false,
      "normalized": false,
      "special": true
    },
    {
      "id": 50296,
      "content": "[AVENTURERO 2]",
      "single_word": false,
      "lstrip": false,
      "rstrip": false,
      "normalized": false,
      "special": true
    },
    {
      "id": 50297,
      "content": "[BARBERO]",
      "single_word": false,
      "lstrip": false,
      "rstrip": false,
      "normalized": false,
      "special": true
    },
    {
      "id": 50298,
      "content": "[BRYAN]",
      "single_word": false,
      "lstrip": false,
      "rstrip": false,
      "normalized": false,
      "special": true
    },
    {
      "id": 50299,
      "content": "[CAMARÓGRAFO]",
      "single_word": false,
      "lstrip": false,
      "rstrip": false,
      "normalized": false,
      "special": true
    },
    {
      "id": 50300,
      "content": "[CAMPISTA 1]",
      "single_word": false,
      "lstrip": false,
      "rstrip": false,
      "normalized": false,
      "special": true
    },
    {
      "id": 50301,
      "content": "[CAMPISTA 2]",
      "single_word": false,
      "lstrip": false,
      "rstrip": false,
      "normalized": false,
      "special": true
    },
    {
      "id": 50302,
      "content": "[CAPITÁN]",
      "single_word": false,
      "lstrip": false,
      "rstrip": false,
      "normalized": false,
      "special": true
    },
    {
      "id": 50303,
      "content": "[CARLOS]",
      "single_word": false,
      "lstrip": false,
      "rstrip": false,
      "normalized": false,
      "special": true
    },
    {
      "id": 50304,
      "content": "[CARMEN]",
      "single_word": false,
      "lstrip": false,
      "rstrip": false,
      "normalized": false,
      "special": true
    },
    {
      "id": 50305,
      "content": "[CAROLINA]",
      "single_word": false,
      "lstrip": false,
      "rstrip": false,
      "normalized": false,
      "special": true
    },
    {
      "id": 50306,
      "content": "[CHEF 1]",
      "single_word": false,
      "lstrip": false,
      "rstrip": false,
      "normalized": false,
      "special": true
    },
    {
      "id": 50307,
      "content": "[CHEF 2]",
      "single_word": false,
      "lstrip": false,
      "rstrip": false,
      "normalized": false,
      "special": true
    },
    {
      "id": 50308,
      "content": "[CIENTÍFICO 1]",
      "single_word": false,
      "lstrip": false,
      "rstrip": false,
      "normalized": false,
      "special": true
    },
    {
      "id": 50309,
      "content": "[CIENTÍFICO 2]",
      "single_word": false,
      "lstrip": false,
      "rstrip": false,
      "normalized": false,
      "special": true
    },
    {
      "id": 50310,
      "content": "[CLIENTE]",
      "single_word": false,
      "lstrip": false,
      "rstrip": false,
      "normalized": false,
      "special": true
    },
    {
      "id": 50311,
      "content": "[COCINERO 1]",
      "single_word": false,
      "lstrip": false,
      "rstrip": false,
      "normalized": false,
      "special": true
    },
    {
      "id": 50312,
      "content": "[COCINERO 2]",
      "single_word": false,
      "lstrip": false,
      "rstrip": false,
      "normalized": false,
      "special": true
    },
    {
      "id": 50313,
      "content": "[COLECCIONISTA 1]",
      "single_word": false,
      "lstrip": false,
      "rstrip": false,
      "normalized": false,
      "special": true
    },
    {
      "id": 50314,
      "content": "[COLECCIONISTA 2]",
      "single_word": false,
      "lstrip": false,
      "rstrip": false,
      "normalized": false,
      "special": true
    },
    {
      "id": 50315,
      "content": "[COMPAÑERO 1]",
      "single_word": false,
      "lstrip": false,
      "rstrip": false,
      "normalized": false,
      "special": true
    },
    {
      "id": 50316,
      "content": "[COMPAÑERO 2]",
      "single_word": false,
      "lstrip": false,
      "rstrip": false,
      "normalized": false,
      "special": true
    },
    {
      "id": 50317,
      "content": "[CONDUCTOR 1]",
      "single_word": false,
      "lstrip": false,
      "rstrip": false,
      "normalized": false,
      "special": true
    },
    {
      "id": 50318,
      "content": "[CONDUCTOR 2]",
      "single_word": false,
      "lstrip": false,
      "rstrip": false,
      "normalized": false,
      "special": true
    },
    {
      "id": 50319,
      "content": "[CONDUCTOR]",
      "single_word": false,
      "lstrip": false,
      "rstrip": false,
      "normalized": false,
      "special": true
    },
    {
      "id": 50320,
      "content": "[COPILOTO]",
      "single_word": false,
      "lstrip": false,
      "rstrip": false,
      "normalized": false,
      "special": true
    },
    {
      "id": 50321,
      "content": "[DENTISTA]",
      "single_word": false,
      "lstrip": false,
      "rstrip": false,
      "normalized": false,
      "special": true
    },
    {
      "id": 50322,
      "content": "[DEPORTISTA 1]",
      "single_word": false,
      "lstrip": false,
      "rstrip": false,
      "normalized": false,
      "special": true
    },
    {
      "id": 50323,
      "content": "[DEPORTISTA 2]",
      "single_word": false,
      "lstrip": false,
      "rstrip": false,
      "normalized": false,
      "special": true
    },
    {
      "id": 50324,
      "content": "[DESCONOCIDO 1]",
      "single_word": false,
      "lstrip": false,
      "rstrip": false,
      "normalized": false,
      "special": true
    },
    {
      "id": 50325,
      "content": "[DESCONOCIDO 2]",
      "single_word": false,
      "lstrip": false,
      "rstrip": false,
      "normalized": false,
      "special": true
    },
    {
      "id": 50326,
      "content": "[DETECTIVE 1]",
      "single_word": false,
      "lstrip": false,
      "rstrip": false,
      "normalized": false,
      "special": true
    },
    {
      "id": 50327,
      "content": "[DETECTIVE 2]",
      "single_word": false,
      "lstrip": false,
      "rstrip": false,
      "normalized": false,
      "special": true
    },
    {
      "id": 50328,
      "content": "[DIRECTOR]",
      "single_word": false,
      "lstrip": false,
      "rstrip": false,
      "normalized": false,
      "special": true
    },
    {
      "id": 50329,
      "content": "[DUEÑO]",
      "single_word": false,
      "lstrip": false,
      "rstrip": false,
      "normalized": false,
      "special": true
    },
    {
      "id": 50330,
      "content": "[EL SOBRINO BRYAN]",
      "single_word": false,
      "lstrip": false,
      "rstrip": false,
      "normalized": false,
      "special": true
    },
    {
      "id": 50331,
      "content": "[EL TÍO PEDRO]",
      "single_word": false,
      "lstrip": false,
      "rstrip": false,
      "normalized": false,
      "special": true
    },
    {
      "id": 50332,
      "content": "[ENFERMERA]",
      "single_word": false,
      "lstrip": false,
      "rstrip": false,
      "normalized": false,
      "special": true
    },
    {
      "id": 50333,
      "content": "[ESCALADOR 1]",
      "single_word": false,
      "lstrip": false,
      "rstrip": false,
      "normalized": false,
      "special": true
    },
    {
      "id": 50334,
      "content": "[ESCALADOR 2]",
      "single_word": false,
      "lstrip": false,
      "rstrip": false,
      "normalized": false,
      "special": true
    },
    {
      "id": 50335,
      "content": "[ESCRITOR 1]",
      "single_word": false,
      "lstrip": false,
      "rstrip": false,
      "normalized": false,
      "special": true
    },
    {
      "id": 50336,
      "content": "[ESCRITOR 2]",
      "single_word": false,
      "lstrip": false,
      "rstrip": false,
      "normalized": false,
      "special": true
    },
    {
      "id": 50337,
      "content": "[ESPOSA]",
      "single_word": false,
      "lstrip": false,
      "rstrip": false,
      "normalized": false,
      "special": true
    },
    {
      "id": 50338,
      "content": "[ESPOSO]",
      "single_word": false,
      "lstrip": false,
      "rstrip": false,
      "normalized": false,
      "special": true
    },
    {
      "id": 50339,
      "content": "[ESTILISTA]",
      "single_word": false,
      "lstrip": false,
      "rstrip": false,
      "normalized": false,
      "special": true
    },
    {
      "id": 50340,
      "content": "[ESTUDIANTE 1]",
      "single_word": false,
      "lstrip": false,
      "rstrip": false,
      "normalized": false,
      "special": true
    },
    {
      "id": 50341,
      "content": "[ESTUDIANTE 2]",
      "single_word": false,
      "lstrip": false,
      "rstrip": false,
      "normalized": false,
      "special": true
    },
    {
      "id": 50342,
      "content": "[EXCURSIONISTA 1]",
      "single_word": false,
      "lstrip": false,
      "rstrip": false,
      "normalized": false,
      "special": true
    },
    {
      "id": 50343,
      "content": "[EXCURSIONISTA 2]",
      "single_word": false,
      "lstrip": false,
      "rstrip": false,
      "normalized": false,
      "special": true
    },
    {
      "id": 50344,
      "content": "[FARERO 1]",
      "single_word": false,
      "lstrip": false,
      "rstrip": false,
      "normalized": false,
      "special": true
    },
    {
      "id": 50345,
      "content": "[FARERO 2]",
      "single_word": false,
      "lstrip": false,
      "rstrip": false,
      "normalized": false,
      "special": true
    },
    {
      "id": 50346,
      "content": "[FERIANTE 1]",
      "single_word": false,
      "lstrip": false,
      "rstrip": false,
      "normalized": false,
      "special": true
    },
    {
      "id": 50347,
      "content": "[FERIANTE 2]",
      "single_word": false,
      "lstrip": false,
      "rstrip": false,
      "normalized": false,
      "special": true
    },
    {
      "id": 50348,
      "content": "[GALA]",
      "single_word": false,
      "lstrip": false,
      "rstrip": false,
      "normalized": false,
      "special": true
    },
    {
      "id": 50349,
      "content": "[GAMER 1]",
      "single_word": false,
      "lstrip": false,
      "rstrip": false,
      "normalized": false,
      "special": true
    },
    {
      "id": 50350,
      "content": "[GAMER 2]",
      "single_word": false,
      "lstrip": false,
      "rstrip": false,
      "normalized": false,
      "special": true
    },
    {
      "id": 50351,
      "content": "[GATO]",
      "single_word": false,
      "lstrip": false,
      "rstrip": false,
      "normalized": false,
      "special": true
    },
    {
      "id": 50352,
      "content": "[HERMANA 1]",
      "single_word": false,
      "lstrip": false,
      "rstrip": false,
      "normalized": false,
      "special": true
    },
    {
      "id": 50353,
      "content": "[HERMANO 1]",
      "single_word": false,
      "lstrip": false,
      "rstrip": false,
      "normalized": false,
      "special": true
    },
    {
      "id": 50354,
      "content": "[HERMANO MAYOR]",
      "single_word": false,
      "lstrip": false,
      "rstrip": false,
      "normalized": false,
      "special": true
    },
    {
      "id": 50355,
      "content": "[HERMANO MENOR]",
      "single_word": false,
      "lstrip": false,
      "rstrip": false,
      "normalized": false,
      "special": true
    },
    {
      "id": 50356,
      "content": "[HIJA]",
      "single_word": false,
      "lstrip": false,
      "rstrip": false,
      "normalized": false,
      "special": true
    },
    {
      "id": 50357,
      "content": "[HIJO]",
      "single_word": false,
      "lstrip": false,
      "rstrip": false,
      "normalized": false,
      "special": true
    },
    {
      "id": 50358,
      "content": "[HISTORIADOR 1]",
      "single_word": false,
      "lstrip": false,
      "rstrip": false,
      "normalized": false,
      "special": true
    },
    {
      "id": 50359,
      "content": "[HISTORIADOR 2]",
      "single_word": false,
      "lstrip": false,
      "rstrip": false,
      "normalized": false,
      "special": true
    },
    {
      "id": 50360,
      "content": "[HOMBRE]",
      "single_word": false,
      "lstrip": false,
      "rstrip": false,
      "normalized": false,
      "special": true
    },
    {
      "id": 50361,
      "content": "[HUMANO]",
      "single_word": false,
      "lstrip": false,
      "rstrip": false,
      "normalized": false,
      "special": true
    },
    {
      "id": 50362,
      "content": "[INGENIERO 1]",
      "single_word": false,
      "lstrip": false,
      "rstrip": false,
      "normalized": false,
      "special": true
    },
    {
      "id": 50363,
      "content": "[INGENIERO 2]",
      "single_word": false,
      "lstrip": false,
      "rstrip": false,
      "normalized": false,
      "special": true
    },
    {
      "id": 50364,
      "content": "[INMA]",
      "single_word": false,
      "lstrip": false,
      "rstrip": false,
      "normalized": false,
      "special": true
    },
    {
      "id": 50365,
      "content": "[INVESTIGADOR 1]",
      "single_word": false,
      "lstrip": false,
      "rstrip": false,
      "normalized": false,
      "special": true
    },
    {
      "id": 50366,
      "content": "[INVESTIGADOR 2]",
      "single_word": false,
      "lstrip": false,
      "rstrip": false,
      "normalized": false,
      "special": true
    },
    {
      "id": 50367,
      "content": "[IRIS]",
      "single_word": false,
      "lstrip": false,
      "rstrip": false,
      "normalized": false,
      "special": true
    },
    {
      "id": 50368,
      "content": "[ISABEL]",
      "single_word": false,
      "lstrip": false,
      "rstrip": false,
      "normalized": false,
      "special": true
    },
    {
      "id": 50369,
      "content": "[JAIMITO]",
      "single_word": false,
      "lstrip": false,
      "rstrip": false,
      "normalized": false,
      "special": true
    },
    {
      "id": 50370,
      "content": "[JESÚS]",
      "single_word": false,
      "lstrip": false,
      "rstrip": false,
      "normalized": false,
      "special": true
    },
    {
      "id": 50371,
      "content": "[JORGE]",
      "single_word": false,
      "lstrip": false,
      "rstrip": false,
      "normalized": false,
      "special": true
    },
    {
      "id": 50372,
      "content": "[JOVEN 1]",
      "single_word": false,
      "lstrip": false,
      "rstrip": false,
      "normalized": false,
      "special": true
    },
    {
      "id": 50373,
      "content": "[JOVEN 2]",
      "single_word": false,
      "lstrip": false,
      "rstrip": false,
      "normalized": false,
      "special": true
    },
    {
      "id": 50374,
      "content": "[JUANCITO]",
      "single_word": false,
      "lstrip": false,
      "rstrip": false,
      "normalized": false,
      "special": true
    },
    {
      "id": 50375,
      "content": "[JUAN]",
      "single_word": false,
      "lstrip": false,
      "rstrip": false,
      "normalized": false,
      "special": true
    },
    {
      "id": 50376,
      "content": "[JUGADOR]",
      "single_word": false,
      "lstrip": false,
      "rstrip": false,
      "normalized": false,
      "special": true
    },
    {
      "id": 50377,
      "content": "[JULIO]",
      "single_word": false,
      "lstrip": false,
      "rstrip": false,
      "normalized": false,
      "special": true
    },
    {
      "id": 50378,
      "content": "[JURADO 1]",
      "single_word": false,
      "lstrip": false,
      "rstrip": false,
      "normalized": false,
      "special": true
    },
    {
      "id": 50379,
      "content": "[JURADO 2]",
      "single_word": false,
      "lstrip": false,
      "rstrip": false,
      "normalized": false,
      "special": true
    },
    {
      "id": 50380,
      "content": "[LARA]",
      "single_word": false,
      "lstrip": false,
      "rstrip": false,
      "normalized": false,
      "special": true
    },
    {
      "id": 50381,
      "content": "[LAURA]",
      "single_word": false,
      "lstrip": false,
      "rstrip": false,
      "normalized": false,
      "special": true
    },
    {
      "id": 50382,
      "content": "[LIBRERO]",
      "single_word": false,
      "lstrip": false,
      "rstrip": false,
      "normalized": false,
      "special": true
    },
    {
      "id": 50383,
      "content": "[LOCUTOR 1]",
      "single_word": false,
      "lstrip": false,
      "rstrip": false,
      "normalized": false,
      "special": true
    },
    {
      "id": 50384,
      "content": "[LOCUTOR 2]",
      "single_word": false,
      "lstrip": false,
      "rstrip": false,
      "normalized": false,
      "special": true
    },
    {
      "id": 50385,
      "content": "[LOCUTOR]",
      "single_word": false,
      "lstrip": false,
      "rstrip": false,
      "normalized": false,
      "special": true
    },
    {
      "id": 50386,
      "content": "[LORO]",
      "single_word": false,
      "lstrip": false,
      "rstrip": false,
      "normalized": false,
      "special": true
    },
    {
      "id": 50387,
      "content": "[LUCÍA]",
      "single_word": false,
      "lstrip": false,
      "rstrip": false,
      "normalized": false,
      "special": true
    },
    {
      "id": 50388,
      "content": "[LUIS]",
      "single_word": false,
      "lstrip": false,
      "rstrip": false,
      "normalized": false,
      "special": true
    },
    {
      "id": 50389,
      "content": "[MADRE]",
      "single_word": false,
      "lstrip": false,
      "rstrip": false,
      "normalized": false,
      "special": true
    },
    {
      "id": 50390,
      "content": "[MAESTRA]",
      "single_word": false,
      "lstrip": false,
      "rstrip": false,
      "normalized": false,
      "special": true
    },
    {
      "id": 50391,
      "content": "[MAESTRO]",
      "single_word": false,
      "lstrip": false,
      "rstrip": false,
      "normalized": false,
      "special": true
    },
    {
      "id": 50392,
      "content": "[MAMÁ]",
      "single_word": false,
      "lstrip": false,
      "rstrip": false,
      "normalized": false,
      "special": true
    },
    {
      "id": 50393,
      "content": "[MANUEL]",
      "single_word": false,
      "lstrip": false,
      "rstrip": false,
      "normalized": false,
      "special": true
    },
    {
      "id": 50394,
      "content": "[MARCOS]",
      "single_word": false,
      "lstrip": false,
      "rstrip": false,
      "normalized": false,
      "special": true
    },
    {
      "id": 50395,
      "content": "[MARCO]",
      "single_word": false,
      "lstrip": false,
      "rstrip": false,
      "normalized": false,
      "special": true
    },
    {
      "id": 50396,
      "content": "[MARIO]",
      "single_word": false,
      "lstrip": false,
      "rstrip": false,
      "normalized": false,
      "special": true
    },
    {
      "id": 50397,
      "content": "[MARI]",
      "single_word": false,
      "lstrip": false,
      "rstrip": false,
      "normalized": false,
      "special": true
    },
    {
      "id": 50398,
      "content": "[MARTA]",
      "single_word": false,
      "lstrip": false,
      "rstrip": false,
      "normalized": false,
      "special": true
    },
    {
      "id": 50399,
      "content": "[MARÍA]",
      "single_word": false,
      "lstrip": false,
      "rstrip": false,
      "normalized": false,
      "special": true
    },
    {
      "id": 50400,
      "content": "[MERCEDES]",
      "single_word": false,
      "lstrip": false,
      "rstrip": false,
      "normalized": false,
      "special": true
    },
    {
      "id": 50401,
      "content": "[MIGUELITO]",
      "single_word": false,
      "lstrip": false,
      "rstrip": false,
      "normalized": false,
      "special": true
    },
    {
      "id": 50402,
      "content": "[MIGUEL]",
      "single_word": false,
      "lstrip": false,
      "rstrip": false,
      "normalized": false,
      "special": true
    },
    {
      "id": 50403,
      "content": "[MUJER]",
      "single_word": false,
      "lstrip": false,
      "rstrip": false,
      "normalized": false,
      "special": true
    },
    {
      "id": 50404,
      "content": "[MÚSICO 1]",
      "single_word": false,
      "lstrip": false,
      "rstrip": false,
      "normalized": false,
      "special": true
    },
    {
      "id": 50405,
      "content": "[MÚSICO 2]",
      "single_word": false,
      "lstrip": false,
      "rstrip": false,
      "normalized": false,
      "special": true
    },
    {
      "id": 50406,
      "content": "[MÚSICO]",
      "single_word": false,
      "lstrip": false,
      "rstrip": false,
      "normalized": false,
      "special": true
    },
    {
      "id": 50407,
      "content": "[NARRADOR]",
      "single_word": false,
      "lstrip": false,
      "rstrip": false,
      "normalized": false,
      "special": true
    },
    {
      "id": 50408,
      "content": "[NIETA]",
      "single_word": false,
      "lstrip": false,
      "rstrip": false,
      "normalized": false,
      "special": true
    },
    {
      "id": 50409,
      "content": "[NIETO]",
      "single_word": false,
      "lstrip": false,
      "rstrip": false,
      "normalized": false,
      "special": true
    },
    {
      "id": 50410,
      "content": "[NIEVES]",
      "single_word": false,
      "lstrip": false,
      "rstrip": false,
      "normalized": false,
      "special": true
    },
    {
      "id": 50411,
      "content": "[NIÑA 1]",
      "single_word": false,
      "lstrip": false,
      "rstrip": false,
      "normalized": false,
      "special": true
    },
    {
      "id": 50412,
      "content": "[NIÑA 2]",
      "single_word": false,
      "lstrip": false,
      "rstrip": false,
      "normalized": false,
      "special": true
    },
    {
      "id": 50413,
      "content": "[NIÑA]",
      "single_word": false,
      "lstrip": false,
      "rstrip": false,
      "normalized": false,
      "special": true
    },
    {
      "id": 50414,
      "content": "[NIÑO 1]",
      "single_word": false,
      "lstrip": false,
      "rstrip": false,
      "normalized": false,
      "special": true
    },
    {
      "id": 50415,
      "content": "[NIÑO 2]",
      "single_word": false,
      "lstrip": false,
      "rstrip": false,
      "normalized": false,
      "special": true
    },
    {
      "id": 50416,
      "content": "[NIÑO]",
      "single_word": false,
      "lstrip": false,
      "rstrip": false,
      "normalized": false,
      "special": true
    },
    {
      "id": 50417,
      "content": "[NUEVO FARERO 1]",
      "single_word": false,
      "lstrip": false,
      "rstrip": false,
      "normalized": false,
      "special": true
    },
    {
      "id": 50418,
      "content": "[NUEVO FARERO 2]",
      "single_word": false,
      "lstrip": false,
      "rstrip": false,
      "normalized": false,
      "special": true
    },
    {
      "id": 50419,
      "content": "[PACIENTE]",
      "single_word": false,
      "lstrip": false,
      "rstrip": false,
      "normalized": false,
      "special": true
    },
    {
      "id": 50420,
      "content": "[PACO]",
      "single_word": false,
      "lstrip": false,
      "rstrip": false,
      "normalized": false,
      "special": true
    },
    {
      "id": 50421,
      "content": "[PADRE]",
      "single_word": false,
      "lstrip": false,
      "rstrip": false,
      "normalized": false,
      "special": true
    },
    {
      "id": 50422,
      "content": "[PANADERO]",
      "single_word": false,
      "lstrip": false,
      "rstrip": false,
      "normalized": false,
      "special": true
    },
    {
      "id": 50423,
      "content": "[PAPÁ]",
      "single_word": false,
      "lstrip": false,
      "rstrip": false,
      "normalized": false,
      "special": true
    },
    {
      "id": 50424,
      "content": "[PASAJERO 1]",
      "single_word": false,
      "lstrip": false,
      "rstrip": false,
      "normalized": false,
      "special": true
    },
    {
      "id": 50425,
      "content": "[PASAJERO 2]",
      "single_word": false,
      "lstrip": false,
      "rstrip": false,
      "normalized": false,
      "special": true
    },
    {
      "id": 50426,
      "content": "[PEDRITO]",
      "single_word": false,
      "lstrip": false,
      "rstrip": false,
      "normalized": false,
      "special": true
    },
    {
      "id": 50427,
      "content": "[PEDRO]",
      "single_word": false,
      "lstrip": false,
      "rstrip": false,
      "normalized": false,
      "special": true
    },
    {
      "id": 50428,
      "content": "[PEPITO]",
      "single_word": false,
      "lstrip": false,
      "rstrip": false,
      "normalized": false,
      "special": true
    },
    {
      "id": 50429,
      "content": "[PERIODISTA 1]",
      "single_word": false,
      "lstrip": false,
      "rstrip": false,
      "normalized": false,
      "special": true
    },
    {
      "id": 50430,
      "content": "[PERIODISTA 2]",
      "single_word": false,
      "lstrip": false,
      "rstrip": false,
      "normalized": false,
      "special": true
    },
    {
      "id": 50431,
      "content": "[PERRO]",
      "single_word": false,
      "lstrip": false,
      "rstrip": false,
      "normalized": false,
      "special": true
    },
    {
      "id": 50432,
      "content": "[PERSONA 1 (leyendo)]",
      "single_word": false,
      "lstrip": false,
      "rstrip": false,
      "normalized": false,
      "special": true
    },
    {
      "id": 50433,
      "content": "[PERSONA 1]",
      "single_word": false,
      "lstrip": false,
      "rstrip": false,
      "normalized": false,
      "special": true
    },
    {
      "id": 50434,
      "content": "[PERSONA 2]",
      "single_word": false,
      "lstrip": false,
      "rstrip": false,
      "normalized": false,
      "special": true
    },
    {
      "id": 50435,
      "content": "[PESCADOR 1]",
      "single_word": false,
      "lstrip": false,
      "rstrip": false,
      "normalized": false,
      "special": true
    },
    {
      "id": 50436,
      "content": "[PESCADOR 2]",
      "single_word": false,
      "lstrip": false,
      "rstrip": false,
      "normalized": false,
      "special": true
    },
    {
      "id": 50437,
      "content": "[PEZ 1]",
      "single_word": false,
      "lstrip": false,
      "rstrip": false,
      "normalized": false,
      "special": true
    },
    {
      "id": 50438,
      "content": "[PEZ 2]",
      "single_word": false,
      "lstrip": false,
      "rstrip": false,
      "normalized": false,
      "special": true
    },
    {
      "id": 50439,
      "content": "[PRIMA 1]",
      "single_word": false,
      "lstrip": false,
      "rstrip": false,
      "normalized": false,
      "special": true
    },
    {
      "id": 50440,
      "content": "[PRIMA 2]",
      "single_word": false,
      "lstrip": false,
      "rstrip": false,
      "normalized": false,
      "special": true
    },
    {
      "id": 50441,
      "content": "[PRIMO]",
      "single_word": false,
      "lstrip": false,
      "rstrip": false,
      "normalized": false,
      "special": true
    },
    {
      "id": 50442,
      "content": "[PROFESORA]",
      "single_word": false,
      "lstrip": false,
      "rstrip": false,
      "normalized": false,
      "special": true
    },
    {
      "id": 50443,
      "content": "[PROFESOR]",
      "single_word": false,
      "lstrip": false,
      "rstrip": false,
      "normalized": false,
      "special": true
    },
    {
      "id": 50444,
      "content": "[RESTAURADOR 1]",
      "single_word": false,
      "lstrip": false,
      "rstrip": false,
      "normalized": false,
      "special": true
    },
    {
      "id": 50445,
      "content": "[RESTAURADOR 2]",
      "single_word": false,
      "lstrip": false,
      "rstrip": false,
      "normalized": false,
      "special": true
    },
    {
      "id": 50446,
      "content": "[ROBERTO]",
      "single_word": false,
      "lstrip": false,
      "rstrip": false,
      "normalized": false,
      "special": true
    },
    {
      "id": 50447,
      "content": "[ROBOT]",
      "single_word": false,
      "lstrip": false,
      "rstrip": false,
      "normalized": false,
      "special": true
    },
    {
      "id": 50448,
      "content": "[SANDRA]",
      "single_word": false,
      "lstrip": false,
      "rstrip": false,
      "normalized": false,
      "special": true
    },
    {
      "id": 50449,
      "content": "[SERGIO]",
      "single_word": false,
      "lstrip": false,
      "rstrip": false,
      "normalized": false,
      "special": true
    },
    {
      "id": 50450,
      "content": "[SOCIO 1]",
      "single_word": false,
      "lstrip": false,
      "rstrip": false,
      "normalized": false,
      "special": true
    },
    {
      "id": 50451,
      "content": "[SOCIO 2]",
      "single_word": false,
      "lstrip": false,
      "rstrip": false,
      "normalized": false,
      "special": true
    },
    {
      "id": 50452,
      "content": "[SOFÍA]",
      "single_word": false,
      "lstrip": false,
      "rstrip": false,
      "normalized": false,
      "special": true
    },
    {
      "id": 50453,
      "content": "[TACAÑO]",
      "single_word": false,
      "lstrip": false,
      "rstrip": false,
      "normalized": false,
      "special": true
    },
    {
      "id": 50454,
      "content": "[TITULO]",
      "single_word": false,
      "lstrip": false,
      "rstrip": false,
      "normalized": false,
      "special": true
    },
    {
      "id": 50455,
      "content": "[TOMÁS]",
      "single_word": false,
      "lstrip": false,
      "rstrip": false,
      "normalized": false,
      "special": true
    },
    {
      "id": 50456,
      "content": "[TURISTA 1]",
      "single_word": false,
      "lstrip": false,
      "rstrip": false,
      "normalized": false,
      "special": true
    },
    {
      "id": 50457,
      "content": "[TURISTA 2]",
      "single_word": false,
      "lstrip": false,
      "rstrip": false,
      "normalized": false,
      "special": true
    },
    {
      "id": 50458,
      "content": "[TÍA]",
      "single_word": false,
      "lstrip": false,
      "rstrip": false,
      "normalized": false,
      "special": true
    },
    {
      "id": 50459,
      "content": "[VAGABUNDO]",
      "single_word": false,
      "lstrip": false,
      "rstrip": false,
      "normalized": false,
      "special": true
    },
    {
      "id": 50460,
      "content": "[VECINA 1]",
      "single_word": false,
      "lstrip": false,
      "rstrip": false,
      "normalized": false,
      "special": true
    },
    {
      "id": 50461,
      "content": "[VECINA 2]",
      "single_word": false,
      "lstrip": false,
      "rstrip": false,
      "normalized": false,
      "special": true
    },
    {
      "id": 50462,
      "content": "[VECINO 1]",
      "single_word": false,
      "lstrip": false,
      "rstrip": false,
      "normalized": false,
      "special": true
    },
    {
      "id": 50463,
      "content": "[VECINO 2]",
      "single_word": false,
      "lstrip": false,
      "rstrip": false,
      "normalized": false,
      "special": true
    },
    {
      "id": 50464,
      "content": "[VIAJERA 1]",
      "single_word": false,
      "lstrip": false,
      "rstrip": false,
      "normalized": false,
      "special": true
    },
    {
      "id": 50465,
      "content": "[VIAJERO 1]",
      "single_word": false,
      "lstrip": false,
      "rstrip": false,
      "normalized": false,
      "special": true
    },
    {
      "id": 50466,
      "content": "[VOLUNTARIO 1]",
      "single_word": false,
      "lstrip": false,
      "rstrip": false,
      "normalized": false,
      "special": true
    },
    {
      "id": 50467,
      "content": "[VOLUNTARIO 2]",
      "single_word": false,
      "lstrip": false,
      "rstrip": false,
      "normalized": false,
      "special": true
    },
    {
      "id": 50468,
      "content": "[estilo: comico]",
      "single_word": false,
      "lstrip": false,
      "rstrip": false,
      "normalized": false,
      "special": true
    },
    {
      "id": 50469,
      "content": "[estilo: educativo]",
      "single_word": false,
      "lstrip": false,
      "rstrip": false,
      "normalized": false,
      "special": true
    },
    {
      "id": 50470,
      "content": "[estilo: general]",
      "single_word": false,
      "lstrip": false,
      "rstrip": false,
      "normalized": false,
      "special": true
    },
    {
      "id": 50471,
      "content": "[estilo: narrativo]",
      "single_word": false,
      "lstrip": false,
      "rstrip": false,
      "normalized": false,
      "special": true
    },
    {
      "id": 50472,
      "content": "[estilo: publicitario]",
      "single_word": false,
      "lstrip": false,
      "rstrip": false,
      "normalized": false,
      "special": true
    },
    {
      "id": 50473,
      "content": "[ÁLVARO]",
      "single_word": false,
      "lstrip": false,
      "rstrip": false,
      "normalized": false,
      "special": true
    }
  ],
  "normalizer": null,
  "pre_tokenizer": {
    "type": "ByteLevel",
    "add_prefix_space": false,
    "trim_offsets": true,
    "use_regex": true
  },
  "post_processor": {
    "type": "ByteLevel",
    "add_prefix_space": true,
    "trim_offsets": false,
    "use_regex": true
  },
  "decoder": {
    "type": "ByteLevel",
    "add_prefix_space": true,
    "trim_offsets": true,
    "use_regex": true
  },
  "model": {
    "type": "BPE",
    "dropout": null,
    "unk_token": null,
    "continuing_subword_prefix": null,
    "end_of_word_suffix": null,
    "fuse_unk": false,
    "byte_fallback": false,
    "ignore_merges": false,
    "vocab": {
      "<s>": 0,
      "<pad>": 1,
      "</s>": 2,
      "<unk>": 3,
      "<mask>": 4,
      "!": 5,
      "\"": 6,
      "#": 7,
      "$": 8,
      "%": 9,
      "&": 10,
      "'": 11,
      "(": 12,
      ")": 13,
      "*": 14,
      "+": 15,
      ",": 16,
      "-": 17,
      ".": 18,
      "/": 19,
      "0": 20,
      "1": 21,
      "2": 22,
      "3": 23,
      "4": 24,
      "5": 25,
      "6": 26,
      "7": 27,
      "8": 28,
      "9": 29,
      ":": 30,
      ";": 31,
      "<": 32,
      "=": 33,
      ">": 34,
      "?": 35,
      "@": 36,
      "A": 37,
      "B": 38,
      "C": 39,
      "D": 40,
      "E": 41,
      "F": 42,
      "G": 43,
      "H": 44,
      "I": 45,
      "J": 46,
      "K": 47,
      "L": 48,
      "M": 49,
      "N": 50,
      "O": 51,
      "P": 52,
      "Q": 53,
      "R": 54,
      "S": 55,
      "T": 56,
      "U": 57,
      "V": 58,
      "W": 59,
      "X": 60,
      "Y": 61,
      "Z": 62,
      "[": 63,
      "\\": 64,
      "]": 65,
      "^": 66,
      "_": 67,
      "`": 68,
      "a": 69,
      "b": 70,
      "c": 71,
      "d": 72,
      "e": 73,
      "f": 74,
      "g": 75,
      "h": 76,
      "i": 77,
      "j": 78,
      "k": 79,
      "l": 80,
      "m": 81,
      "n": 82,
      "o": 83,
      "p": 84,
      "q": 85,
      "r": 86,
      "s": 87,
      "t": 88,
      "u": 89,
      "v": 90,
      "w": 91,
      "x": 92,
      "y": 93,
      "z": 94,
      "{": 95,
      "|": 96,
      "}": 97,
      "~": 98,
      "¡": 99,
      "¢": 100,
      "£": 101,
      "¤": 102,
      "¥": 103,
      "¦": 104,
      "§": 105,
      "¨": 106,
      "©": 107,
      "ª": 108,
      "«": 109,
      "¬": 110,
      "®": 111,
      "¯": 112,
      "°": 113,
      "±": 114,
      "²": 115,
      "³": 116,
      "´": 117,
      "µ": 118,
      "¶": 119,
      "·": 120,
      "¸": 121,
      "¹": 122,
      "º": 123,
      "»": 124,
      "¼": 125,
      "½": 126,
      "¾": 127,
      "¿": 128,
      "À": 129,
      "Á": 130,
      "Â": 131,
      "Ã": 132,
      "Ä": 133,
      "Å": 134,
      "Æ": 135,
      "Ç": 136,
      "È": 137,
      "É": 138,
      "Ê": 139,
      "Ë": 140,
      "Ì": 141,
      "Í": 142,
      "Î": 143,
      "Ï": 144,
      "Ð": 145,
      "Ñ": 146,
      "Ò": 147,
      "Ó": 148,
      "Ô": 149,
      "Õ": 150,
      "Ö": 151,
      "×": 152,
      "Ø": 153,
      "Ù": 154,
      "Ú": 155,
      "Û": 156,
      "Ü": 157,
      "Ý": 158,
      "Þ": 159,
      "ß": 160,
      "à": 161,
      "á": 162,
      "â": 163,
      "ã": 164,
      "ä": 165,
      "å": 166,
      "æ": 167,
      "ç": 168,
      "è": 169,
      "é": 170,
      "ê": 171,
      "ë": 172,
      "ì": 173,
      "í": 174,
      "î": 175,
      "ï": 176,
      "ð": 177,
      "ñ": 178,
      "ò": 179,
      "ó": 180,
      "ô": 181,
      "õ": 182,
      "ö": 183,
      "÷": 184,
      "ø": 185,
      "ù": 186,
      "ú": 187,
      "û": 188,
      "ü": 189,
      "ý": 190,
      "þ": 191,
      "ÿ": 192,
      "Ā": 193,
      "ā": 194,
      "Ă": 195,
      "ă": 196,
      "Ą": 197,
      "ą": 198,
      "Ć": 199,
      "ć": 200,
      "Ĉ": 201,
      "ĉ": 202,
      "Ċ": 203,
      "ċ": 204,
      "Č": 205,
      "č": 206,
      "Ď": 207,
      "ď": 208,
      "Đ": 209,
      "đ": 210,
      "Ē": 211,
      "ē": 212,
      "Ĕ": 213,
      "ĕ": 214,
      "Ė": 215,
      "ė": 216,
      "Ę": 217,
      "ę": 218,
      "Ě": 219,
      "ě": 220,
      "Ĝ": 221,
      "ĝ": 222,
      "Ğ": 223,
      "ğ": 224,
      "Ġ": 225,
      "ġ": 226,
      "Ģ": 227,
      "ģ": 228,
      "Ĥ": 229,
      "ĥ": 230,
      "Ħ": 231,
      "ħ": 232,
      "Ĩ": 233,
      "ĩ": 234,
      "Ī": 235,
      "ī": 236,
      "Ĭ": 237,
      "ĭ": 238,
      "Į": 239,
      "į": 240,
      "İ": 241,
      "ı": 242,
      "Ĳ": 243,
      "ĳ": 244,
      "Ĵ": 245,
      "ĵ": 246,
      "Ķ": 247,
      "ķ": 248,
      "ĸ": 249,
      "Ĺ": 250,
      "ĺ": 251,
      "Ļ": 252,
      "ļ": 253,
      "Ľ": 254,
      "ľ": 255,
      "Ŀ": 256,
      "ŀ": 257,
      "Ł": 258,
      "ł": 259,
      "Ń": 260,
      "de": 261,
      "Ġe": 262,
      "Ġde": 263,
      "Ġl": 264,
      "os": 265,
      "Ġp": 266,
      "Ġa": 267,
      "en": 268,
      "er": 269,
      "Ġc": 270,
      "es": 271,
      "ar": 272,
      "Ġs": 273,
      "as": 274,
      "on": 275,
      "ci": 276,
      "or": 277,
      "ue": 278,
      "an": 279,
      "Ġm": 280,
      "Ã³": 281,
      "ad": 282,
      "st": 283,
      "Ġla": 284,
      "re": 285,
      "Ġt": 286,
      "Ġq": 287,
      "un": 288,
      "al": 289,
      "Ġen": 290,
      "in": 291,
      "ÃŃ": 292,
      "Ġque": 293,
      "ent": 294,
      "Ġel": 295,
      "Ã³n": 296,
      "Ġy": 297,
      "Ã¡": 298,
      "Ġn": 299,
      "Ġh": 300,
      "di": 301,
      "do": 302,
      "ra": 303,
      "Ġun": 304,
      "ro": 305,
      "Ã©": 306,
      "Ġcon": 307,
      "ti": 308,
      "om": 309,
      "aci": 310,
      "am": 311,
      "Ġes": 312,
      "Ġv": 313,
      "Ġf": 314,
      "ic": 315,
      "Ġest": 316,
      "Ġse": 317,
      "Ġlos": 318,
      "te": 319,
      "Â¿": 320,
      "ab": 321,
      "to": 322,
      "Ġdel": 323,
      "le": 324,
      "ri": 325,
      "Ġre": 326,
      "Ġin": 327,
      "Ġo": 328,
      "Ġsu": 329,
      "Ġpar": 330,
      "ado": 331,
      "res": 332,
      "..": 333,
      "ui": 334,
      "aciÃ³n": 335,
      "ec": 336,
      "lo": 337,
      "Ġlas": 338,
      "Ġno": 339,
      "Ġal": 340,
      "ĠC": 341,
      "da": 342,
      "ta": 343,
      "Ġb": 344,
      "Ġpor": 345,
      "ente": 346,
      "Ġcom": 347,
      "ol": 348,
      "Ġdi": 349,
      "is": 350,
      "ÃŃa": 351,
      "cu": 352,
      "em": 353,
      "Ġg": 354,
      "Ġuna": 355,
      "Ã±": 356,
      "dad": 357,
      "Ġpara": 358,
      "Ġpro": 359,
      "Ġsi": 360,
      "ones": 361,
      "Ġlo": 362,
      "ĠS": 363,
      "Ġd": 364,
      "ien": 365,
      "la": 366,
      "Ġ1": 367,
      "ciÃ³n": 368,
      "li": 369,
      "ero": 370,
      "ch": 371,
      "go": 372,
      "ĠE": 373,
      "No": 374,
      "tu": 375,
      "vi": 376,
      "Ãº": 377,
      "ter": 378,
      "Ġme": 379,
      "Ġha": 380,
      "Ġcu": 381,
      "bi": 382,
      "Ã¡s": 383,
      "im": 384,
      "ĠP": 385,
      "ĠA": 386,
      "ada": 387,
      "tr": 388,
      "Â¡": 389,
      "uÃ©": 390,
      "si": 391,
      "ento": 392,
      "ari": 393,
      "bre": 394,
      "ĠM": 395,
      "...": 396,
      "se": 397,
      "Ġ2": 398,
      "ran": 399,
      "Ġmi": 400,
      "ce": 401,
      "mi": 402,
      "ĠD": 403,
      "ando": 404,
      "Ġ(": 405,
      "00": 406,
      "tos": 407,
      "Ġmu": 408,
      "ales": 409,
      "cia": 410,
      "Ġso": 411,
      "ist": 412,
      "ĠÂ¿": 413,
      "Ġdes": 414,
      "Ġto": 415,
      "ca": 416,
      "ados": 417,
      "pe": 418,
      "Ġper": 419,
      "tiv": 420,
      "Ġex": 421,
      "Ã¡n": 422,
      "orm": 423,
      "co": 424,
      "jo": 425,
      "gu": 426,
      "El": 427,
      "mo": 428,
      "Ġcomo": 429,
      "era": 430,
      "ues": 431,
      "ĠL": 432,
      "ir": 433,
      "ĠB": 434,
      "po": 435,
      "dos": 436,
      "tor": 437,
      "den": 438,
      "Ġac": 439,
      "el": 440,
      "ici": 441,
      "ica": 442,
      "ĠR": 443,
      "Ġser": 444,
      "it": 445,
      "En": 446,
      "Est": 447,
      "des": 448,
      "tes": 449,
      "tra": 450,
      "iÃ³n": 451,
      "ali": 452,
      "ĠT": 453,
      "ba": 454,
      "us": 455,
      "Ġtra": 456,
      "Ġpo": 457,
      "amos": 458,
      "Es": 459,
      "Ġres": 460,
      "por": 461,
      "que": 462,
      "ĠmÃ¡s": 463,
      "ĠG": 464,
      "Ġan": 465,
      "Ġj": 466,
      "lar": 467,
      "tar": 468,
      "ten": 469,
      "Ã©n": 470,
      "Ġpue": 471,
      "du": 472,
      "per": 473,
      "La": 474,
      "io": 475,
      "aciones": 476,
      "Ġhab": 477,
      "ru": 478,
      "Ġten": 479,
      "das": 480,
      "ĠI": 481,
      "ma": 482,
      "uer": 483,
      "Ġvi": 484,
      "Ġle": 485,
      "tro": 486,
      "par": 487,
      "Ġar": 488,
      "Ġte": 489,
      "Ġma": 490,
      "qui": 491,
      "Ġ\"": 492,
      "Un": 493,
      "Ġpre": 494,
      "Ġti": 495,
      "me": 496,
      "cer": 497,
      "Ġpa": 498,
      "oy": 499,
      "ora": 500,
      "pa": 501,
      "ia": 502,
      "ul": 503,
      "ver": 504,
      "man": 505,
      "ces": 506,
      "Ġas": 507,
      "Ġqui": 508,
      "Ġim": 509,
      "mp": 510,
      "ras": 511,
      "ĠF": 512,
      "amente": 513,
      "ĠestÃ¡": 514,
      "ĠN": 515,
      "Ġsobre": 516,
      "ust": 517,
      "ico": 518,
      "ambi": 519,
      "mente": 520,
      "ante": 521,
      "los": 522,
      "gun": 523,
      "za": 524,
      "uen": 525,
      "QuÃ©": 526,
      "ur": 527,
      "il": 528,
      "con": 529,
      "ga": 530,
      "Ġca": 531,
      "min": 532,
      "Ġsus": 533,
      "Ġ19": 534,
      "onal": 535,
      "ĠH": 536,
      "qu": 537,
      "Ġpres": 538,
      "ĠJ": 539,
      "der": 540,
      "Ġtu": 541,
      "tre": 542,
      "gar": 543,
      "tas": 544,
      "gui": 545,
      "vo": 546,
      "emos": 547,
      "Por": 548,
      "bl": 549,
      "mos": 550,
      "Ġcas": 551,
      "Ġob": 552,
      "Ġinter": 553,
      "lam": 554,
      "Ġap": 555,
      "ores": 556,
      "entes": 557,
      "Ġbien": 558,
      "Ãºn": 559,
      "Ġve": 560,
      "ble": 561,
      "aba": 562,
      "adas": 563,
      "Ġpr": 564,
      "Ġver": 565,
      "ac": 566,
      "je": 567,
      "ĠCom": 568,
      "encia": 569,
      "eces": 570,
      "Ġor": 571,
      "fic": 572,
      "Ġtien": 573,
      "pi": 574,
      "ber": 575,
      "form": 576,
      "Ġi": 577,
      "ciones": 578,
      "ĠquÃ©": 579,
      "lan": 580,
      "Ġman": 581,
      "ĠaÃ±": 582,
      "Ġpri": 583,
      "âĢ": 584,
      "cias": 585,
      "Ġfue": 586,
      "Ġpas": 587,
      "ami": 588,
      "Ġdis": 589,
      "quÃŃ": 590,
      "Ġmedi": 591,
      "no": 592,
      "ĠEst": 593,
      "De": 594,
      "fer": 595,
      "pon": 596,
      "able": 597,
      "Ġco": 598,
      "dr": 599,
      "tros": 600,
      "Ġcre": 601,
      "ĠO": 602,
      "dades": 603,
      "Ġmis": 604,
      "ech": 605,
      "cho": 606,
      "ĠV": 607,
      "ara": 608,
      "las": 609,
      "endo": 610,
      "ĠCon": 611,
      "Se": 612,
      "Ġesta": 613,
      "ario": 614,
      "gan": 615,
      "Ġpero": 616,
      "Ġ200": 617,
      "Ġ3": 618,
      "Ġeste": 619,
      "Ġci": 620,
      "les": 621,
      "ÃŃas": 622,
      "Ġr": 623,
      "fici": 624,
      "ven": 625,
      "Ġni": 626,
      "iz": 627,
      "br": 628,
      "pos": 629,
      "Ġfin": 630,
      "Ġtraba": 631,
      "gi": 632,
      "ve": 633,
      "cciÃ³n": 634,
      "ens": 635,
      "Si": 636,
      "Ġlle": 637,
      "isiÃ³n": 638,
      "ÃŃcu": 639,
      "ambiÃ©n": 640,
      "gra": 641,
      "Ġentre": 642,
      "ĠÃ©": 643,
      "Ġmo": 644,
      "Ġcomp": 645,
      "Ġtodo": 646,
      "Ġau": 647,
      "ĠUn": 648,
      "ina": 649,
      "Ġdeci": 650,
      "ĠaquÃŃ": 651,
      "tal": 652,
      "Ġeso": 653,
      "va": 654,
      "Ġcar": 655,
      "Ġson": 656,
      "Ġpers": 657,
      "Ġpe": 658,
      "ie": 659,
      "Ġhacer": 660,
      "ÃŃs": 661,
      "uro": 662,
      "ino": 663,
      "entos": 664,
      "mas": 665,
      "ĠRe": 666,
      "cial": 667,
      "tado": 668,
      "cl": 669,
      "ay": 670,
      "Ġform": 671,
      "pues": 672,
      "esti": 673,
      "lic": 674,
      "SÃŃ": 675,
      "cion": 676,
      "Ġcor": 677,
      "Ġhay": 678,
      "Ġsab": 679,
      "port": 680,
      "Ġparti": 681,
      "enta": 682,
      "Ġtan": 683,
      "tivo": 684,
      "Lo": 685,
      "zar": 686,
      "Ġsal": 687,
      "Ġlu": 688,
      "idad": 689,
      "Ġneces": 690,
      "Ġah": 691,
      "Ġab": 692,
      "Ġinform": 693,
      "ener": 694,
      "Ġnos": 695,
      "Qui": 696,
      "Me": 697,
      "ĠtambiÃ©n": 698,
      "Los": 699,
      "Ġhas": 700,
      "Ġprim": 701,
      "gr": 702,
      "jer": 703,
      "ton": 704,
      "Ġpos": 705,
      "Ġter": 706,
      "ido": 707,
      "emp": 708,
      "Ġmuy": 709,
      "miento": 710,
      "ja": 711,
      "cuer": 712,
      "ona": 713,
      "Pero": 714,
      "cio": 715,
      "Ġcos": 716,
      "dar": 717,
      "tÃŃcu": 718,
      "ĠIn": 719,
      "Ġdeb": 720,
      "siÃ³n": 721,
      "Ġesto": 722,
      "tiva": 723,
      "Ã±o": 724,
      "ed": 725,
      "Ġdos": 726,
      "Ġpol": 727,
      "Ġyo": 728,
      "ana": 729,
      "Ġvez": 730,
      "ÃŃo": 731,
      "Ġnue": 732,
      "Ġsin": 733,
      "ador": 734,
      "Ġli": 735,
      "Ġmar": 736,
      "Ġcuando": 737,
      "car": 738,
      "ÃŃn": 739,
      "pec": 740,
      "fec": 741,
      "ombre": 742,
      "01": 743,
      "ios": 744,
      "Ġam": 745,
      "Ġesc": 746,
      "Ã³lo": 747,
      "cip": 748,
      "Ġtodos": 749,
      "Ġpuede": 750,
      "ĠaÃ±os": 751,
      "rec": 752,
      "Ġ,": 753,
      "ĠÂ¡": 754,
      "Ġsol": 755,
      "pres": 756,
      "Ġdo": 757,
      "Ġ.": 758,
      "almente": 759,
      "ĠasÃŃ": 760,
      "Ġtiene": 761,
      "Ġalgo": 762,
      "Ã©s": 763,
      "cha": 764,
      "Ġemp": 765,
      "cas": 766,
      "ren": 767,
      "ĠNo": 768,
      "duc": 769,
      "na": 770,
      "Ã³mo": 771,
      "Ġem": 772,
      "Ġ4": 773,
      "Ġgran": 774,
      "acional": 775,
      "tÃŃculo": 776,
      "Ġdu": 777,
      "Ġmej": 778,
      "Ġpu": 779,
      "ĠK": 780,
      "oci": 781,
      "Ġhu": 782,
      "av": 783,
      "antes": 784,
      "Ġcontra": 785,
      "Ġnues": 786,
      "ÃŃan": 787,
      "llo": 788,
      "Ġya": 789,
      "Ġera": 790,
      "Ġtiem": 791,
      "Ġreg": 792,
      "Ġmen": 793,
      "Ġch": 794,
      "Ġfun": 795,
      "Ġad": 796,
      "Ġmun": 797,
      "arios": 798,
      "yu": 799,
      "can": 800,
      "gos": 801,
      "tica": 802,
      "zo": 803,
      "Ġba": 804,
      "),": 805,
      "Ġcam": 806,
      "tura": 807,
      "ll": 808,
      "Con": 809,
      "ĠpaÃŃs": 810,
      "rib": 811,
      "Ġparte": 812,
      "Ġ5": 813,
      "icos": 814,
      "bier": 815,
      "Ġhi": 816,
      "ueno": 817,
      "Ġu": 818,
      "arro": 819,
      "cos": 820,
      "arÃ¡": 821,
      "ola": 822,
      "tin": 823,
      ").": 824,
      "Ġllam": 825,
      "Ġcons": 826,
      "gn": 827,
      "iden": 828,
      "teri": 829,
      "Ġtiempo": 830,
      "Yo": 831,
      "Ġra": 832,
      "sti": 833,
      "alidad": 834,
      "amiento": 835,
      "so": 836,
      "Ġfu": 837,
      "Ġmay": 838,
      "uciÃ³n": 839,
      "cios": 840,
      "ĠComisiÃ³n": 841,
      "aliz": 842,
      "Ã±a": 843,
      "Ġju": 844,
      "cuerdo": 845,
      "ĠUni": 846,
      "icas": 847,
      "Cu": 848,
      "Ġhan": 849,
      "ere": 850,
      "Ġespe": 851,
      "tras": 852,
      "Ġhasta": 853,
      "Te": 854,
      "Mi": 855,
      "Ġtran": 856,
      "gen": 857,
      "ĠseÃ±": 858,
      "Ġayu": 859,
      "unto": 860,
      "Al": 861,
      "Ġdere": 862,
      "rante": 863,
      "um": 864,
      "aria": 865,
      "chos": 866,
      "ĠÃ©l": 867,
      "Ġro": 868,
      "racias": 869,
      "fi": 870,
      "Ã©r": 871,
      "Âł": 872,
      "ste": 873,
      "uel": 874,
      "Ġconsi": 875,
      "Ġcan": 876,
      "aron": 877,
      "ĠEuro": 878,
      "ĠW": 879,
      "ano": 880,
      "cur": 881,
      "Ġmejor": 882,
      "Ġdecir": 883,
      "ista": 884,
      "et": 885,
      "Ġir": 886,
      "gÃºn": 887,
      "Ãºbl": 888,
      "Ġincl": 889,
      "eron": 890,
      "echo": 891,
      "eneral": 892,
      "Ġtrabajo": 893,
      "ĠEs": 894,
      "Ġfuer": 895,
      "Ġbas": 896,
      "Ġestu": 897,
      "ĠâĢ": 898,
      "Ġsegu": 899,
      "Ġven": 900,
      "che": 901,
      "ĠEstados": 902,
      "uy": 903,
      "Ġpodr": 904,
      "ĠU": 905,
      "Ġcual": 906,
      "Ġahora": 907,
      "Ġcomun": 908,
      "Ġalgun": 909,
      "avor": 910,
      "jos": 911,
      "lti": 912,
      "Ten": 913,
      "onas": 914,
      "sejo": 915,
      "adre": 916,
      "ĠsÃ©": 917,
      "uÃ©s": 918,
      "tivos": 919,
      "at": 920,
      "Ġimport": 921,
      "Ġposi": 922,
      "ema": 923,
      "Ġnada": 924,
      "Ġdesde": 925,
      "acion": 926,
      "jar": 927,
      "Ġfavor": 928,
      "\".": 929,
      "cep": 930,
      "Ġne": 931,
      "Ġese": 932,
      "Ġdon": 933,
      "Ġlugar": 934,
      "ĠSe": 935,
      "stitu": 936,
      "Ġvol": 937,
      "Ġmal": 938,
      "Ġdesarro": 939,
      "ĠCh": 940,
      "Las": 941,
      "embre": 942,
      "tur": 943,
      "tonces": 944,
      "Ġvida": 945,
      "Ġplan": 946,
      "Ġmiem": 947,
      "Ġ-": 948,
      "Ġus": 949,
      "ĠestÃ¡n": 950,
      "Ġmismo": 951,
      "Ġprin": 952,
      "puÃ©s": 953,
      "Ġcab": 954,
      "adores": 955,
      "Ġcap": 956,
      "bros": 957,
      "Ġ199": 958,
      "200": 959,
      "ĠConsejo": 960,
      "ĠDe": 961,
      "19": 962,
      "Ġfi": 963,
      "Ġestable": 964,
      "Ġaplic": 965,
      "Ġtrans": 966,
      "nos": 967,
      "Ġtom": 968,
      "Ġacuerdo": 969,
      "cen": 970,
      "Ġ201": 971,
      "Ġ6": 972,
      "lidad": 973,
      "Ġestar": 974,
      "Ã±os": 975,
      "ĠpolÃŃ": 976,
      "Ġher": 977,
      "gas": 978,
      "rÃ¡": 979,
      "Ġcer": 980,
      "arse": 981,
      "Ġhaci": 982,
      "ĠÃ¡": 983,
      "Ġequi": 984,
      "ĠdÃŃa": 985,
      "CE": 986,
      "Ġda": 987,
      "Ġust": 988,
      "Ġmujer": 989,
      "Ġden": 990,
      "ĠaÃ±o": 991,
      "Ġapar": 992,
      "sta": 993,
      "Ġservi": 994,
      "ĠÂ": 995,
      "Su": 996,
      "iones": 997,
      "cre": 998,
      "lamento": 999,
      "To": 1000,
      "ĠPar": 1001,
      "Ġprogra": 1002,
      "ena": 1003,
      "Ġhe": 1004,
      "ĠY": 1005,
      "Ġesp": 1006,
      "Com": 1007,
      "ĠÃº": 1008,
      "ig": 1009,
      "ĠsÃ³lo": 1010,
      "dio": 1011,
      "ĠartÃŃculo": 1012,
      "Ġuno": 1013,
      "yec": 1014,
      "bar": 1015,
      "Ġej": 1016,
      "mÃ¡s": 1017,
      "Ġella": 1018,
      "taciÃ³n": 1019,
      "eros": 1020,
      "tÃ³": 1021,
      "Ġcasa": 1022,
      "Ġdonde": 1023,
      "Ah": 1024,
      "Ġllev": 1025,
      "Ġotros": 1026,
      "Ġrel": 1027,
      "EstÃ¡": 1028,
      "liz": 1029,
      "Ġdeber": 1030,
      "Ġantes": 1031,
      "eres": 1032,
      "Ġorgan": 1033,
      "Ġestoy": 1034,
      "ctor": 1035,
      "Ã³nde": 1036,
      "stru": 1037,
      "ece": 1038,
      "Vamos": 1039,
      "Ġencon": 1040,
      "Ġva": 1041,
      "tivi": 1042,
      "Ġsigui": 1043,
      "fica": 1044,
      "Ġconf": 1045,
      "udad": 1046,
      "uego": 1047,
      "unca": 1048,
      "As": 1049,
      "Ġcada": 1050,
      "Ġ|": 1051,
      "Ġforma": 1052,
      "ale": 1053,
      "Ġsido": 1054,
      "Ġmucho": 1055,
      "com": 1056,
      "Ġdurante": 1057,
      "iendo": 1058,
      "Ġestaba": 1059,
      "Ġpuedo": 1060,
      "Ġmayor": 1061,
      "Ġbuen": 1062,
      "Ġesa": 1063,
      "ene": 1064,
      "Ġhace": 1065,
      "bo": 1066,
      "Ġhecho": 1067,
      "Ġdist": 1068,
      "empre": 1069,
      "ito": 1070,
      "dido": 1071,
      "Ġreci": 1072,
      "Ġgust": 1073,
      "Ġpla": 1074,
      "Ã³m": 1075,
      "ing": 1076,
      "Ġestado": 1077,
      "Ġsist": 1078,
      "\",": 1079,
      "ĠEurope": 1080,
      "ĠtÃº": 1081,
      "Bueno": 1082,
      "ridad": 1083,
      "ĠhabÃŃa": 1084,
      "Ġsent": 1085,
      "paÃ±": 1086,
      "Ġami": 1087,
      "ĠMar": 1088,
      "ĠÃºlti": 1089,
      "tir": 1090,
      "Ġ9": 1091,
      "Ġcambi": 1092,
      "Ġ7": 1093,
      "Ġproble": 1094,
      "Ġsea": 1095,
      "ment": 1096,
      "Ġporque": 1097,
      "ea": 1098,
      "Ġactu": 1099,
      "Ġpi": 1100,
      "ord": 1101,
      "lla": 1102,
      "Des": 1103,
      "oso": 1104,
      "minist": 1105,
      "amili": 1106,
      "cul": 1107,
      "idades": 1108,
      "ame": 1109,
      "Ġsuper": 1110,
      "mpli": 1111,
      "Ġcent": 1112,
      "ud": 1113,
      "Ġtengo": 1114,
      "he": 1115,
      "trar": 1116,
      "ĠmÃŃ": 1117,
      "Ġefec": 1118,
      "Ġmon": 1119,
      "ĠsÃŃ": 1120,
      "Ġpersonas": 1121,
      "Ġotra": 1122,
      "tados": 1123,
      "Ġmin": 1124,
      "Ġmundo": 1125,
      "Ġprincip": 1126,
      "vel": 1127,
      "raciÃ³n": 1128,
      "ex": 1129,
      "Que": 1130,
      "sa": 1131,
      "Ġpresent": 1132,
      "obier": 1133,
      "diÃ³": 1134,
      "ap": 1135,
      "Ġinv": 1136,
      "Ġobje": 1137,
      "pen": 1138,
      "Ġtoda": 1139,
      "ey": 1140,
      "CÃ³mo": 1141,
      "Ġ8": 1142,
      "arias": 1143,
      "tivas": 1144,
      "Ġhuman": 1145,
      "tamente": 1146,
      "ancia": 1147,
      "Ġtanto": 1148,
      "Ġindi": 1149,
      "Ġtar": 1150,
      "Ġcaso": 1151,
      "Eso": 1152,
      "Ġproduc": 1153,
      "ĠestÃ¡s": 1154,
      "ĠLa": 1155,
      "yo": 1156,
      "ismo": 1157,
      "--": 1158,
      "ĠdespuÃ©s": 1159,
      "tico": 1160,
      "Ġsub": 1161,
      "ge": 1162,
      "ĠpaÃŃses": 1163,
      "Ġintern": 1164,
      "Ġcol": 1165,
      "Ġmom": 1166,
      "fes": 1167,
      "Ya": 1168,
      "Ġ18": 1169,
      "Ġhombre": 1170,
      "gua": 1171,
      "Ġciudad": 1172,
      "Ġautor": 1173,
      "ĠDi": 1174,
      "ĠSan": 1175,
      "Ġmuer": 1176,
      "Ġpon": 1177,
      "Ġapro": 1178,
      "Ġfamili": 1179,
      "quier": 1180,
      "erv": 1181,
      "puesto": 1182,
      "Â»": 1183,
      "Ġquer": 1184,
      "Ġmiembros": 1185,
      "Ġade": 1186,
      "Ġuti": 1187,
      "Ġmer": 1188,
      "ĠinformaciÃ³n": 1189,
      "Ã¡r": 1190,
      "Ġotro": 1191,
      "xim": 1192,
      "Ġdesarrollo": 1193,
      "Ġna": 1194,
      "Ġexp": 1195,
      "Ġproyec": 1196,
      "cado": 1197,
      "Ãºm": 1198,
      "anci": 1199,
      "Ġtipo": 1200,
      "Cre": 1201,
      "tad": 1202,
      "Para": 1203,
      "Ġcal": 1204,
      "ĠAn": 1205,
      "Ġquiero": 1206,
      "Ġempres": 1207,
      "tan": 1208,
      "Ã©c": 1209,
      "aban": 1210,
      "Ġmenos": 1211,
      "Ġtres": 1212,
      "Ġdest": 1213,
      "Ġasi": 1214,
      "Ġmes": 1215,
      "Ġsolo": 1216,
      "Ġusted": 1217,
      "Ġtodas": 1218,
      "ros": 1219,
      "Ġnombre": 1220,
      "cri": 1221,
      "mon": 1222,
      "In": 1223,
      "Ġpoco": 1224,
      "Ġ10": 1225,
      "gue": 1226,
      "omb": 1227,
      "Ġencu": 1228,
      "Ġpens": 1229,
      "Ġnuevo": 1230,
      "rupo": 1231,
      "Ġtener": 1232,
      "ĠSÃŃ": 1233,
      "Ġdef": 1234,
      "Ġcuenta": 1235,
      "Ġdebe": 1236,
      "Tien": 1237,
      "Ġactivi": 1238,
      "Ġcosas": 1239,
      "Ġtal": 1240,
      "Pue": 1241,
      "arÃŃa": 1242,
      "Re": 1243,
      "gaciÃ³n": 1244,
      "Ġdirec": 1245,
      "Ġrela": 1246,
      "Ġri": 1247,
      "Ġhaber": 1248,
      "Ġsitu": 1249,
      "ĠSr": 1250,
      "ida": 1251,
      "Ġmomento": 1252,
      "ĠpÃºbl": 1253,
      "Ġof": 1254,
      "ĠseÃ±or": 1255,
      "Ġcri": 1256,
      "ceso": 1257,
      "sos": 1258,
      "gÃŃa": 1259,
      "idente": 1260,
      "Ġfe": 1261,
      "van": 1262,
      "Ġpes": 1263,
      "ĠEl": 1264,
      "dia": 1265,
      "oc": 1266,
      "untos": 1267,
      "ficaciÃ³n": 1268,
      "vis": 1269,
      "ĠAl": 1270,
      "ĠPro": 1271,
      "Ġresul": 1272,
      "gado": 1273,
      "bro": 1274,
      "zÃ³n": 1275,
      "Ġpues": 1276,
      "Ġtrabaj": 1277,
      "mento": 1278,
      "abi": 1279,
      "oluciÃ³n": 1280,
      "pu": 1281,
      "Ġecon": 1282,
      "Ġhor": 1283,
      "ine": 1284,
      "Ã¡c": 1285,
      "ĠÂ«": 1286,
      "ES": 1287,
      "be": 1288,
      "obierno": 1289,
      "Ãī": 1290,
      "Ġpueden": 1291,
      "Ġsegun": 1292,
      "Ġorganiz": 1293,
      "tam": 1294,
      "zas": 1295,
      "Ġellos": 1296,
      "cup": 1297,
      "guien": 1298,
      "Ġgra": 1299,
      "Ġsoy": 1300,
      "AsÃŃ": 1301,
      "Le": 1302,
      "Ġcul": 1303,
      "posi": 1304,
      "ferencia": 1305,
      "Ġpregun": 1306,
      "fr": 1307,
      "Gracias": 1308,
      "Ġles": 1309,
      "ĠAr": 1310,
      "Ã³r": 1311,
      "gres": 1312,
      "Una": 1313,
      "arÃ©": 1314,
      "anos": 1315,
      "Ġsiempre": 1316,
      "ĠAs": 1317,
      "ĠÃºn": 1318,
      "ita": 1319,
      "Ġz": 1320,
      "Ġnorm": 1321,
      "Ġproce": 1322,
      "uso": 1323,
      "uc": 1324,
      "Ġtem": 1325,
      "versi": 1326,
      "ĠdÃŃas": 1327,
      "Ġsiento": 1328,
      "Ġprote": 1329,
      "duci": 1330,
      "Ġrepres": 1331,
      "ticas": 1332,
      "Ġespeci": 1333,
      "Ar": 1334,
      "Ġesper": 1335,
      "ala": 1336,
      "ger": 1337,
      "Ġcomple": 1338,
      "Ġapo": 1339,
      "acionales": 1340,
      "Ġencuent": 1341,
      "Ġfinanci": 1342,
      "Ġrespec": 1343,
      "Ġprimer": 1344,
      "lio": 1345,
      "lares": 1346,
      "Ġdec": 1347,
      "Ġcomer": 1348,
      "Ġotras": 1349,
      "Ġprimera": 1350,
      "lor": 1351,
      "Ġado": 1352,
      "ĠnÃºm": 1353,
      "eci": 1354,
      "th": 1355,
      "val": 1356,
      "ĠDE": 1357,
      "000": 1358,
      "dera": 1359,
      "Ġofici": 1360,
      "ich": 1361,
      "Ġfal": 1362,
      "Ġall": 1363,
      "Ġnin": 1364,
      "Ġhist": 1365,
      "tud": 1366,
      "ya": 1367,
      "Ahora": 1368,
      "Ġcontro": 1369,
      "vos": 1370,
      "Bien": 1371,
      "ÃŃst": 1372,
      "rar": 1373,
      "lu": 1374,
      "Ġnoche": 1375,
      "Ġ15": 1376,
      "Ġgente": 1377,
      "ĠGeneral": 1378,
      "unidad": 1379,
      "dado": 1380,
      "Ġestos": 1381,
      "Ġinf": 1382,
      "Ha": 1383,
      "Ġvoy": 1384,
      "Ġdici": 1385,
      "Ġderechos": 1386,
      "aran": 1387,
      "Ġval": 1388,
      "Ġexist": 1389,
      "Esta": 1390,
      "Ġsistema": 1391,
      "Ġpeque": 1392,
      "Ġhablar": 1393,
      "Ġverdad": 1394,
      "Ã¡l": 1395,
      "âĢĿ": 1396,
      "ĠEn": 1397,
      "ĠDios": 1398,
      "Ġrespon": 1399,
      "Ġcontin": 1400,
      "rÃ©": 1401,
      "chas": 1402,
      "ĠPres": 1403,
      "Ġsan": 1404,
      "Sab": 1405,
      "Ġprop": 1406,
      "Ġfr": 1407,
      "Ġtras": 1408,
      "Ġpermi": 1409,
      "Ġnoso": 1410,
      "ĠNaciones": 1411,
      "cel": 1412,
      "ior": 1413,
      "Ġop": 1414,
      "Estoy": 1415,
      "Hola": 1416,
      "ĠUnidas": 1417,
      "Ġdin": 1418,
      "itÃ©": 1419,
      "ĠEstado": 1420,
      "Ġtienes": 1421,
      "and": 1422,
      "Ġquien": 1423,
      "Ġbus": 1424,
      "Ġnivel": 1425,
      "ĠReg": 1426,
      "Ġespecial": 1427,
      "Ġ0": 1428,
      "ĠperÃŃo": 1429,
      "Ġ12": 1430,
      "ele": 1431,
      "Ġconoci": 1432,
      "isto": 1433,
      "all": 1434,
      "Ġmedidas": 1435,
      "Ġeres": 1436,
      "estiÃ³n": 1437,
      "Ãºs": 1438,
      "Ġdar": 1439,
      "hi": 1440,
      "Ġnosotros": 1441,
      "Ġfuera": 1442,
      "cil": 1443,
      "Esto": 1444,
      "Ġestas": 1445,
      "Ġdej": 1446,
      "vas": 1447,
      "Ġenti": 1448,
      "Ġtienen": 1449,
      "ducciÃ³n": 1450,
      "Ġloc": 1451,
      "Ġadop": 1452,
      "puesta": 1453,
      "erra": 1454,
      "Ġmedio": 1455,
      "demos": 1456,
      "Oh": 1457,
      "Este": 1458,
      "Ġpasa": 1459,
      "Ġsegui": 1460,
      "Ġk": 1461,
      "termin": 1462,
      "tener": 1463,
      "Ġnunca": 1464,
      "rad": 1465,
      "eo": 1466,
      "porte": 1467,
      "Cuando": 1468,
      "tri": 1469,
      "oria": 1470,
      "ables": 1471,
      "adie": 1472,
      "gni": 1473,
      "Ġgeneral": 1474,
      "Ġdijo": 1475,
      "lig": 1476,
      "Como": 1477,
      "ĠMa": 1478,
      "ye": 1479,
      "ctu": 1480,
      "ĠMe": 1481,
      "Ġderecho": 1482,
      "Ġinte": 1483,
      "cor": 1484,
      "Ġpadre": 1485,
      "edad": 1486,
      "fo": 1487,
      "Ġprograma": 1488,
      "Ġcono": 1489,
      "Ġherman": 1490,
      "entras": 1491,
      "blic": 1492,
      "peraciÃ³n": 1493,
      "cular": 1494,
      "Ġcont": 1495,
      "ĠserÃ¡": 1496,
      "ĠahÃŃ": 1497,
      "unque": 1498,
      "Ġgan": 1499,
      "dor": 1500,
      "Ġmanera": 1501,
      "Ġelec": 1502,
      "Ġban": 1503,
      "Ġpresente": 1504,
      "Hay": 1505,
      "CI": 1506,
      "Ġcondi": 1507,
      "ensa": 1508,
      "Ġestableci": 1509,
      "ion": 1510,
      "len": 1511,
      "Ġvuel": 1512,
      "tido": 1513,
      "ÂŃ": 1514,
      "tores": 1515,
      "Ġpal": 1516,
      "Di": 1517,
      "Ġide": 1518,
      "uir": 1519,
      "Ġadminist": 1520,
      "Ġrecon": 1521,
      "Ġalguien": 1522,
      "eras": 1523,
      "Ġfuncion": 1524,
      "Ġref": 1525,
      "Ġinvesti": 1526,
      "Ġbo": 1527,
      "Ġale": 1528,
      "ĠcÃ³mo": 1529,
      "Ġleg": 1530,
      "Ġcier": 1531,
      "Ġcualquier": 1532,
      "Ġparticip": 1533,
      "Ġvamos": 1534,
      "10": 1535,
      "ĠperÃŃodo": 1536,
      "men": 1537,
      "torio": 1538,
      "Ġgu": 1539,
      "Ġseguridad": 1540,
      "venciÃ³n": 1541,
      "Ġdifer": 1542,
      "Ġins": 1543,
      "Ġorden": 1544,
      "Ġint": 1545,
      "Ġfamilia": 1546,
      "Ġentr": 1547,
      "icia": 1548,
      "Ġpersona": 1549,
      "Ġpobl": 1550,
      "Ġentonces": 1551,
      "ĠnÃºmero": 1552,
      "Ġinforme": 1553,
      "Ġprofes": 1554,
      "ĠaplicaciÃ³n": 1555,
      "Ġ198": 1556,
      "Po": 1557,
      "Ġcreo": 1558,
      "Entonces": 1559,
      "izo": 1560,
      "Ġanti": 1561,
      "ĠInter": 1562,
      "Ġdetermin": 1563,
      "Ġpreo": 1564,
      "anza": 1565,
      "Ġimportante": 1566,
      "ormi": 1567,
      "ĠCar": 1568,
      "fe": 1569,
      "Ġservicios": 1570,
      "ĠCo": 1571,
      "bles": 1572,
      "Tengo": 1573,
      "Ġnuestro": 1574,
      "ial": 1575,
      "Ġrecur": 1576,
      "Ġdentro": 1577,
      "Ġimp": 1578,
      "ĠComitÃ©": 1579,
      "Ġescri": 1580,
      "Ġrealiz": 1581,
      "visiÃ³n": 1582,
      "Ġcompe": 1583,
      "ombres": 1584,
      "ciales": 1585,
      "ice": 1586,
      "Ã±or": 1587,
      "dan": 1588,
      "ĠeconÃ³m": 1589,
      "Ġ20": 1590,
      "Ġpunto": 1591,
      "Ġembar": 1592,
      "ez": 1593,
      "Ġdinero": 1594,
      "Ġmill": 1595,
      "ĠÃ": 1596,
      "abor": 1597,
      "siones": 1598,
      "Ġtermin": 1599,
      "Ġpoder": 1600,
      "laro": 1601,
      "ĠâĢľ": 1602,
      "ĠmÃ©": 1603,
      "tenciÃ³n": 1604,
      "ecre": 1605,
      "quÃ©": 1606,
      "Ġtotal": 1607,
      "Sin": 1608,
      "Ġhijo": 1609,
      "Ġreun": 1610,
      "Ġlar": 1611,
      "jas": 1612,
      "Ġrepresent": 1613,
      "Ġexper": 1614,
      "ves": 1615,
      "ard": 1616,
      "An": 1617,
      "respon": 1618,
      "Ġsolici": 1619,
      "ĠniÃ±os": 1620,
      "Ġhacia": 1621,
      "SÃ³lo": 1622,
      "Ġigu": 1623,
      "ĠpodrÃŃa": 1624,
      "ĠPa": 1625,
      "ĠpolÃŃtica": 1626,
      "EN": 1627,
      "bido": 1628,
      "ĠtenÃŃa": 1629,
      "reg": 1630,
      "Ġtenemos": 1631,
      "Ġfueron": 1632,
      "Ġvo": 1633,
      "Ġextra": 1634,
      "ĠSu": 1635,
      "199": 1636,
      "Ġayuda": 1637,
      "ĠFran": 1638,
      "tando": 1639,
      "Ġinteres": 1640,
      "Ġjust": 1641,
      "QuiÃ©n": 1642,
      "Ġses": 1643,
      "olo": 1644,
      "Ġactividades": 1645,
      "Ġ17": 1646,
      "ÃŃamos": 1647,
      "ticos": 1648,
      "atro": 1649,
      "uros": 1650,
      "Ġestudi": 1651,
      "Ġnuestra": 1652,
      "EstÃ¡s": 1653,
      "ER": 1654,
      "Ġ11": 1655,
      "Ġescu": 1656,
      "Ġseman": 1657,
      "Ġnovi": 1658,
      "ĠTra": 1659,
      "Ġbajo": 1660,
      "Ġemple": 1661,
      "vir": 1662,
      "Ã©cn": 1663,
      "Ġsector": 1664,
      "ban": 1665,
      "Ġabri": 1666,
      "ini": 1667,
      "Ġante": 1668,
      "Ġpuedes": 1669,
      "ĠCa": 1670,
      "Ġmor": 1671,
      "ĠReglamento": 1672,
      "Ġbar": 1673,
      "ital": 1674,
      "Ġedi": 1675,
      "Ġpersonal": 1676,
      "Ã¡ndo": 1677,
      "Ġhaciendo": 1678,
      "bri": 1679,
      "ON": 1680,
      "terior": 1681,
      "Ġveces": 1682,
      "Ġ13": 1683,
      "Ġayudar": 1684,
      "Ġclas": 1685,
      "Ġuni": 1686,
      "ral": 1687,
      "Ġsigni": 1688,
      "Ġproyecto": 1689,
      "OS": 1690,
      "Ġcin": 1691,
      "orte": 1692,
      "vil": 1693,
      "ne": 1694,
      "Ġvis": 1695,
      "Ġmujeres": 1696,
      "Ġeuro": 1697,
      "Ġnecesit": 1698,
      "Ġcorrespon": 1699,
      "Ġembargo": 1700,
      "ĠEuropea": 1701,
      "Ġlim": 1702,
      "bas": 1703,
      "ĠMi": 1704,
      "Ġag": 1705,
      "Ġinternacional": 1706,
      "Ã±ana": 1707,
      "Ã³g": 1708,
      "Ġpublic": 1709,
      "mientos": 1710,
      "Ġjun": 1711,
      "Ġdicho": 1712,
      "vÃŃa": 1713,
      "ĠUniÃ³n": 1714,
      "ental": 1715,
      "Ġgener": 1716,
      "Ġdocu": 1717,
      "rado": 1718,
      "Ġsabes": 1719,
      "Ġdice": 1720,
      "Ġsiguiente": 1721,
      "ĠX": 1722,
      "Ġposible": 1723,
      "Ġgas": 1724,
      "Ġrespecto": 1725,
      "Ġutiliz": 1726,
      "echa": 1727,
      "alizar": 1728,
      "12": 1729,
      "mar": 1730,
      "ĠLo": 1731,
      "Ġ14": 1732,
      "ĠrelaciÃ³n": 1733,
      "eb": 1734,
      "Ġ16": 1735,
      "ĠRo": 1736,
      "Ġunos": 1737,
      "gor": 1738,
      "dida": 1739,
      "Ġases": 1740,
      "Ġ)": 1741,
      "Quiero": 1742,
      "iciones": 1743,
      "Ġvas": 1744,
      "ual": 1745,
      "Ġmas": 1746,
      "osa": 1747,
      "Ġgrupo": 1748,
      "Ġprevi": 1749,
      "inas": 1750,
      "Ġquieres": 1751,
      "Ã¡pi": 1752,
      "ĠmÃ¡": 1753,
      "Ġfor": 1754,
      "Ġdiciembre": 1755,
      "Creo": 1756,
      "Ġaf": 1757,
      "uela": 1758,
      "ques": 1759,
      "uerra": 1760,
      "TÃº": 1761,
      "Ġquiere": 1762,
      "Ġcele": 1763,
      "ha": 1764,
      "Ġcosa": 1765,
      "abilidad": 1766,
      "Ġhizo": 1767,
      "stas": 1768,
      "Ġsa": 1769,
      "mis": 1770,
      "oma": 1771,
      "Ġmillones": 1772,
      "son": 1773,
      "bor": 1774,
      "Ġhoy": 1775,
      "pro": 1776,
      "imi": 1777,
      "Ġejemp": 1778,
      "Ġfinal": 1779,
      "Ġalgunos": 1780,
      "Ġluego": 1781,
      "Ġ30": 1782,
      "Ġsaber": 1783,
      "bajo": 1784,
      "ArtÃŃculo": 1785,
      "DÃ³nde": 1786,
      "alo": 1787,
      "ĠZ": 1788,
      "Ġmadre": 1789,
      "Ġproblema": 1790,
      "Ade": 1791,
      "Ġparece": 1792,
      "istas": 1793,
      "izaciÃ³n": 1794,
      "Ġprepar": 1795,
      "ono": 1796,
      "Ġdejar": 1797,
      "ase": 1798,
      "pre": 1799,
      "Ġley": 1800,
      "Ãºblica": 1801,
      "dir": 1802,
      "Tu": 1803,
      "ĠsituaciÃ³n": 1804,
      "ura": 1805,
      "II": 1806,
      "iste": 1807,
      "Ġtendr": 1808,
      "AR": 1809,
      "Ġpod": 1810,
      "Ġ...": 1811,
      "bol": 1812,
      "mentos": 1813,
      "ciden": 1814,
      "Ġdese": 1815,
      "Ġinici": 1816,
      "Ġgaran": 1817,
      "Ġcontrol": 1818,
      "ĠAm": 1819,
      "Ġpropi": 1820,
      "tario": 1821,
      "Ġequipo": 1822,
      "Par": 1823,
      "erda": 1824,
      "Ġdatos": 1825,
      "Ġparticular": 1826,
      "Ġele": 1827,
      "TambiÃ©n": 1828,
      "Ġconti": 1829,
      "Fue": 1830,
      "segui": 1831,
      "Ġhoras": 1832,
      "Ġobs": 1833,
      "Ã³di": 1834,
      "ama": 1835,
      "Ġmientras": 1836,
      "tific": 1837,
      "inaciÃ³n": 1838,
      "zos": 1839,
      "Ġagua": 1840,
      "tis": 1841,
      "Ġestamos": 1842,
      "Ġhabl": 1843,
      "ĠLe": 1844,
      "ĠallÃŃ": 1845,
      "Ġpuer": 1846,
      "Ġtarde": 1847,
      "ÃŃtu": 1848,
      "ill": 1849,
      "lante": 1850,
      "pti": 1851,
      "ria": 1852,
      "Ġnego": 1853,
      "bilidad": 1854,
      "paÃ±a": 1855,
      "Ġdeclar": 1856,
      "fico": 1857,
      "seÃ±": 1858,
      "Ġamigo": 1859,
      "posiciÃ³n": 1860,
      "Ġmisma": 1861,
      "Ġimpor": 1862,
      "vers": 1863,
      "ke": 1864,
      "Ġbueno": 1865,
      "Ġproblemas": 1866,
      "Ġnatur": 1867,
      "Ġhombres": 1868,
      "Ġespec": 1869,
      "Ġsue": 1870,
      "tante": 1871,
      "Ġliber": 1872,
      "litar": 1873,
      "dial": 1874,
      "Per": 1875,
      "vin": 1876,
      "Ġproductos": 1877,
      "ĠJo": 1878,
      "Ġdiri": 1879,
      "Ġcaus": 1880,
      "Ġmodi": 1881,
      "Ġdif": 1882,
      "encias": 1883,
      "ĠPresidente": 1884,
      "ĠmaÃ±ana": 1885,
      "Ġcapaci": 1886,
      "Ġigual": 1887,
      "Ġrespons": 1888,
      "Ġpueb": 1889,
      "Ġllegar": 1890,
      "Ġcompro": 1891,
      "ĠrazÃ³n": 1892,
      "Soy": 1893,
      "Ġnacional": 1894,
      "ible": 1895,
      "ĠtÃ©cn": 1896,
      "Ġterri": 1897,
      "Ġencontrar": 1898,
      "Ġminu": 1899,
      "Ġprocedi": 1900,
      "Ġexam": 1901,
      "AS": 1902,
      "Ġconst": 1903,
      "dose": 1904,
      "uaciÃ³n": 1905,
      "Ġgracias": 1906,
      "guna": 1907,
      "Ġhumanos": 1908,
      "Ġacer": 1909,
      "Ġinst": 1910,
      "Ġbase": 1911,
      "ĠSi": 1912,
      "cional": 1913,
      "ĠpoblaciÃ³n": 1914,
      "rÃŃa": 1915,
      "Ġru": 1916,
      "xto": 1917,
      "Ġtus": 1918,
      "Ġpalab": 1919,
      "ut": 1920,
      "Pro": 1921,
      "diente": 1922,
      "ris": 1923,
      "Ġori": 1924,
      "Ġcondiciones": 1925,
      "eza": 1926,
      "Ġdispon": 1927,
      "Ġeran": 1928,
      "arlo": 1929,
      "ĠâĢĶ": 1930,
      "Ġho": 1931,
      "arÃ¡n": 1932,
      "pÃºblica": 1933,
      "ĠquiÃ©n": 1934,
      "vÃ©s": 1935,
      "imo": 1936,
      "Ġregi": 1937,
      "Ġcomunic": 1938,
      "Ġalcan": 1939,
      "Ġnadie": 1940,
      "ag": 1941,
      "DO": 1942,
      "Ġvolver": 1943,
      "tera": 1944,
      "Ġcoo": 1945,
      "jes": 1946,
      "Ġesos": 1947,
      "Ġhistoria": 1948,
      "Ġaque": 1949,
      "ĠUnidos": 1950,
      "Ġinstitu": 1951,
      "zÃ³": 1952,
      "Ġhabit": 1953,
      "tada": 1954,
      "ĠresoluciÃ³n": 1955,
      "Ġapartado": 1956,
      "dust": 1957,
      "ĠSo": 1958,
      "ror": 1959,
      "Ġampli": 1960,
      "recciÃ³n": 1961,
      "Ġbuena": 1962,
      "icÃŃa": 1963,
      "Ãīl": 1964,
      "AN": 1965,
      "amÃ¡": 1966,
      "Ġaprob": 1967,
      "ĠaÃºn": 1968,
      "ĠLi": 1969,
      "ry": 1970,
      "11": 1971,
      "bir": 1972,
      "Ġsocial": 1973,
      "cto": 1974,
      "Ġlado": 1975,
      "Ġviol": 1976,
      "Ġpasado": 1977,
      "til": 1978,
      "gÃ³": 1979,
      "Ġseguro": 1980,
      "Ġhaya": 1981,
      "pel": 1982,
      "ĠOr": 1983,
      "ĠGobierno": 1984,
      "-Â¿": 1985,
      "Ġmeses": 1986,
      "Ġmediante": 1987,
      "Ġtor": 1988,
      "und": 1989,
      "Ġcuan": 1990,
      "acio": 1991,
      "ĠprÃ¡c": 1992,
      "Todo": 1993,
      "ĠtravÃ©s": 1994,
      "ecer": 1995,
      "Ġproceso": 1996,
      "Ġagr": 1997,
      "esta": 1998,
      "ficiente": 1999,
      "Sabes": 2000,
      "Ġmuchos": 2001,
      "Ġsom": 2002,
      "Ġcole": 2003,
      "Ġempe": 2004,
      "Ġdistin": 2005,
      "Ġcir": 2006,
      "Ġhici": 2007,
      "Ġincluy": 2008,
      "Ġsiendo": 2009,
      "quiera": 2010,
      "Ġapoyo": 2011,
      "Ġoport": 2012,
      "Ġhora": 2013,
      "Ġfir": 2014,
      "icip": 2015,
      "pera": 2016,
      "Ġencontr": 2017,
      "aste": 2018,
      "end": 2019,
      "ÃŃc": 2020,
      "ĠIntern": 2021,
      "Ġprue": 2022,
      "Ġmercado": 2023,
      "tamento": 2024,
      "Ġsegundo": 2025,
      "Ġoper": 2026,
      "gre": 2027,
      "Ġdeben": 2028,
      "Ġnueva": 2029,
      "echos": 2030,
      "Ã¡m": 2031,
      "Ġjo": 2032,
      "Ġidea": 2033,
      "Ġacab": 2034,
      "ĠrÃ¡pi": 2035,
      "Tienes": 2036,
      "ĠJu": 2037,
      "migo": 2038,
      "dencia": 2039,
      "Ġello": 2040,
      "Ġrecom": 2041,
      "Ġejemplo": 2042,
      "Ġpodemos": 2043,
      "olu": 2044,
      "inar": 2045,
      "eno": 2046,
      "Ġvisto": 2047,
      "Ġpreocup": 2048,
      "Mira": 2049,
      "Ġejec": 2050,
      "Ġcumpli": 2051,
      "cal": 2052,
      "Ġjulio": 2053,
      "Ġenfer": 2054,
      "zado": 2055,
      "ĠBar": 2056,
      "Ġevi": 2057,
      "Ġsabe": 2058,
      "Porque": 2059,
      "Ġsignifica": 2060,
      "entas": 2061,
      "mple": 2062,
      "uido": 2063,
      "ho": 2064,
      "Ġhacerlo": 2065,
      "pas": 2066,
      "Ġempresa": 2067,
      "ĠPor": 2068,
      "tÃ¡": 2069,
      "Nos": 2070,
      "Ġasist": 2071,
      "Ġ25": 2072,
      "Ġcuatro": 2073,
      "Ġzona": 2074,
      "ĠRepÃºblica": 2075,
      "Ġpel": 2076,
      "Ġjunio": 2077,
      "versidad": 2078,
      "Ġpresu": 2079,
      "Ġconsider": 2080,
      "Ven": 2081,
      "20": 2082,
      "Ġinde": 2083,
      "AdemÃ¡s": 2084,
      "He": 2085,
      "Ġw": 2086,
      "Ġtri": 2087,
      "segu": 2088,
      "Ġsig": 2089,
      "Ġgusta": 2090,
      "arme": 2091,
      "Ġamor": 2092,
      "onto": 2093,
      "Ġauto": 2094,
      "ional": 2095,
      "ĠSecre": 2096,
      "Ġmatar": 2097,
      "Ġregres": 2098,
      "tel": 2099,
      "ĠcompaÃ±": 2100,
      "Ġsos": 2101,
      "Ġcuer": 2102,
      "Ġrecursos": 2103,
      "ĠComunidad": 2104,
      "sto": 2105,
      "Ġlogr": 2106,
      "Ġmater": 2107,
      "Ġdesa": 2108,
      "Ġuso": 2109,
      "Ġsino": 2110,
      "Ġexpres": 2111,
      "laciÃ³n": 2112,
      "Ex": 2113,
      "Ella": 2114,
      "ĠÃģ": 2115,
      "ĠDirec": 2116,
      "ric": 2117,
      "Has": 2118,
      "tamiento": 2119,
      "ĠdÃ³nde": 2120,
      "ĠsegÃºn": 2121,
      "iado": 2122,
      "Ġafec": 2123,
      "Ġcompar": 2124,
      "Ġos": 2125,
      "dam": 2126,
      "Ġata": 2127,
      "Ġsiguientes": 2128,
      "Ġis": 2129,
      "riÃ³": 2130,
      "ĠlÃŃ": 2131,
      "Ġarreg": 2132,
      "idos": 2133,
      "ern": 2134,
      "eta": 2135,
      "Ġesf": 2136,
      "Ġpie": 2137,
      "Ġacep": 2138,
      "Ġencuentra": 2139,
      "Ġambi": 2140,
      "Ġaunque": 2141,
      "olÃ³g": 2142,
      "tÃ©": 2143,
      "logÃŃa": 2144,
      "Ġsac": 2145,
      "exo": 2146,
      "Ġpaz": 2147,
      "Ġ197": 2148,
      "Ġdemas": 2149,
      "Ġfran": 2150,
      "ribun": 2151,
      "cimiento": 2152,
      "Ã±as": 2153,
      "ĠlÃŃn": 2154,
      "Ġvalor": 2155,
      "bern": 2156,
      "Ġeuros": 2157,
      "Ġprogramas": 2158,
      "Hab": 2159,
      "Ġmuerte": 2160,
      "Ġbene": 2161,
      "ĠDes": 2162,
      "Ġur": 2163,
      "Eres": 2164,
      "Ġalguna": 2165,
      "rando": 2166,
      "Ġvia": 2167,
      "Ġpartes": 2168,
      "Ġmateri": 2169,
      "Ġenvi": 2170,
      "ĠÃºltimo": 2171,
      "ÃŃtulo": 2172,
      "ĠCor": 2173,
      "tt": 2174,
      "Neces": 2175,
      "Ġinstru": 2176,
      "Ġpromo": 2177,
      "ĠprotecciÃ³n": 2178,
      "ĠmÃŃo": 2179,
      "Â°": 2180,
      "Ġ[": 2181,
      "30": 2182,
      "posiciones": 2183,
      "Ġsex": 2184,
      "tidad": 2185,
      "Ġguerra": 2186,
      "Ġesas": 2187,
      "ĠLey": 2188,
      "Ġocur": 2189,
      "Ġol": 2190,
      "ĠMon": 2191,
      "ĠCent": 2192,
      "Ġconven": 2193,
      "Ġatra": 2194,
      "Ġconmigo": 2195,
      "iene": 2196,
      "alizaciÃ³n": 2197,
      "Ġregist": 2198,
      "erte": 2199,
      "Ġeurope": 2200,
      "aya": 2201,
      "Ġfon": 2202,
      "Ġpartir": 2203,
      "don": 2204,
      "Ġplazo": 2205,
      "Ġquedar": 2206,
      "âĢĶ": 2207,
      "ducaciÃ³n": 2208,
      "Ãĵ": 2209,
      "bra": 2210,
      "ĠMin": 2211,
      "pÃ¡": 2212,
      "Ġacu": 2213,
      "Ġespos": 2214,
      "ĠPer": 2215,
      "ete": 2216,
      "Ġpen": 2217,
      "15": 2218,
      "Ġlargo": 2219,
      "Ġcomen": 2220,
      "Ġcui": 2221,
      "rate": 2222,
      "ducir": 2223,
      "Ġobserv": 2224,
      "fa": 2225,
      "ĠdÃ³": 2226,
      "Ġcli": 2227,
      "ĠIs": 2228,
      "Ġalgunas": 2229,
      "Ġgen": 2230,
      "ias": 2231,
      "Ġsur": 2232,
      "tivamente": 2233,
      "ĠÃ³r": 2234,
      "ĠÃºnico": 2235,
      "gro": 2236,
      "Ġencar": 2237,
      "Ġintent": 2238,
      "Ġenero": 2239,
      "Ġnoviembre": 2240,
      "Ġinvi": 2241,
      "Ġfo": 2242,
      "ĠinvestigaciÃ³n": 2243,
      "toria": 2244,
      "clu": 2245,
      "Nunca": 2246,
      "Ġcontrib": 2247,
      "tiÃ³": 2248,
      "id": 2249,
      "dico": 2250,
      "ĠTo": 2251,
      "Ġejer": 2252,
      "Ġpien": 2253,
      "ĠdeberÃŃa": 2254,
      "Ġcambio": 2255,
      "Ġnacionales": 2256,
      "ĠBa": 2257,
      "ĠpÃ¡r": 2258,
      "Ġconstitu": 2259,
      "dÃŃ": 2260,
      "ĠpolicÃŃa": 2261,
      "Ã©j": 2262,
      "Ġgobierno": 2263,
      "AquÃŃ": 2264,
      "tion": 2265,
      "ell": 2266,
      "ĠMun": 2267,
      "Muy": 2268,
      "ĠEuropeo": 2269,
      "emas": 2270,
      "Ġcerca": 2271,
      "ĠParlamento": 2272,
      "Ġhemos": 2273,
      "Ġcamino": 2274,
      "llos": 2275,
      "ĠEuropa": 2276,
      "Ġadministra": 2277,
      "Ġsoci": 2278,
      "iencia": 2279,
      "bos": 2280,
      "Ġdije": 2281,
      "inos": 2282,
      "imiento": 2283,
      "ĠcomÃºn": 2284,
      "Ġimporta": 2285,
      "Ġofre": 2286,
      "Ġservicio": 2287,
      "Ġindust": 2288,
      "Ġtec": 2289,
      "Ġfrente": 2290,
      "ares": 2291,
      "Ġeval": 2292,
      "Ġempresas": 2293,
      "Ġmanten": 2294,
      "tio": 2295,
      "rea": 2296,
      "ctubre": 2297,
      "Ġmarzo": 2298,
      "Ġtrata": 2299,
      "ĠdecisiÃ³n": 2300,
      "Ġconstru": 2301,
      "unci": 2302,
      "16": 2303,
      "Ġcinco": 2304,
      "ueva": 2305,
      "entales": 2306,
      "Ġjur": 2307,
      "amble": 2308,
      "remos": 2309,
      "Ġlegis": 2310,
      "eric": 2311,
      "Ġrefi": 2312,
      "Ġmayo": 2313,
      "Buen": 2314,
      "Ġ24": 2315,
      "ĠfÃ¡": 2316,
      "Ġconsegui": 2317,
      "Ġconj": 2318,
      "gles": 2319,
      "ches": 2320,
      "Ġlabor": 2321,
      "Ġsesiones": 2322,
      "ĠserÃŃa": 2323,
      "cito": 2324,
      "__": 2325,
      "Tiene": 2326,
      "Ġgrandes": 2327,
      "Ġqu": 2328,
      "Ġtempor": 2329,
      "ptiembre": 2330,
      "diendo": 2331,
      "Ġmateria": 2332,
      "cin": 2333,
      "trÃ¡s": 2334,
      "ĠcooperaciÃ³n": 2335,
      "Ġvie": 2336,
      "Ġmiembro": 2337,
      "Ã¼": 2338,
      "Ġcentro": 2339,
      "rÃ¡n": 2340,
      "ula": 2341,
      "mbi": 2342,
      "Ġconten": 2343,
      "Ġanim": 2344,
      "Ġnecesario": 2345,
      "Ġmovi": 2346,
      "ĠBo": 2347,
      "una": 2348,
      "Ġsalud": 2349,
      "Dios": 2350,
      "Ġmunicip": 2351,
      "Ġtele": 2352,
      "18": 2353,
      "AL": 2354,
      "Ġcur": 2355,
      "Ġcabeza": 2356,
      "Solo": 2357,
      "Ġnuestros": 2358,
      "zÃ¡": 2359,
      "Ġrelacion": 2360,
      "tran": 2361,
      "her": 2362,
      "Ġsuce": 2363,
      "Ġpropor": 2364,
      "amblea": 2365,
      "Ġdiver": 2366,
      "Ġoctubre": 2367,
      "Ġfecha": 2368,
      "Ġserio": 2369,
      "Ġtrad": 2370,
      "ormidad": 2371,
      "ĠdÃ³lares": 2372,
      "ts": 2373,
      "Ġmodo": 2374,
      "Ġcelebr": 2375,
      "ÃŃfic": 2376,
      "erÃŃa": 2377,
      "Ġjunto": 2378,
      "tÃ³n": 2379,
      "Ġconsec": 2380,
      "Ġener": 2381,
      "Ġcasos": 2382,
      "Tenemos": 2383,
      "ĠPo": 2384,
      "Ġtomar": 2385,
      "Todos": 2386,
      "Ġdemasiado": 2387,
      "Âº": 2388,
      "Rec": 2389,
      "llas": 2390,
      "ĠOfici": 2391,
      "Ġgaranti": 2392,
      "Ġsen": 2393,
      "tÃ¡n": 2394,
      "turas": 2395,
      "Ġpueblo": 2396,
      "ĠdemÃ¡s": 2397,
      "dito": 2398,
      "Ġ:": 2399,
      "ĠmayorÃŃa": 2400,
      "Ġpueda": 2401,
      "Ġcontigo": 2402,
      "edes": 2403,
      "efe": 2404,
      "Ġserie": 2405,
      "Ġgol": 2406,
      "partamento": 2407,
      "hn": 2408,
      "Ġcomunit": 2409,
      "Ġsecre": 2410,
      "Ġcora": 2411,
      "Quieres": 2412,
      "Ġpriv": 2413,
      "Ġcuar": 2414,
      "ck": 2415,
      "Ġalim": 2416,
      "Ġreal": 2417,
      "Ġseptiembre": 2418,
      "Ġmencion": 2419,
      "Son": 2420,
      "ĠproducciÃ³n": 2421,
      "Ġmarco": 2422,
      "Ġries": 2423,
      "avi": 2424,
      "Ġmuchas": 2425,
      "ÃŃdo": 2426,
      "Ġmucha": 2427,
      "Dis": 2428,
      "ĠpelÃŃcu": 2429,
      "ĠprÃ³": 2430,
      "biÃ³": 2431,
      "ĠDer": 2432,
      "Ġcara": 2433,
      "Ġbenefici": 2434,
      "50": 2435,
      "Ġvan": 2436,
      "Ġpuesto": 2437,
      "Ġsali": 2438,
      "ima": 2439,
      "Ġconformidad": 2440,
      "Ġsentido": 2441,
      "icamente": 2442,
      "ĠalgÃºn": 2443,
      "ple": 2444,
      "Ġcasi": 2445,
      "ĠMo": 2446,
      "char": 2447,
      "Ġsalir": 2448,
      "ĠademÃ¡s": 2449,
      "ick": 2450,
      "ĠAle": 2451,
      "chi": 2452,
      "ire": 2453,
      "rim": 2454,
      "ĠatenciÃ³n": 2455,
      "ler": 2456,
      "dic": 2457,
      "Ġponer": 2458,
      "brero": 2459,
      "CEE": 2460,
      "Ġocup": 2461,
      "Ġsuficiente": 2462,
      "Ġvir": 2463,
      "Ġenten": 2464,
      "ific": 2465,
      "Ġdiferentes": 2466,
      "Ġsemana": 2467,
      "inado": 2468,
      "ĠningÃºn": 2469,
      "Ġrealidad": 2470,
      "Ġnormas": 2471,
      "OM": 2472,
      "tom": 2473,
      "Ġcr": 2474,
      "Ġ22": 2475,
      "OR": 2476,
      "Ġrad": 2477,
      "Ġarmas": 2478,
      "ĠSal": 2479,
      "Ġev": 2480,
      "Ġasegu": 2481,
      "Ġer": 2482,
      "Ġabril": 2483,
      "ĠpÃºblico": 2484,
      "ĠpasÃ³": 2485,
      "Ġlibre": 2486,
      "ĠÃºltima": 2487,
      "onales": 2488,
      "Ġlista": 2489,
      "cis": 2490,
      "Oye": 2491,
      "Ġ2006": 2492,
      "Ġninguna": 2493,
      "Ġpasar": 2494,
      "Mu": 2495,
      "ĠEx": 2496,
      "urante": 2497,
      "Ġcontinu": 2498,
      "Ġconte": 2499,
      "ĠquerÃŃa": 2500,
      "ĠmÃ¡xim": 2501,
      "gia": 2502,
      "Ġhubi": 2503,
      "pios": 2504,
      "Ġamigos": 2505,
      "Ġcapacidad": 2506,
      "Ġllevar": 2507,
      "Ġminutos": 2508,
      "ervi": 2509,
      "Ġacceso": 2510,
      "ĠAsamblea": 2511,
      "ĠtÃ©r": 2512,
      ".\"": 2513,
      "Ch": 2514,
      "Ġconfi": 2515,
      "Ġrealmente": 2516,
      "Ġobli": 2517,
      "14": 2518,
      "13": 2519,
      "Ġestru": 2520,
      "Ġblan": 2521,
      "cidad": 2522,
      "ÃŃr": 2523,
      "Ġ%": 2524,
      "Ġat": 2525,
      "Ã¡g": 2526,
      "IC": 2527,
      "adamente": 2528,
      "ĠcuestiÃ³n": 2529,
      "Ġhermano": 2530,
      "ĠdifÃŃ": 2531,
      "Ġasoci": 2532,
      "AD": 2533,
      "ĠÃ¡mbi": 2534,
      "Ġobjetivo": 2535,
      "Ġsupon": 2536,
      "Ġincluso": 2537,
      "dientes": 2538,
      "Ġutili": 2539,
      "ĠSeÃ±or": 2540,
      "Ã©rica": 2541,
      "Voy": 2542,
      "Ġconsidera": 2543,
      "Ġren": 2544,
      "Ġconsul": 2545,
      "Ġcuesti": 2546,
      "ĠseÃ±al": 2547,
      "Ġperman": 2548,
      "Ġdescu": 2549,
      "ĠFe": 2550,
      "ĠenseÃ±": 2551,
      "est": 2552,
      "Ġiden": 2553,
      "ribunal": 2554,
      "ka": 2555,
      "cent": 2556,
      "Ġcierto": 2557,
      "var": 2558,
      "Ġpan": 2559,
      "ĠCu": 2560,
      "Puedo": 2561,
      "Ġ2005": 2562,
      "Ġolvi": 2563,
      "Ġ2000": 2564,
      "ĠformaciÃ³n": 2565,
      "Ġsupuesto": 2566,
      "forme": 2567,
      "rupos": 2568,
      "Ġrec": 2569,
      "ĠGu": 2570,
      "Ġorig": 2571,
      "ww": 2572,
      "tarÃŃa": 2573,
      "oo": 2574,
      "ĠgestiÃ³n": 2575,
      "alia": 2576,
      "ĠLos": 2577,
      "Ġthe": 2578,
      "ĠPol": 2579,
      "Ġdisposiciones": 2580,
      "ÃĵN": 2581,
      "Ġtierra": 2582,
      "ĠregiÃ³n": 2583,
      "sted": 2584,
      "ĠSegu": 2585,
      "Ġvarios": 2586,
      "Ġmano": 2587,
      "Ġagu": 2588,
      "Ġinclui": 2589,
      "Ġconver": 2590,
      "Tra": 2591,
      "lica": 2592,
      "Ġfaci": 2593,
      "gada": 2594,
      "eren": 2595,
      "uman": 2596,
      "Ġinternacionales": 2597,
      "ĠDO": 2598,
      "Ġregu": 2599,
      "ĠprÃ³xim": 2600,
      "Ã©is": 2601,
      "ĠAd": 2602,
      "ĠMinist": 2603,
      "Ġfigu": 2604,
      "Ġprincipal": 2605,
      "Desde": 2606,
      "tencia": 2607,
      "tadas": 2608,
      "ĠNacional": 2609,
      "Ġlan": 2610,
      "Ġcalidad": 2611,
      "Ġorganizaciones": 2612,
      "ĠBan": 2613,
      "ĠCas": 2614,
      "ĠNe": 2615,
      "Ġcompren": 2616,
      "ĠMan": 2617,
      "Ġrespe": 2618,
      "Ġcuerpo": 2619,
      "Ġefectos": 2620,
      "Ġcuanto": 2621,
      "Ġ2004": 2622,
      "Ġmos": 2623,
      "orn": 2624,
      "Ġvista": 2625,
      "ĠCatal": 2626,
      "Ġprimero": 2627,
      "Ġseguir": 2628,
      "Ġjue": 2629,
      "stan": 2630,
      "Ġreco": 2631,
      "cisiÃ³n": 2632,
      "ese": 2633,
      "17": 2634,
      "ĠInternacional": 2635,
      "Ġpapel": 2636,
      "ff": 2637,
      "cepto": 2638,
      "ismos": 2639,
      "ile": 2640,
      "Ġdebido": 2641,
      "tec": 2642,
      "IN": 2643,
      "rin": 2644,
      "Ġtuvo": 2645,
      "turo": 2646,
      "au": 2647,
      "verdad": 2648,
      "Ġpropuesta": 2649,
      "Ġvig": 2650,
      "Ġestre": 2651,
      "ack": 2652,
      "Ġorigin": 2653,
      "Ġcabo": 2654,
      "ĠpÃ¡rra": 2655,
      "dero": 2656,
      "este": 2657,
      "Ġprob": 2658,
      "abas": 2659,
      "Ġrealizar": 2660,
      "tic": 2661,
      "adora": 2662,
      "ĠespaÃ±": 2663,
      "ĠniÃ±o": 2664,
      "Ġresultados": 2665,
      "ĠtÃ©rmin": 2666,
      "ĠCol": 2667,
      "Ġcate": 2668,
      "Ġdefini": 2669,
      "ablemente": 2670,
      "Ġhijos": 2671,
      "gel": 2672,
      "Ġ23": 2673,
      "Ġtema": 2674,
      "Ġmedios": 2675,
      "xi": 2676,
      "quisi": 2677,
      "Ġustedes": 2678,
      "Ġjuego": 2679,
      "sia": 2680,
      "ĠpolÃŃticas": 2681,
      "bic": 2682,
      "ĠjurÃŃ": 2683,
      "ĠtodavÃŃa": 2684,
      "dÃ³": 2685,
      "Ġconce": 2686,
      "ĠGrupo": 2687,
      "Ġreconoci": 2688,
      "lado": 2689,
      "Ġgrupos": 2690,
      "Ġgo": 2691,
      "ĠlÃŃnea": 2692,
      "Ġfundam": 2693,
      "puestas": 2694,
      "Ġesfuer": 2695,
      "Ġhac": 2696,
      "Ġsigue": 2697,
      "ĠmÃºs": 2698,
      "Ġadecu": 2699,
      "Ġincre": 2700,
      "Podr": 2701,
      "gim": 2702,
      "Ġelem": 2703,
      "ĠpodrÃ¡": 2704,
      "Ġmodific": 2705,
      "Ġ26": 2706,
      "Ġmues": 2707,
      "Ġhaces": 2708,
      "gido": 2709,
      "Ġinstal": 2710,
      "unta": 2711,
      "Ġacerca": 2712,
      "DespuÃ©s": 2713,
      "ĠQ": 2714,
      "ĠCam": 2715,
      "Ġadi": 2716,
      "ÃŃsticas": 2717,
      "lie": 2718,
      "Ġsiglo": 2719,
      "ĠEspaÃ±a": 2720,
      "teriores": 2721,
      "bia": 2722,
      "Ni": 2723,
      "201": 2724,
      "Ġencan": 2725,
      "Ġ2008": 2726,
      "Ġ2007": 2727,
      "Ġdispar": 2728,
      "Ġfalta": 2729,
      "Ġmol": 2730,
      "Ġprocedimiento": 2731,
      "Ġ/": 2732,
      "Ġmierda": 2733,
      "Ġapren": 2734,
      "Ġpuerta": 2735,
      "mÃ¡": 2736,
      "Ġunas": 2737,
      "Ġanexo": 2738,
      "Ġtemp": 2739,
      "Ġchica": 2740,
      "eas": 2741,
      "Ġsuf": 2742,
      "Ġmode": 2743,
      "IS": 2744,
      "UR": 2745,
      "Ġgrande": 2746,
      "ĠCan": 2747,
      "Ġvac": 2748,
      "ĠeducaciÃ³n": 2749,
      "Ġsegunda": 2750,
      "Ġcru": 2751,
      "----": 2752,
      "Ġperten": 2753,
      "Ġconsecuen": 2754,
      "Ġelabor": 2755,
      "ron": 2756,
      "Ġpudi": 2757,
      "Ġmanos": 2758,
      "Ġ196": 2759,
      "Ġdeba": 2760,
      "bur": 2761,
      "Ese": 2762,
      "Ġclase": 2763,
      "cando": 2764,
      "....": 2765,
      "Ġprome": 2766,
      "25": 2767,
      "Ġtrabajadores": 2768,
      "dedor": 2769,
      "Ġvari": 2770,
      "dica": 2771,
      "Ġfebrero": 2772,
      "Ġproyectos": 2773,
      "Ġcarac": 2774,
      "Ġasistencia": 2775,
      "ly": 2776,
      "ID": 2777,
      "aremos": 2778,
      "Ġmuerto": 2779,
      "ĠCE": 2780,
      "Ġprincipio": 2781,
      "Ġsociedad": 2782,
      "umi": 2783,
      "erva": 2784,
      "ĠcorazÃ³n": 2785,
      "pciÃ³n": 2786,
      "Ġcl": 2787,
      "ĠPe": 2788,
      "Ġmilitar": 2789,
      "Ġnoti": 2790,
      "eran": 2791,
      "ĠestÃ©": 2792,
      "Ġmani": 2793,
      "Ġder": 2794,
      "Ġedad": 2795,
      "Ġmantener": 2796,
      "SÃ©": 2797,
      "ĠYo": 2798,
      "gosto": 2799,
      "Ġprecios": 2800,
      "ĠinterÃ©s": 2801,
      "adres": 2802,
      "Usted": 2803,
      "monio": 2804,
      "Ġtrabajar": 2805,
      "zco": 2806,
      "ĠdifÃŃcil": 2807,
      "ĠparticipaciÃ³n": 2808,
      "Ġautoridades": 2809,
      "Era": 2810,
      "ĠSecretario": 2811,
      "gimen": 2812,
      "Ġmedida": 2813,
      "Ġhija": 2814,
      "Ġsuperior": 2815,
      "Ġ21": 2816,
      "ĠacciÃ³n": 2817,
      "Ġindepen": 2818,
      "ĠÃºnica": 2819,
      "gl": 2820,
      "Ġ28": 2821,
      "lub": 2822,
      "just": 2823,
      "Ġcargo": 2824,
      "Ġopin": 2825,
      "Ġrecu": 2826,
      "pero": 2827,
      "ĠLu": 2828,
      "ificaciÃ³n": 2829,
      "Ġ31": 2830,
      "Ã©gimen": 2831,
      "Ġclaro": 2832,
      "Ġnuevos": 2833,
      "Ġubic": 2834,
      "Ġfuturo": 2835,
      "Ġtel": 2836,
      "Pre": 2837,
      "miso": 2838,
      "Ġarri": 2839,
      "Ġactividad": 2840,
      "culo": 2841,
      "Ġconta": 2842,
      "mes": 2843,
      "ĠTratado": 2844,
      "ĠSeguridad": 2845,
      "ĠNueva": 2846,
      "Ġproporcion": 2847,
      "Ġobjetivos": 2848,
      "via": 2849,
      "Ma": 2850,
      "Ġingres": 2851,
      "Ġ29": 2852,
      "Ġnuevas": 2853,
      "Ġobjeto": 2854,
      "Ġoportunidad": 2855,
      "Ġfuerte": 2856,
      "enso": 2857,
      "imos": 2858,
      "Ġguar": 2859,
      "Ġfra": 2860,
      "Ġseis": 2861,
      "ĠfÃ¡cil": 2862,
      "Ġbri": 2863,
      "omÃŃa": 2864,
      "ĠorganizaciÃ³n": 2865,
      "Ġ2002": 2866,
      "ormente": 2867,
      "ĠDirectiva": 2868,
      "Ġbi": 2869,
      "ork": 2870,
      "Ġ27": 2871,
      "tida": 2872,
      "bres": 2873,
      "ariÃ±o": 2874,
      "Ġtenido": 2875,
      "Ġ2001": 2876,
      "illa": 2877,
      "cido": 2878,
      "udo": 2879,
      "SeÃ±or": 2880,
      "Ġ50": 2881,
      "ki": 2882,
      "ĠGran": 2883,
      "Ġnecesidad": 2884,
      "Ġbe": 2885,
      "anas": 2886,
      "40": 2887,
      "Ġluz": 2888,
      "rera": 2889,
      "Ġ2003": 2890,
      "Ġesposa": 2891,
      "Ġ2010": 2892,
      "ĠhabÃŃan": 2893,
      "Ġobst": 2894,
      "olver": 2895,
      "Ġvisit": 2896,
      "Ġrefer": 2897,
      "Ã¡ndose": 2898,
      "Deb": 2899,
      "ĠpapÃ¡": 2900,
      "ĠmÃŃn": 2901,
      "Ġcuales": 2902,
      "Ġobra": 2903,
      "Ã³si": 2904,
      "Ġagosto": 2905,
      "Ġcuestiones": 2906,
      "entar": 2907,
      "Ġespecialmente": 2908,
      "edo": 2909,
      "Ġdio": 2910,
      "Ġaument": 2911,
      "Ġdado": 2912,
      "Ġalto": 2913,
      "Ġpronto": 2914,
      "ĠmamÃ¡": 2915,
      "Ã¡cter": 2916,
      "gencia": 2917,
      "Ġhos": 2918,
      "Ġimportancia": 2919,
      "Estamos": 2920,
      "Espera": 2921,
      "Ġsimple": 2922,
      "Ġtitu": 2923,
      "Ġtuvi": 2924,
      "ĠreuniÃ³n": 2925,
      "Ġprincipales": 2926,
      "Ġojos": 2927,
      "ĠCi": 2928,
      "Ġespera": 2929,
      "Ġtecno": 2930,
      "Ġabs": 2931,
      "ĠpÃ¡rrafo": 2932,
      "ĠcarÃ¡cter": 2933,
      "Ġnorte": 2934,
      "Ġrecor": 2935,
      "ny": 2936,
      "Ġabier": 2937,
      "ĠdirecciÃ³n": 2938,
      "lidades": 2939,
      "Ġnaci": 2940,
      "Ġpaci": 2941,
      "Res": 2942,
      "Ġmec": 2943,
      "Durante": 2944,
      "Ġgri": 2945,
      "ĠUN": 2946,
      "cipios": 2947,
      "Ġperio": 2948,
      "ĠpequeÃ±o": 2949,
      "Ġsistemas": 2950,
      "ĠpelÃŃcula": 2951,
      "Ġhon": 2952,
      "Ġavan": 2953,
      "gio": 2954,
      "uelo": 2955,
      "Ġtercer": 2956,
      "Ġpuntos": 2957,
      "zÃ¡s": 2958,
      "irm": 2959,
      "ko": 2960,
      "quer": 2961,
      "fun": 2962,
      "TA": 2963,
      "bal": 2964,
      "oro": 2965,
      "tÃŃculos": 2966,
      "Ġejerci": 2967,
      "Ġand": 2968,
      "teriormente": 2969,
      "Ġcategor": 2970,
      "Sal": 2971,
      "Ġprofesional": 2972,
      "Ġcorrec": 2973,
      "Ġdesi": 2974,
      "ĠTi": 2975,
      "Ġconci": 2976,
      "Ġconocer": 2977,
      "ĠDo": 2978,
      "Ġpresidente": 2979,
      "Ã³digo": 2980,
      "tÃŃa": 2981,
      "ĠcrÃ©": 2982,
      "glesia": 2983,
      "Ġinicia": 2984,
      "Ġcapital": 2985,
      "udi": 2986,
      "ĠenergÃŃa": 2987,
      "Ġrelativa": 2988,
      "mor": 2989,
      "erio": 2990,
      "ĠrÃ©gimen": 2991,
      "ĠposiciÃ³n": 2992,
      "Ġinme": 2993,
      "dÃ³n": 2994,
      "Ġcolabor": 2995,
      "ph": 2996,
      "ĠHola": 2997,
      "Ġveo": 2998,
      "ĠÃ¡mbito": 2999,
      "Ġsangre": 3000,
      "grama": 3001,
      "Ġpropia": 3002,
      "Ġestudio": 3003,
      "Ġsor": 3004,
      "Ġdistrib": 3005,
      "Ġefecto": 3006,
      "pren": 3007,
      "arte": 3008,
      "Ġperfec": 3009,
      "Ġcaracter": 3010,
      "Ġaspec": 3011,
      "ĠMundial": 3012,
      "Ġcali": 3013,
      "gando": 3014,
      "Ġarti": 3015,
      "Puede": 3016,
      "erto": 3017,
      "Ġ100": 3018,
      "Ġpaso": 3019,
      "Sr": 3020,
      "zada": 3021,
      "gida": 3022,
      "ĠMÃ©": 3023,
      "Ġpropio": 3024,
      "Ġsitio": 3025,
      "eme": 3026,
      "ĠallÃ¡": 3027,
      "Ġjuntos": 3028,
      "Ġestruc": 3029,
      "Ġactual": 3030,
      "amientos": 3031,
      "ĠÃ³rgan": 3032,
      "cina": 3033,
      "Ġentrar": 3034,
      "omin": 3035,
      "Ġfa": 3036,
      "Ġrespuesta": 3037,
      "Ġimportantes": 3038,
      "Ġtro": 3039,
      "ira": 3040,
      "Ġsepar": 3041,
      "ĠcreaciÃ³n": 3042,
      "Ġoperaciones": 3043,
      "Ġpin": 3044,
      "vent": 3045,
      "Ġedifici": 3046,
      "Ġanterior": 3047,
      "Ġhablando": 3048,
      "ĠMu": 3049,
      "Ġsean": 3050,
      "Ġverda": 3051,
      "gamos": 3052,
      "Ġsuerte": 3053,
      "ritu": 3054,
      "isis": 3055,
      "Ġlen": 3056,
      "Ġsiquiera": 3057,
      "rio": 3058,
      "frica": 3059,
      "estr": 3060,
      "Ġdesem": 3061,
      "Puedes": 3062,
      "ĠII": 3063,
      "ĠrÃ¡pido": 3064,
      "Ġllamado": 3065,
      "Ac": 3066,
      "Ġcomb": 3067,
      "tiendo": 3068,
      "tales": 3069,
      "Ġnegoci": 3070,
      "ĠJos": 3071,
      "Ġdepen": 3072,
      "Ġdele": 3073,
      "Ġexplic": 3074,
      "SegÃºn": 3075,
      "ÃŃfico": 3076,
      "fÃŃa": 3077,
      "Ġresto": 3078,
      "ĠTer": 3079,
      "ecen": 3080,
      "Ġescuela": 3081,
      "Ġkm": 3082,
      "Ġpalabra": 3083,
      "Ġlimit": 3084,
      "Ġmorir": 3085,
      "Ġapoy": 3086,
      "Ġvarias": 3087,
      "Ġalma": 3088,
      "bu": 3089,
      "ĠHo": 3090,
      "gent": 3091,
      "xico": 3092,
      "Ġchico": 3093,
      "Ġcomunidad": 3094,
      "Ġinstituciones": 3095,
      "grÃ¡": 3096,
      "Ġbor": 3097,
      "ĠfunciÃ³n": 3098,
      "Â».": 3099,
      "22": 3100,
      "Ġcreer": 3101,
      "Ġtipos": 3102,
      "jiste": 3103,
      "cÃ³": 3104,
      "ty": 3105,
      "Ġcampo": 3106,
      "Ġarm": 3107,
      "Ġbuscar": 3108,
      "Ġbastante": 3109,
      "ĠRu": 3110,
      "Ġestaban": 3111,
      "Ġjoven": 3112,
      "Ġiba": 3113,
      "Ġcrees": 3114,
      "Ġet": 3115,
      "Ġnecesito": 3116,
      "Ġprincipios": 3117,
      "Tal": 3118,
      "Claro": 3119,
      "Ġacuer": 3120,
      "Ġelim": 3121,
      "taciones": 3122,
      "ĠgustarÃŃa": 3123,
      "ate": 3124,
      "ĠTribunal": 3125,
      "Ġenfr": 3126,
      "diÃ³s": 3127,
      "forma": 3128,
      "ĠUniversidad": 3129,
      "entaciÃ³n": 3130,
      "Ã¡nto": 3131,
      "taron": 3132,
      "Ġconseguir": 3133,
      "ĠVal": 3134,
      "TE": 3135,
      "Ġrecomend": 3136,
      "ĠConvenciÃ³n": 3137,
      "cados": 3138,
      "Ġsele": 3139,
      "dÃŃa": 3140,
      "Estaba": 3141,
      "diciÃ³n": 3142,
      "entemente": 3143,
      "pul": 3144,
      "Ġcoord": 3145,
      "gados": 3146,
      "puestos": 3147,
      "Ġventa": 3148,
      "Ġcuad": 3149,
      "Ġempleo": 3150,
      "taria": 3151,
      "Siempre": 3152,
      "80": 3153,
      "Ġta": 3154,
      "Ġsociales": 3155,
      "Ġhubiera": 3156,
      "later": 3157,
      "Ġcalle": 3158,
      "Ġoblig": 3159,
      "Ġvolun": 3160,
      "Ġdetal": 3161,
      "onia": 3162,
      "ĠSa": 3163,
      "ĠEcon": 3164,
      "dente": 3165,
      "iso": 3166,
      "Ġocas": 3167,
      "rido": 3168,
      "ienda": 3169,
      "Deber": 3170,
      "cionales": 3171,
      "ĠpÃ¡g": 3172,
      "Ġpadres": 3173,
      "pol": 3174,
      "ĠpodÃŃa": 3175,
      "Ġacom": 3176,
      "jero": 3177,
      "rÃ³": 3178,
      "DÃ©j": 3179,
      "ley": 3180,
      "sas": 3181,
      "Ġhacen": 3182,
      "Ġtransporte": 3183,
      "Ġ2009": 3184,
      "Ġlucha": 3185,
      "RE": 3186,
      "dados": 3187,
      "Ġmiedo": 3188,
      "ĠgÃ©n": 3189,
      "Ġqueda": 3190,
      "Ã©f": 3191,
      "Ġexac": 3192,
      "Ġdormi": 3193,
      "Ġpalabras": 3194,
      "Ġestudios": 3195,
      "Ġterror": 3196,
      "ÃŃcti": 3197,
      "Ġfac": 3198,
      "itÃ¡n": 3199,
      "ĠÃ©x": 3200,
      "Esa": 3201,
      "Ġreferencia": 3202,
      "Ġconflic": 3203,
      "Ġchicos": 3204,
      "Ġcomien": 3205,
      "rada": 3206,
      "Aunque": 3207,
      "Mar": 3208,
      "deo": 3209,
      "rededor": 3210,
      "Ġprovin": 3211,
      "dores": 3212,
      "Ġpregunta": 3213,
      "Ã¡lisis": 3214,
      "gal": 3215,
      "Ġespacio": 3216,
      "23": 3217,
      "dez": 3218,
      "ĠpÃºblica": 3219,
      "Ġzonas": 3220,
      "Ġoficial": 3221,
      "Ġmensa": 3222,
      "esiÃ³n": 3223,
      "Ġfre": 3224,
      "Ġutilizar": 3225,
      "Ġdigo": 3226,
      "nas": 3227,
      "Ġlocal": 3228,
      "Ġesca": 3229,
      "ĠartÃŃculos": 3230,
      "Ġenferme": 3231,
      "Ġarreglo": 3232,
      "Ġrey": 3233,
      "viÃ³": 3234,
      "tric": 3235,
      "Ġellas": 3236,
      "Ġpesar": 3237,
      "Ġlibro": 3238,
      "cam": 3239,
      "guen": 3240,
      "Ã©rcito": 3241,
      "drÃ¡": 3242,
      "Ġtexto": 3243,
      "pl": 3244,
      "Ġvenir": 3245,
      "Ġbal": 3246,
      "ĠbÃ¡s": 3247,
      "tero": 3248,
      "ĠNa": 3249,
      "Ġtam": 3250,
      "asa": 3251,
      "uda": 3252,
      "Ġesti": 3253,
      "Ġprueba": 3254,
      "60": 3255,
      "Ġinver": 3256,
      "Ġintro": 3257,
      "han": 3258,
      "vidu": 3259,
      "ĠsabÃŃa": 3260,
      "Ġcome": 3261,
      "Ġjefe": 3262,
      "Ġfui": 3263,
      "glÃ©s": 3264,
      "ĠTe": 3265,
      "ĠvÃŃcti": 3266,
      "rue": 3267,
      "Ġresultado": 3268,
      "Ġincor": 3269,
      "ĠespaÃ±ol": 3270,
      "Ġlibertad": 3271,
      "uera": 3272,
      "Ġpartido": 3273,
      "Ġintegr": 3274,
      "Ġpobre": 3275,
      "graciÃ³n": 3276,
      "Ġbeb": 3277,
      "trÃ³n": 3278,
      "Ġespecie": 3279,
      "tien": 3280,
      "Ãį": 3281,
      "Ġdescri": 3282,
      "ÃŃstica": 3283,
      "Ġvivir": 3284,
      "Ġfuerza": 3285,
      "Ġvuelta": 3286,
      "tarse": 3287,
      "Nada": 3288,
      "Ġdomin": 3289,
      "Ġbol": 3290,
      "Ġriesgo": 3291,
      "ĠJohn": 3292,
      "bamos": 3293,
      "Ġpartici": 3294,
      "24": 3295,
      "ĠcomunicaciÃ³n": 3296,
      "Lle": 3297,
      "uÃ±a": 3298,
      "Ġviene": 3299,
      "Ser": 3300,
      "osas": 3301,
      "ĠBCE": 3302,
      "Ġaband": 3303,
      "Ġnecesita": 3304,
      "Ġdic": 3305,
      "ĠdÃ©": 3306,
      "acia": 3307,
      "para": 3308,
      "ĠÃ©xito": 3309,
      "ĠÃºltimos": 3310,
      "ĠSra": 3311,
      "leo": 3312,
      "Ġnuestras": 3313,
      "ĠRa": 3314,
      "Ġestablecer": 3315,
      "ĠmÃºsica": 3316,
      "Ġhice": 3317,
      "didas": 3318,
      "Ġconjunto": 3319,
      "ĠUE": 3320,
      "Ġcapa": 3321,
      "Ġpl": 3322,
      "Ġindividu": 3323,
      "Ġagra": 3324,
      "Ġpagar": 3325,
      "lia": 3326,
      "damente": 3327,
      "arrollo": 3328,
      "Escu": 3329,
      "Ġgastos": 3330,
      "ĠeconÃ³mica": 3331,
      "ner": 3332,
      "Entre": 3333,
      "cciones": 3334,
      "ĠevaluaciÃ³n": 3335,
      "osotros": 3336,
      "Ġpensar": 3337,
      "ACI": 3338,
      "MÃ¡s": 3339,
      "Ġgarantizar": 3340,
      "Ġraz": 3341,
      "Ġinterpre": 3342,
      "Ġcontar": 3343,
      "mania": 3344,
      "Ġamena": 3345,
      "Ġfab": 3346,
      "Ġcirc": 3347,
      "Ġprogres": 3348,
      "Ġconcre": 3349,
      "Ġtur": 3350,
      "Ġcantidad": 3351,
      "Ġnecesidades": 3352,
      "uicio": 3353,
      "uales": 3354,
      "ĠYork": 3355,
      "ucle": 3356,
      "ĠGracias": 3357,
      "Ġescuch": 3358,
      "ĠâĢĵ": 3359,
      "ĠHa": 3360,
      "Ġestad": 3361,
      "Ġ&": 3362,
      "Ġtratamiento": 3363,
      "ĠHar": 3364,
      "vÃ©": 3365,
      "ĠPre": 3366,
      "Ġestuvi": 3367,
      "Ġacciones": 3368,
      "Ġterritorio": 3369,
      "Quer": 3370,
      "ĠpequeÃ±a": 3371,
      "Ġambiente": 3372,
      "cepciÃ³n": 3373,
      "mÃ¡n": 3374,
      "Cor": 3375,
      "Ġdestac": 3376,
      "dita": 3377,
      "Ġmil": 3378,
      "26": 3379,
      "ĠtelÃ©f": 3380,
      "ĠLas": 3381,
      "erro": 3382,
      "Ġdro": 3383,
      "ong": 3384,
      "Ġcausa": 3385,
      "usiÃ³n": 3386,
      "Ġavi": 3387,
      "taba": 3388,
      "Ġmunicipio": 3389,
      "ĠOficina": 3390,
      "ĠconstrucciÃ³n": 3391,
      "Ġllama": 3392,
      "AM": 3393,
      "elo": 3394,
      "poco": 3395,
      "ĠSocial": 3396,
      "Ã³ven": 3397,
      "Ġantigu": 3398,
      "Ġproces": 3399,
      "ĠcrÃŃ": 3400,
      "Ġclar": 3401,
      "Ġhom": 3402,
      "gues": 3403,
      "Ġtenga": 3404,
      "gir": 3405,
      "Ġperi": 3406,
      "ĠDepartamento": 3407,
      "Ġestrate": 3408,
      "Ġ#": 3409,
      "Ġviejo": 3410,
      "Ġfoto": 3411,
      "illo": 3412,
      "ĠFrancia": 3413,
      "Ã³venes": 3414,
      "Ġformas": 3415,
      "Ġcient": 3416,
      "Ġorigen": 3417,
      "ĠmÃ©to": 3418,
      "celona": 3419,
      "Ġdocumento": 3420,
      "Ġadu": 3421,
      "Vale": 3422,
      "uniden": 3423,
      "Ġdemo": 3424,
      "tural": 3425,
      "Ġaz": 3426,
      "Ġinterior": 3427,
      "Ġevitar": 3428,
      "uestra": 3429,
      "Ġhabi": 3430,
      "ĠrÃŃo": 3431,
      "Ġmundial": 3432,
      "ĠOrgan": 3433,
      "ĠejecuciÃ³n": 3434,
      "Ġexten": 3435,
      "ĠCataluÃ±a": 3436,
      "Parece": 3437,
      "Ġalter": 3438,
      "Ġgolpe": 3439,
      "rados": 3440,
      "ĠConven": 3441,
      "Ġviv": 3442,
      ");": 3443,
      "lin": 3444,
      "Ġ40": 3445,
      "Ġconside": 3446,
      "Jo": 3447,
      "Ġcontr": 3448,
      "rito": 3449,
      "Ġmulti": 3450,
      "gon": 3451,
      "uciones": 3452,
      "fru": 3453,
      "Mal": 3454,
      "ĠserÃ¡n": 3455,
      "ĠMÃ©xico": 3456,
      "ĠinglÃ©s": 3457,
      "Ġarriba": 3458,
      "lave": 3459,
      "Pens": 3460,
      "dy": 3461,
      "Ġinten": 3462,
      "ĠfÃŃs": 3463,
      "Ġsir": 3464,
      "mer": 3465,
      "sis": 3466,
      "ĠPlan": 3467,
      "ĠDecisiÃ³n": 3468,
      "Ġexperiencia": 3469,
      "Ġhabitantes": 3470,
      "//": 3471,
      "Ġextran": 3472,
      "Ġrefiere": 3473,
      "torios": 3474,
      "Ġfrecu": 3475,
      "Ġfunciones": 3476,
      "Ġsomos": 3477,
      "Ġmejorar": 3478,
      ".,": 3479,
      "Ġil": 3480,
      "acciÃ³n": 3481,
      "Ġinformes": 3482,
      "Ġposibilidad": 3483,
      "pri": 3484,
      "iente": 3485,
      "Ġelementos": 3486,
      "log": 3487,
      "ibles": 3488,
      "Ġexplo": 3489,
      "Ġ1999": 3490,
      "EL": 3491,
      "Ġdemos": 3492,
      "Ġalrededor": 3493,
      "Ġfron": 3494,
      "Ġimpres": 3495,
      "Ġdesapar": 3496,
      "Ġabo": 3497,
      "Ġnave": 3498,
      "Ġalta": 3499,
      "ime": 3500,
      "ĠDerechos": 3501,
      "ular": 3502,
      "ĠprÃ¡ctica": 3503,
      "ĠBuen": 3504,
      "Ġment": 3505,
      "29": 3506,
      "tente": 3507,
      "Ġrelaciones": 3508,
      "Ġconocido": 3509,
      "Ġarchi": 3510,
      "Pues": 3511,
      "Ġlocales": 3512,
      "Ġconserv": 3513,
      "Ad": 3514,
      "bs": 3515,
      "Ġhaga": 3516,
      "Algun": 3517,
      "tarÃ¡": 3518,
      "Ġambos": 3519,
      "Ġinfl": 3520,
      "Ġsemanas": 3521,
      "unidades": 3522,
      "ttp": 3523,
      "Ġfondos": 3524,
      "Hasta": 3525,
      "Ġmus": 3526,
      "Ġnom": 3527,
      "Estas": 3528,
      "Ġprofun": 3529,
      "Ġexamen": 3530,
      "Ġsatis": 3531,
      "Ġcorre": 3532,
      "ĠHuman": 3533,
      "Ġpruebas": 3534,
      "Vi": 3535,
      "Ġcuarto": 3536,
      "ĠÃ©ste": 3537,
      "Ġsuperfici": 3538,
      "icul": 3539,
      "Ġcarrera": 3540,
      "Ġindustri": 3541,
      "yÃ³": 3542,
      "Ġdirector": 3543,
      "Ġpuedan": 3544,
      "dap": 3545,
      "27": 3546,
      "col": 3547,
      "Ġfan": 3548,
      "ĠAmÃ©rica": 3549,
      "trÃ³": 3550,
      "Ġbro": 3551,
      "Ġveh": 3552,
      "ĠjÃ³venes": 3553,
      "Ġestablece": 3554,
      "://": 3555,
      "Ġbon": 3556,
      "TO": 3557,
      "pecial": 3558,
      "tbol": 3559,
      "Ġestuvo": 3560,
      "culos": 3561,
      "dios": 3562,
      "Ġjusto": 3563,
      "Ġestadouniden": 3564,
      "Ġconsigui": 3565,
      "table": 3566,
      "NU": 3567,
      "Ġproducto": 3568,
      "Ġcrecimiento": 3569,
      "Ġnoches": 3570,
      "imismo": 3571,
      "ĠReino": 3572,
      "Ġsimi": 3573,
      "Ġcoche": 3574,
      "Ġpele": 3575,
      "rael": 3576,
      "Ġnum": 3577,
      "Ġllamada": 3578,
      "Ġcompetencia": 3579,
      "Ġsola": 3580,
      "ramos": 3581,
      "Ġdecisiones": 3582,
      "cidente": 3583,
      "Ġobras": 3584,
      "ĠseÃ±ora": 3585,
      "Ġcolor": 3586,
      "Ġmecan": 3587,
      "Ġrecuer": 3588,
      "tate": 3589,
      "Ġesfuerzos": 3590,
      "Ġrefle": 3591,
      "ĠLA": 3592,
      "Ġejecu": 3593,
      "Ġsosten": 3594,
      "by": 3595,
      "alla": 3596,
      "Ġobtener": 3597,
      "are": 3598,
      "Ġcentral": 3599,
      "Ġperder": 3600,
      "28": 3601,
      "Ġens": 3602,
      "Ġdesarroll": 3603,
      "Ġestim": 3604,
      "Ġajust": 3605,
      "Ġton": 3606,
      "Sus": 3607,
      "ĠConferencia": 3608,
      "Ve": 3609,
      "tantes": 3610,
      "crimin": 3611,
      "Ġdestin": 3612,
      "Ġresponsabilidad": 3613,
      "Ġexi": 3614,
      "Ġali": 3615,
      "Car": 3616,
      "Pa": 3617,
      "Ġdoctor": 3618,
      "ĠDesarrollo": 3619,
      "mul": 3620,
      "Ġpeli": 3621,
      "sion": 3622,
      "Ġnucle": 3623,
      "yun": 3624,
      "Ġ194": 3625,
      "jado": 3626,
      "ĠmÃ©dico": 3627,
      "Ġglo": 3628,
      "ĠConvenio": 3629,
      "ĠanÃ¡lisis": 3630,
      "ni": 3631,
      "Ġpreocu": 3632,
      "ĠtÃŃtulo": 3633,
      "ĠtendrÃ¡": 3634,
      "Ġplen": 3635,
      "alidades": 3636,
      "Ġentidades": 3637,
      "ĠopiniÃ³n": 3638,
      "tÃº": 3639,
      "Ġdesp": 3640,
      "Ġon": 3641,
      "pital": 3642,
      "ĠdeberÃ¡": 3643,
      "eciÃ³": 3644,
      "Ġvin": 3645,
      "Ġabajo": 3646,
      "ĠJes": 3647,
      "idencia": 3648,
      "Ġred": 3649,
      "So": 3650,
      "Ġbanda": 3651,
      "Ġincorpor": 3652,
      "Ġdiab": 3653,
      "ĠRes": 3654,
      "Ġdeman": 3655,
      "Ġemi": 3656,
      "Ġprior": 3657,
      "bum": 3658,
      "Necesito": 3659,
      "Ġconstr": 3660,
      "Ġpresupuesto": 3661,
      "eor": 3662,
      "Ġenci": 3663,
      "Ġadelante": 3664,
      "ĠespecÃŃfic": 3665,
      "Ġdiez": 3666,
      "Ġoc": 3667,
      "Ġaire": 3668,
      "cambi": 3669,
      "Ġadap": 3670,
      "ĠÃ©po": 3671,
      "Ġbienes": 3672,
      "Ġexiste": 3673,
      "stancias": 3674,
      "ĠlÃŃmi": 3675,
      "jeros": 3676,
      "Ġcorri": 3677,
      "Ġmejores": 3678,
      "land": 3679,
      "ĠEconÃ³m": 3680,
      "Ġasunto": 3681,
      "Ġenter": 3682,
      "tificaciÃ³n": 3683,
      "Ġfis": 3684,
      "ĠtelÃ©fono": 3685,
      "aridad": 3686,
      "Ġusar": 3687,
      "Ġmoder": 3688,
      "Ġentrada": 3689,
      "ker": 3690,
      "ĠvehÃŃcu": 3691,
      "Ġit": 3692,
      "Ġentender": 3693,
      "talla": 3694,
      "Ġpasando": 3695,
      "zan": 3696,
      "Ġimag": 3697,
      "ĠJuan": 3698,
      "Ġvirtud": 3699,
      "Ãĥ": 3700,
      "aleza": 3701,
      "ĠlegislaciÃ³n": 3702,
      "ĠmÃ¡ximo": 3703,
      "ĠgÃ©nero": 3704,
      "ĠInstitu": 3705,
      "Ġviaje": 3706,
      "Ġcivil": 3707,
      "Ġsentir": 3708,
      "Ġaumento": 3709,
      "Ci": 3710,
      "Ġcrear": 3711,
      "Ġaproxim": 3712,
      "Ġprodu": 3713,
      "Ġpago": 3714,
      "Ġcomercio": 3715,
      "Ġlevan": 3716,
      "poner": 3717,
      "Ġgui": 3718,
      "Ġfuerzas": 3719,
      "Ġtemporada": 3720,
      "Ġtales": 3721,
      "Ġejercicio": 3722,
      "ĠSh": 3723,
      "ĠEj": 3724,
      "Ġdiciendo": 3725,
      "ĠÃ¡l": 3726,
      "Ġmari": 3727,
      "QuizÃ¡": 3728,
      "ĠÃ¡rea": 3729,
      "Ġfabric": 3730,
      "Ġrelativo": 3731,
      "Ġoficina": 3732,
      "Ġnorma": 3733,
      "Ġobstante": 3734,
      "ĠEE": 3735,
      "Ġagrade": 3736,
      "Ġadmi": 3737,
      "Estos": 3738,
      "gh": 3739,
      "osos": 3740,
      "Ġ'": 3741,
      "ĠcariÃ±o": 3742,
      "21": 3743,
      "ĠMal": 3744,
      "Ġ195": 3745,
      "pular": 3746,
      "Ġhermos": 3747,
      "rid": 3748,
      "ĠhabrÃŃa": 3749,
      "ĠatrÃ¡s": 3750,
      "35": 3751,
      "ide": 3752,
      "ĠFin": 3753,
      "Ġpermite": 3754,
      "tudes": 3755,
      "Segu": 3756,
      "Ġpertin": 3757,
      "Ġcriter": 3758,
      "Ġproteger": 3759,
      "Ġmetros": 3760,
      "TR": 3761,
      "dentes": 3762,
      "Ġpeligr": 3763,
      "zando": 3764,
      "ĠMad": 3765,
      "Ġvino": 3766,
      "Ġfiesta": 3767,
      "Ġmedia": 3768,
      "Ġmitad": 3769,
      "Ġentiendo": 3770,
      "dra": 3771,
      "Ġ2011": 3772,
      "umen": 3773,
      "Ġempezar": 3774,
      "ĠJust": 3775,
      "Ġsuje": 3776,
      "Ġnota": 3777,
      "Ġconvir": 3778,
      "TI": 3779,
      "enci": 3780,
      "Ġ$": 3781,
      "isa": 3782,
      "Ġlleva": 3783,
      "trimonio": 3784,
      "Ġequivo": 3785,
      "Ġ?": 3786,
      "ĠacompaÃ±": 3787,
      "cra": 3788,
      "UN": 3789,
      "ĠTen": 3790,
      "ĠcanciÃ³n": 3791,
      "Toda": 3792,
      "idas": 3793,
      "emi": 3794,
      "ĠdeclaraciÃ³n": 3795,
      "ĠcompaÃ±ÃŃa": 3796,
      "Ġderi": 3797,
      "Ġviolencia": 3798,
      "Ġlengua": 3799,
      "vamente": 3800,
      "ĠtrÃ¡": 3801,
      "Ġsolicitud": 3802,
      "cera": 3803,
      "Esper": 3804,
      "ĠllegÃ³": 3805,
      "ĠperiÃ³di": 3806,
      "icha": 3807,
      "ĠFon": 3808,
      "ĠestarÃ¡": 3809,
      "Ã©st": 3810,
      "plic": 3811,
      "Ġexpe": 3812,
      "Tom": 3813,
      "Ġrelativas": 3814,
      "Ġabandon": 3815,
      "mentaciÃ³n": 3816,
      "ĠfinanciaciÃ³n": 3817,
      "Nadie": 3818,
      "ĠBien": 3819,
      "ĠAdminist": 3820,
      "Ġpreguntas": 3821,
      "turales": 3822,
      "Ġrecono": 3823,
      "Ġfil": 3824,
      "bernam": 3825,
      "Ġentien": 3826,
      "ĠpodrÃ¡n": 3827,
      "uerto": 3828,
      "ĠharÃ©": 3829,
      "Ġprimeros": 3830,
      "Ġpresupues": 3831,
      "Ġido": 3832,
      "Ġfeliz": 3833,
      "Ġcomida": 3834,
      "Ġprocedimientos": 3835,
      "Ġhayan": 3836,
      "llar": 3837,
      "Ġtoma": 3838,
      "ĠÃ¡lbum": 3839,
      "Ġprecio": 3840,
      "Â²": 3841,
      "Ġdesempe": 3842,
      "Ġloco": 3843,
      "Ġrequisi": 3844,
      "Ġdispuesto": 3845,
      "Ġsegura": 3846,
      "ĠtÃŃo": 3847,
      "ĠAcuerdo": 3848,
      "ky": 3849,
      "torial": 3850,
      "Ġdicha": 3851,
      "Ġjugar": 3852,
      "Ġformul": 3853,
      "ĠeconÃ³mico": 3854,
      "Ġesperar": 3855,
      "Ġano": 3856,
      "Ġconduc": 3857,
      "-Â¡": 3858,
      "Ġcomba": 3859,
      "Ġdocumentos": 3860,
      "Ġinfer": 3861,
      "Ġasign": 3862,
      "Ġnega": 3863,
      "Ġcree": 3864,
      "Ġhermana": 3865,
      "zquier": 3866,
      "Man": 3867,
      "Tras": 3868,
      "ĠsesiÃ³n": 3869,
      "Ã©l": 3870,
      "âĢĿ.": 3871,
      "Ã©ndo": 3872,
      "ivo": 3873,
      "Ġretir": 3874,
      "tividad": 3875,
      "Ġclub": 3876,
      "Ġlejos": 3877,
      "Ġcuidado": 3878,
      "estruc": 3879,
      "Ġexport": 3880,
      "33": 3881,
      "Ġocu": 3882,
      "Ġves": 3883,
      "Ġmanda": 3884,
      "CN": 3885,
      "mio": 3886,
      "ĠNi": 3887,
      "ĠSanta": 3888,
      "Ġquin": 3889,
      "itas": 3890,
      "ĠadministraciÃ³n": 3891,
      "Ġnatural": 3892,
      "Ġarma": 3893,
      "tiene": 3894,
      "my": 3895,
      "Ġentren": 3896,
      "tades": 3897,
      "ĠÃ©poca": 3898,
      "Ġrevis": 3899,
      "Ġllamar": 3900,
      "wa": 3901,
      "ĠIt": 3902,
      "ĠAlemania": 3903,
      "Ġfinales": 3904,
      "ang": 3905,
      "Ġestablecido": 3906,
      "adoras": 3907,
      "reas": 3908,
      "formaciÃ³n": 3909,
      "Ġrev": 3910,
      "ĠtÃ©cnica": 3911,
      "Ġ(\"": 3912,
      "Ġcurso": 3913,
      "su": 3914,
      "rÃ³n": 3915,
      "tidos": 3916,
      "Ġmaterial": 3917,
      "Ġjug": 3918,
      "ĠThe": 3919,
      "ÃŃos": 3920,
      "ĠOri": 3921,
      "ĠJe": 3922,
      "Ġconsecuencia": 3923,
      "90": 3924,
      "Ġinfra": 3925,
      "ÃŃm": 3926,
      "Ġindustria": 3927,
      "Ġcere": 3928,
      "Ġhiciste": 3929,
      "ligi": 3930,
      "Ġsuelo": 3931,
      "ĠES": 3932,
      "aro": 3933,
      "Ġcumplimiento": 3934,
      "ĠTh": 3935,
      "Ġsec": 3936,
      "Ġhago": 3937,
      "CuÃ¡l": 3938,
      "ciÃ³": 3939,
      "ĠPrim": 3940,
      "Ġtesti": 3941,
      "tÃ©n": 3942,
      "Ġrepar": 3943,
      "gaciones": 3944,
      "Ġfortal": 3945,
      "colo": 3946,
      "sist": 3947,
      "ĠMor": 3948,
      "ĠAu": 3949,
      "Ġdirectamente": 3950,
      "oli": 3951,
      "Ġdebemos": 3952,
      "metros": 3953,
      "tuvo": 3954,
      "198": 3955,
      "Ġvalores": 3956,
      "Ġaco": 3957,
      "Ġexperim": 3958,
      "tÃŃn": 3959,
      "Fin": 3960,
      "ĠpolÃŃtico": 3961,
      "ical": 3962,
      "Ġintercambi": 3963,
      "Ġalcanzar": 3964,
      "quen": 3965,
      "ĠRec": 3966,
      "ĠCri": 3967,
      "Ġdisfru": 3968,
      "Ġanimales": 3969,
      "Ġetc": 3970,
      "ĠEsta": 3971,
      "Âª": 3972,
      "UE": 3973,
      "Ġminist": 3974,
      "ĠÃģfrica": 3975,
      "Ġdiscu": 3976,
      "gran": 3977,
      "ane": 3978,
      "Ġconcent": 3979,
      "ĠmisiÃ³n": 3980,
      "Ġindic": 3981,
      "Ġsust": 3982,
      "rales": 3983,
      "Ġfom": 3984,
      "Ġniveles": 3985,
      "Ġmodelo": 3986,
      "Ġhonor": 3987,
      "Ay": 3988,
      "baj": 3989,
      "Ġgenerales": 3990,
      "âĢ¢": 3991,
      "Ġcentros": 3992,
      "uis": 3993,
      "Ġculpa": 3994,
      "Ġhar": 3995,
      "Ġciudadanos": 3996,
      "Ġfondo": 3997,
      "Ġedificio": 3998,
      "Ġmem": 3999,
      "Ġplante": 4000,
      "Ġequipos": 4001,
      "PE": 4002,
      "Ġcel": 4003,
      "...?": 4004,
      "vista": 4005,
      "Uno": 4006,
      "Ġdijiste": 4007,
      "Ġhogar": 4008,
      "Hace": 4009,
      "Ġnaturaleza": 4010,
      "Ġfirm": 4011,
      "stos": 4012,
      "Ġobten": 4013,
      "vado": 4014,
      "ond": 4015,
      "âĢĿ,": 4016,
      "didos": 4017,
      "Ġdescubri": 4018,
      "Ġayudas": 4019,
      "Ġorganismos": 4020,
      "Ġusu": 4021,
      "Ġfuego": 4022,
      "ĠcategorÃŃa": 4023,
      "siera": 4024,
      "Ġparticipar": 4025,
      "pongo": 4026,
      "The": 4027,
      "Ġlograr": 4028,
      "Ġdices": 4029,
      "arca": 4030,
      "menes": 4031,
      "ĠtecnologÃŃa": 4032,
      "Ġtrabajos": 4033,
      "Ġdiferencia": 4034,
      "Ġbuscando": 4035,
      "ĠpÃ©r": 4036,
      "36": 4037,
      "Ġmantenimiento": 4038,
      "Co": 4039,
      "omas": 4040,
      "ĠCentro": 4041,
      "Ġcamp": 4042,
      "Ġlic": 4043,
      "ĠUd": 4044,
      "Ġmenor": 4045,
      "Ġvoz": 4046,
      "ĠFi": 4047,
      "Ġvivo": 4048,
      "Ġmismos": 4049,
      "Ġdev": 4050,
      "ĠPrograma": 4051,
      "Ġtemas": 4052,
      "Ġlin": 4053,
      "ĠVi": 4054,
      "ĠtÃ©rmino": 4055,
      "aliza": 4056,
      "asta": 4057,
      "EstÃ¡n": 4058,
      "ordin": 4059,
      "Ġcontacto": 4060,
      "dieron": 4061,
      "Ġextre": 4062,
      "Luego": 4063,
      "Ġpresentar": 4064,
      "bert": 4065,
      "vaciÃ³n": 4066,
      "Ġdebo": 4067,
      "70": 4068,
      "edades": 4069,
      "ĠelectrÃ³n": 4070,
      "Ġmira": 4071,
      "CA": 4072,
      "tocolo": 4073,
      "Ã³sito": 4074,
      "ĠAust": 4075,
      "ÃŃritu": 4076,
      "Ġtampoco": 4077,
      "Ġpermitir": 4078,
      "Ġbu": 4079,
      "Ġ2012": 4080,
      "Ġhabla": 4081,
      "Ġradio": 4082,
      "ĠUnido": 4083,
      "erno": 4084,
      "gentina": 4085,
      "ĠpÃºblicas": 4086,
      "Ġteniendo": 4087,
      "Ġmalo": 4088,
      "Ã©ndose": 4089,
      "Ġdebate": 4090,
      "ĠDan": 4091,
      "reno": 4092,
      "Ġ60": 4093,
      "pia": 4094,
      "dada": 4095,
      "Ġacuerdos": 4096,
      "Ġquienes": 4097,
      "Ġdebi": 4098,
      "Ġacus": 4099,
      "Ġmovimiento": 4100,
      "enas": 4101,
      "Ġdolor": 4102,
      "Ġcambios": 4103,
      "Ġcorrespondiente": 4104,
      "stico": 4105,
      "anzas": 4106,
      "Ġaquellos": 4107,
      "Â«": 4108,
      "ĠÃ³": 4109,
      "Ġefectu": 4110,
      "____": 4111,
      "Ġcircun": 4112,
      "Ġbel": 4113,
      "onte": 4114,
      "Ã¡mara": 4115,
      "ĠHer": 4116,
      "Ġcumplir": 4117,
      "ĠsecciÃ³n": 4118,
      "48": 4119,
      "Ġfl": 4120,
      "Ġquieren": 4121,
      "viles": 4122,
      "americ": 4123,
      "Ġcambiar": 4124,
      "cÃ³mo": 4125,
      "Ġvigor": 4126,
      "Ġautoriz": 4127,
      "Alguien": 4128,
      "Ġcarta": 4129,
      "Ġdiferente": 4130,
      "ĠNorte": 4131,
      "Ġmuestra": 4132,
      "Reg": 4133,
      "ĠhabitaciÃ³n": 4134,
      "Ver": 4135,
      "amento": 4136,
      "Ġespeciales": 4137,
      "Ġpuestos": 4138,
      "tina": 4139,
      "ĠsoluciÃ³n": 4140,
      "Ġrepresentantes": 4141,
      "ĠCON": 4142,
      "estro": 4143,
      "Hey": 4144,
      "Cada": 4145,
      "ionales": 4146,
      "ĠTa": 4147,
      "ĠeconomÃŃa": 4148,
      "Ãģ": 4149,
      "Les": 4150,
      "Ġvali": 4151,
      "ĠPR": 4152,
      "Ġefica": 4153,
      "Ġingresos": 4154,
      "Ġinstrumentos": 4155,
      "Ġfru": 4156,
      "mper": 4157,
      "Ġ1998": 4158,
      "ĠBen": 4159,
      "cÃ©s": 4160,
      "Ġprohi": 4161,
      "ĠpresentaciÃ³n": 4162,
      "ĠcrÃ©dito": 4163,
      "Ġlec": 4164,
      "Â»,": 4165,
      "ĠCap": 4166,
      "apÃ¡": 4167,
      "Ba": 4168,
      "ĠChina": 4169,
      "Ġizquier": 4170,
      "Ġmonta": 4171,
      "ĠBarcelona": 4172,
      "ort": 4173,
      "Ġsuperficie": 4174,
      "38": 4175,
      "Ġescrito": 4176,
      "ĠDr": 4177,
      "ĠGo": 4178,
      "Ã¡lo": 4179,
      "ĠSte": 4180,
      "ĠversiÃ³n": 4181,
      "Ġnombr": 4182,
      "Ġbra": 4183,
      "Ġdeten": 4184,
      "Ġpresencia": 4185,
      "uri": 4186,
      "Ġgobern": 4187,
      "Ġprovincia": 4188,
      "Ġrecuper": 4189,
      "Ġabsolu": 4190,
      "ĠharÃ¡": 4191,
      "ĠGre": 4192,
      "Ġregiones": 4193,
      "dro": 4194,
      "Ġjusticia": 4195,
      "34": 4196,
      "Ġresta": 4197,
      "Ġcasti": 4198,
      "grafÃŃa": 4199,
      "Ġfigura": 4200,
      "Ġcrisis": 4201,
      "uls": 4202,
      "Ġotor": 4203,
      "Ġexclu": 4204,
      "monios": 4205,
      "Ġpedir": 4206,
      "Ġmensaje": 4207,
      "rir": 4208,
      "Ġexactamente": 4209,
      "ĠCentral": 4210,
      "ĠWil": 4211,
      "Ġdescon": 4212,
      "del": 4213,
      "dicos": 4214,
      "37": 4215,
      "Ġasesina": 4216,
      "Ġgrave": 4217,
      "Ġplanes": 4218,
      "Ġcolec": 4219,
      "Ġprovo": 4220,
      "ĠejÃ©rcito": 4221,
      "ĠJa": 4222,
      "Ġpose": 4223,
      "pir": 4224,
      "ĠYa": 4225,
      "Ġcontrato": 4226,
      "Crees": 4227,
      "Ġcandida": 4228,
      "Ġaver": 4229,
      "Ġpros": 4230,
      "Ġpropuestas": 4231,
      "Ġencuentran": 4232,
      "ticamente": 4233,
      "ĠprÃ¡cticas": 4234,
      "Ġllen": 4235,
      "Ġreserv": 4236,
      "fÃ©": 4237,
      "ĠmuriÃ³": 4238,
      "Ġvent": 4239,
      "ĠQue": 4240,
      "Mientras": 4241,
      "ĠbebÃ©": 4242,
      "ĠÃ©sta": 4243,
      "ĠPla": 4244,
      "âĢĵ": 4245,
      "Ġencima": 4246,
      "pone": 4247,
      "ĠGar": 4248,
      "Ġtratar": 4249,
      "Ġdiscrimin": 4250,
      "cap": 4251,
      "PodrÃŃa": 4252,
      "Ġras": 4253,
      "Ġconden": 4254,
      "Ã¨": 4255,
      "ĠpublicaciÃ³n": 4256,
      "ĠVer": 4257,
      "ĠHe": 4258,
      "ducido": 4259,
      "ĠAc": 4260,
      "39": 4261,
      "Ġbaja": 4262,
      "Ġarte": 4263,
      "Ġisla": 4264,
      "bara": 4265,
      "titud": 4266,
      "ĠBer": 4267,
      "bado": 4268,
      "Ġpelo": 4269,
      "giÃ³": 4270,
      "55": 4271,
      "Ã©tica": 4272,
      "obiernos": 4273,
      "gin": 4274,
      "ĠServi": 4275,
      "adÃ¡": 4276,
      "Ġpensando": 4277,
      "Ġvaya": 4278,
      "ĠEspecial": 4279,
      "ÃŃfica": 4280,
      "ĠPac": 4281,
      "Ġgrado": 4282,
      "ib": 4283,
      "gÃ¼": 4284,
      "vÃŃ": 4285,
      "ĠJosÃ©": 4286,
      "Ġaspectos": 4287,
      "Ġrecibir": 4288,
      "Ġresi": 4289,
      "ĠSer": 4290,
      "Ġsabemos": 4291,
      "Ġregionales": 4292,
      "iles": 4293,
      "Ġ*": 4294,
      "Ġcuya": 4295,
      "tiz": 4296,
      "Ġsome": 4297,
      "ĠJack": 4298,
      "wn": 4299,
      "Ġreligi": 4300,
      "Ġasegurar": 4301,
      "OL": 4302,
      "Ġcabal": 4303,
      "Dos": 4304,
      "gica": 4305,
      "Ġurban": 4306,
      "Ġsuminist": 4307,
      "uestro": 4308,
      "ĠcomenzÃ³": 4309,
      "Ġmone": 4310,
      "Ġestilo": 4311,
      "Ġlugares": 4312,
      "AC": 4313,
      "AdiÃ³s": 4314,
      "date": 4315,
      "ĠHumanos": 4316,
      "pan": 4317,
      "Ġconclu": 4318,
      "ĠCOM": 4319,
      "ite": 4320,
      "Ġpena": 4321,
      "Ġvesti": 4322,
      "cioso": 4323,
      "Ġpropiedad": 4324,
      "Ġencontra": 4325,
      "bras": 4326,
      "ficado": 4327,
      "Ãºpi": 4328,
      "Ãł": 4329,
      "Ġhumano": 4330,
      "Ġadoptar": 4331,
      "ĠFa": 4332,
      "Ġdefin": 4333,
      "genes": 4334,
      "âĢľ": 4335,
      "cesa": 4336,
      "AhÃŃ": 4337,
      "ĠmÃ¡qu": 4338,
      "ĠÃ³rganos": 4339,
      "Ġnumeros": 4340,
      "Ġpromover": 4341,
      "lizaciÃ³n": 4342,
      "Ġvigil": 4343,
      "ĠEN": 4344,
      "Ġgenial": 4345,
      "Ġham": 4346,
      "ĠDa": 4347,
      "Ġmente": 4348,
      "ĠEstÃ¡": 4349,
      "Ãºtbol": 4350,
      "ĠSur": 4351,
      "gente": 4352,
      "Ġverte": 4353,
      "curso": 4354,
      "dimiento": 4355,
      "Ro": 4356,
      "Ġhagas": 4357,
      "jeron": 4358,
      "tificado": 4359,
      "jan": 4360,
      "esto": 4361,
      "Ġesen": 4362,
      "Ġmara": 4363,
      "umo": 4364,
      "Ġestadounidense": 4365,
      "ĠagrÃŃc": 4366,
      "ĠdÃ©c": 4367,
      "terÃŃa": 4368,
      "):": 4369,
      "Ġsimplemente": 4370,
      "ĠÃŃn": 4371,
      "Ġobligaciones": 4372,
      "Ġlisto": 4373,
      "ĠOrganizaciÃ³n": 4374,
      "tino": 4375,
      "\"?": 4376,
      "Ġsiete": 4377,
      "pal": 4378,
      "rac": 4379,
      "cÃº": 4380,
      "ĠreducciÃ³n": 4381,
      "Ġcontenido": 4382,
      "Podemos": 4383,
      "Ġtir": 4384,
      "versas": 4385,
      "Ġperj": 4386,
      "Ġderro": 4387,
      "yos": 4388,
      "Ġvay": 4389,
      "Ġenemi": 4390,
      "Ġescon": 4391,
      "Ġelecciones": 4392,
      "olas": 4393,
      "Ġdestru": 4394,
      "Ġsatisf": 4395,
      "uno": 4396,
      "Ġestructura": 4397,
      "Ġcolo": 4398,
      "Ġcama": 4399,
      "ĠtelevisiÃ³n": 4400,
      "Ġenfermedad": 4401,
      "SE": 4402,
      "ĠTom": 4403,
      "ĠoÃŃdo": 4404,
      "Ġbos": 4405,
      "Discul": 4406,
      "iencias": 4407,
      "ok": 4408,
      "Ġasuntos": 4409,
      "Ġsalvo": 4410,
      "Ġtrabajando": 4411,
      "Ġdan": 4412,
      "Estu": 4413,
      "ficul": 4414,
      "05": 4415,
      "iva": 4416,
      "ham": 4417,
      "Ġperdido": 4418,
      "ÃŃble": 4419,
      "istema": 4420,
      "Ġputa": 4421,
      "Ġactualmente": 4422,
      "Ġhospital": 4423,
      "arla": 4424,
      "Ġreducir": 4425,
      "Ġdespe": 4426,
      "Ġintereses": 4427,
      "Ġerror": 4428,
      "ines": 4429,
      "Ġcontexto": 4430,
      "Ġpoten": 4431,
      "ĠutilizaciÃ³n": 4432,
      "'s": 4433,
      "Ġregional": 4434,
      "yas": 4435,
      "Ġlimpi": 4436,
      "unic": 4437,
      "Ġdesign": 4438,
      "Ġcomercial": 4439,
      "DE": 4440,
      "Ġconocimiento": 4441,
      "Ġdestino": 4442,
      "Ġ2013": 4443,
      "ft": 4444,
      "Ġapre": 4445,
      "Ġadqui": 4446,
      "ĠTrabajo": 4447,
      "Ġconvo": 4448,
      "alizado": 4449,
      "ĠTierra": 4450,
      "ĠVI": 4451,
      "Ġcuyo": 4452,
      "Ġfacilitar": 4453,
      "Recuer": 4454,
      "ĠhistÃ³r": 4455,
      "45": 4456,
      "Ġpeor": 4457,
      "ĠChar": 4458,
      "ps": 4459,
      "ĠRos": 4460,
      "tarios": 4461,
      "guar": 4462,
      "Ġcompues": 4463,
      "Ġenfrent": 4464,
      "AÃºn": 4465,
      "yuntamiento": 4466,
      "Ġcompromiso": 4467,
      "Ġoscu": 4468,
      "31": 4469,
      "08": 4470,
      "Ġtrato": 4471,
      "Ġoro": 4472,
      "ĠPen": 4473,
      "ligro": 4474,
      "icultura": 4475,
      "Ġsectores": 4476,
      "Ġdistintos": 4477,
      "Ã¡tico": 4478,
      "Cas": 4479,
      "ĠÃ¡r": 4480,
      "Ġrequisitos": 4481,
      "Pres": 4482,
      "ĠdisposiciÃ³n": 4483,
      "Ġasust": 4484,
      "Ġautom": 4485,
      "ĠItalia": 4486,
      "Ġintelig": 4487,
      "itario": 4488,
      "Ġautoridad": 4489,
      "Ġresponsable": 4490,
      "erta": 4491,
      "Ġaudi": 4492,
      "Im": 4493,
      "Ġrefu": 4494,
      "Ġrespeto": 4495,
      "amÃ¡s": 4496,
      "Ġmarcha": 4497,
      "www": 4498,
      "ĠQuÃ©": 4499,
      "Ġfuncionamiento": 4500,
      "ster": 4501,
      "Ġdificul": 4502,
      "Ġidio": 4503,
      "Ġdescan": 4504,
      "Ġcarre": 4505,
      "Ġdismin": 4506,
      "Ġincluye": 4507,
      "ditos": 4508,
      "Ġtradici": 4509,
      "Ġarro": 4510,
      "Ġemo": 4511,
      "Ġdefensa": 4512,
      "Ġdivi": 4513,
      "Ġrecha": 4514,
      "Ġfinancieros": 4515,
      "Ġestablecimiento": 4516,
      "teras": 4517,
      "ĠJusticia": 4518,
      "96": 4519,
      "ecÃŃa": 4520,
      "ĠMarÃŃa": 4521,
      "Ġesperando": 4522,
      "ĠEUR": 4523,
      "Ġllegado": 4524,
      "lÃ©": 4525,
      "ĠPartes": 4526,
      "Ġamo": 4527,
      "Ġcompeti": 4528,
      "ĠmÃŃnimo": 4529,
      "Ġprincipalmente": 4530,
      "Ġcaball": 4531,
      "Ġevalu": 4532,
      "Ġmotivo": 4533,
      "Ġsupone": 4534,
      "Ġdem": 4535,
      "torno": 4536,
      "ciente": 4537,
      "tum": 4538,
      "ego": 4539,
      "Am": 4540,
      "ĠSam": 4541,
      "Ġcuentas": 4542,
      "din": 4543,
      "Ġpudo": 4544,
      "QuizÃ¡s": 4545,
      "Ġmane": 4546,
      "46": 4547,
      "Ġblanco": 4548,
      "Ġrepresenta": 4549,
      "lad": 4550,
      "IT": 4551,
      "Ellos": 4552,
      "Ġdeja": 4553,
      "ĠdeberÃ¡n": 4554,
      "ĠCons": 4555,
      "Ġminuto": 4556,
      "Consi": 4557,
      "Ġnormal": 4558,
      "Mierda": 4559,
      "Ġdise": 4560,
      "Ġofer": 4561,
      "avid": 4562,
      "Ġdepor": 4563,
      "Ã©m": 4564,
      "Ġvic": 4565,
      "jor": 4566,
      "vech": 4567,
      "Ġdesc": 4568,
      "Ġaliment": 4569,
      "Ġdisco": 4570,
      "ĠdetrÃ¡s": 4571,
      "Ġvelo": 4572,
      "Ġpacientes": 4573,
      "\")": 4574,
      "loque": 4575,
      "Ġcorrespondientes": 4576,
      "ĠBel": 4577,
      "agen": 4578,
      "Ġtotalmente": 4579,
      "Ġpobreza": 4580,
      "venciones": 4581,
      "ĠParte": 4582,
      "Ġiglesia": 4583,
      "uida": 4584,
      "abe": 4585,
      "ĠpodrÃŃan": 4586,
      "32": 4587,
      "ood": 4588,
      "lici": 4589,
      "one": 4590,
      "Ġconoc": 4591,
      "Ġdormir": 4592,
      "ĠMinisterio": 4593,
      "lada": 4594,
      "ĠTor": 4595,
      "ĠPal": 4596,
      "omos": 4597,
      "istÃ¡n": 4598,
      "ĠtÃŃ": 4599,
      "laz": 4600,
      "ĠcontinuaciÃ³n": 4601,
      "Ġimpa": 4602,
      "Ġespecies": 4603,
      "Espero": 4604,
      "ĠGeor": 4605,
      "Ġdiversos": 4606,
      "Ġpeligro": 4607,
      "Ġtranqui": 4608,
      "Ġfines": 4609,
      "ĠcolaboraciÃ³n": 4610,
      "Ġimporte": 4611,
      "ĠvÃŃctimas": 4612,
      "Ġbru": 4613,
      "Ġmanifes": 4614,
      "tamen": 4615,
      "ĠdejÃ³": 4616,
      "ĠestaciÃ³n": 4617,
      "deraciÃ³n": 4618,
      "ĠpromociÃ³n": 4619,
      "Algo": 4620,
      "2005": 4621,
      "ĠtÃ©rminos": 4622,
      "ecu": 4623,
      "Ġabor": 4624,
      "Ġcompleto": 4625,
      "Ġganar": 4626,
      "deres": 4627,
      "ĠComis": 4628,
      "Ġpreci": 4629,
      "Ġanual": 4630,
      "ACIÃĵN": 4631,
      "Ġcriterios": 4632,
      "Ġhotel": 4633,
      "Ġnoticias": 4634,
      "Supongo": 4635,
      "95": 4636,
      "Ġdicen": 4637,
      "bes": 4638,
      "ille": 4639,
      "Ġcomenzar": 4640,
      "75": 4641,
      "Ġunidad": 4642,
      "Hoy": 4643,
      "ĠniÃ±a": 4644,
      "Do": 4645,
      "Ġchicas": 4646,
      "Ġvenido": 4647,
      "ĠinversiÃ³n": 4648,
      "irse": 4649,
      "ĠBe": 4650,
      "Ġduda": 4651,
      "Ã¡tica": 4652,
      "Ġcielo": 4653,
      "ĠcaracterÃŃsticas": 4654,
      "cesiÃ³n": 4655,
      "ĠhabrÃ¡": 4656,
      "2001": 4657,
      "Ġenfo": 4658,
      "Ġrecomendaciones": 4659,
      "eso": 4660,
      "Ġconvertir": 4661,
      "2003": 4662,
      "tual": 4663,
      "ĠpolÃŃticos": 4664,
      "Ġacos": 4665,
      "ĠaprobaciÃ³n": 4666,
      "ĠMer": 4667,
      "Ġataque": 4668,
      "ĠCre": 4669,
      "ferencias": 4670,
      "ĠCal": 4671,
      "gt": 4672,
      "Ġimagen": 4673,
      "Ġactos": 4674,
      "CuÃ¡nto": 4675,
      "sen": 4676,
      "ĠvÃŃa": 4677,
      "Ġleyes": 4678,
      "Ġcompon": 4679,
      "Ġvio": 4680,
      "04": 4681,
      "Ġmarido": 4682,
      "San": 4683,
      "Ġprovis": 4684,
      "Ġocho": 4685,
      "ecido": 4686,
      "Ġpier": 4687,
      "Ġcit": 4688,
      "ĠInstituto": 4689,
      "cidental": 4690,
      "UU": 4691,
      "Ġinmedia": 4692,
      "Ġdespi": 4693,
      "Ġsexo": 4694,
      "ccion": 4695,
      "ĠÂ»": 4696,
      "iores": 4697,
      "iendas": 4698,
      "Ġitali": 4699,
      "stituciÃ³n": 4700,
      "Ġbuenas": 4701,
      "iciÃ³n": 4702,
      "Ġconcepto": 4703,
      "Ġconex": 4704,
      "Ġinstalaciones": 4705,
      "ĠPara": 4706,
      "ĠIN": 4707,
      "zca": 4708,
      "misiÃ³n": 4709,
      "ĠPero": 4710,
      "Ġcomprar": 4711,
      "ĠSol": 4712,
      "burgo": 4713,
      "Ġga": 4714,
      "tia": 4715,
      "Ġsosp": 4716,
      "Ġemer": 4717,
      "Ġsorpren": 4718,
      "deral": 4719,
      "Ġmercados": 4720,
      "98": 4721,
      "ĠJunta": 4722,
      "Ġfinanciera": 4723,
      "Ġestabas": 4724,
      "Ġdestr": 4725,
      "Ġregistro": 4726,
      "Ġhistor": 4727,
      "77": 4728,
      "Vaya": 4729,
      "Debe": 4730,
      "igh": 4731,
      "ĠDu": 4732,
      "Ġoficiales": 4733,
      "IA": 4734,
      "elos": 4735,
      "Ġoriginal": 4736,
      "Ġnu": 4737,
      "Ġbom": 4738,
      "itaria": 4739,
      "Ġestrategia": 4740,
      "use": 4741,
      "ws": 4742,
      "itos": 4743,
      "ĠcampaÃ±a": 4744,
      "Ġsecu": 4745,
      "Ġcompletamente": 4746,
      "Ġqued": 4747,
      "2006": 4748,
      "Ġlegisla": 4749,
      "ĠfrancÃ©s": 4750,
      "ĠDis": 4751,
      "peona": 4752,
      "Ġtren": 4753,
      "Ġpueblos": 4754,
      "Ġsuel": 4755,
      "tamos": 4756,
      "dis": 4757,
      "MamÃ¡": 4758,
      "Ġconcl": 4759,
      "Ġjudi": 4760,
      "ĠBanco": 4761,
      "Eh": 4762,
      "Ġdesper": 4763,
      "ĠGuerra": 4764,
      "Mo": 4765,
      "apÃ³n": 4766,
      "Ġmatrimonio": 4767,
      "94": 4768,
      "Ġimposi": 4769,
      "Antes": 4770,
      "Ġhicieron": 4771,
      "Ġexig": 4772,
      "Ġeta": 4773,
      "loso": 4774,
      "Ġencontrado": 4775,
      "Ġprivado": 4776,
      "Ġresist": 4777,
      "ivos": 4778,
      "Ġweb": 4779,
      "ĠMc": 4780,
      "ĠpensÃ©": 4781,
      "Ġ2014": 4782,
      "Ġpreocupes": 4783,
      "Ġdebes": 4784,
      "Ġcomprome": 4785,
      "iales": 4786,
      "--------": 4787,
      "ĠdaÃ±o": 4788,
      "ĠjurÃŃdico": 4789,
      "iÃ³": 4790,
      "Ġmenudo": 4791,
      "Ġnecesarias": 4792,
      "Ġpreguntar": 4793,
      "ĠllevÃ³": 4794,
      "Ġconoce": 4795,
      "ung": 4796,
      "ĠDem": 4797,
      "Ġcultura": 4798,
      "Ġmateriales": 4799,
      "ĠcÃ¡": 4800,
      "esa": 4801,
      "Ġpropios": 4802,
      "Ġreuniones": 4803,
      "fra": 4804,
      "Ġcic": 4805,
      "uye": 4806,
      "Ġrecordar": 4807,
      "Ġdesarrollar": 4808,
      "Ġconvi": 4809,
      "ĠRi": 4810,
      "Ġanunci": 4811,
      "Ġaplicar": 4812,
      "ĠArgentina": 4813,
      "ĠaÃ±ad": 4814,
      "Ġfase": 4815,
      "sidad": 4816,
      "Ġespaci": 4817,
      "ĠTur": 4818,
      "ĠBri": 4819,
      "Ã©ctr": 4820,
      "CO": 4821,
      "Ġdiv": 4822,
      "2002": 4823,
      "Ġropa": 4824,
      "Ġhue": 4825,
      "yer": 4826,
      "Ġboca": 4827,
      "Ġsolamente": 4828,
      "ome": 4829,
      "Ġigualdad": 4830,
      "Ġaccidente": 4831,
      "ĠcondiciÃ³n": 4832,
      "ĠMiem": 4833,
      "Ġrelacionados": 4834,
      "Ã±ora": 4835,
      "Ġinferior": 4836,
      "Ġpeso": 4837,
      "ĠpequeÃ±os": 4838,
      "lÃŃ": 4839,
      "Ġensay": 4840,
      "Ġdiversas": 4841,
      "Ġtengan": 4842,
      "Ġcontrario": 4843,
      "Ġplata": 4844,
      "Ġeuropea": 4845,
      "tora": 4846,
      "cada": 4847,
      "abo": 4848,
      "ecreto": 4849,
      "ash": 4850,
      "Ġmala": 4851,
      "ĠtenÃŃan": 4852,
      "Ġagentes": 4853,
      "Ġindependiente": 4854,
      "Ġ1997": 4855,
      "ÃŃti": 4856,
      "Ġgal": 4857,
      "ĠcoordinaciÃ³n": 4858,
      "ju": 4859,
      "Ġcarne": 4860,
      "Ġinm": 4861,
      "isiones": 4862,
      "monos": 4863,
      "ĠrealizaciÃ³n": 4864,
      "PapÃ¡": 4865,
      "ÃŃstico": 4866,
      "ĠFondo": 4867,
      "Ġrecurso": 4868,
      "ĠIII": 4869,
      "Ġanteriores": 4870,
      "DÃ©jame": 4871,
      "Ġgobiernos": 4872,
      "Ġ90": 4873,
      "Ġmez": 4874,
      "Ġreclam": 4875,
      "gentes": 4876,
      "ĠpequeÃ±as": 4877,
      "ĠdiseÃ±": 4878,
      "Ġfamilias": 4879,
      "Pe": 4880,
      "Ã¡logo": 4881,
      "bernamentales": 4882,
      "tiles": 4883,
      "ĠSuper": 4884,
      "Ġsaben": 4885,
      "Ġdrogas": 4886,
      "Ġparticipantes": 4887,
      "ĠestÃºpi": 4888,
      "Ġfinalmente": 4889,
      "PensÃ©": 4890,
      "ĠdistribuciÃ³n": 4891,
      "tÃŃ": 4892,
      "Ġtama": 4893,
      "ĠpÃºblicos": 4894,
      "Ġce": 4895,
      "ĠBro": 4896,
      "ĠRey": 4897,
      "Vas": 4898,
      "hu": 4899,
      "ĠEso": 4900,
      "03": 4901,
      "Seguro": 4902,
      "ĠRusia": 4903,
      "Ġafuera": 4904,
      "ĠFrancis": 4905,
      "Ġbre": 4906,
      "Ġ35": 4907,
      "ĠGener": 4908,
      "ĠestÃ©n": 4909,
      "Ġexamin": 4910,
      "ĠAsuntos": 4911,
      "Ġresolver": 4912,
      "ĠIsrael": 4913,
      "2004": 4914,
      "2000": 4915,
      "Ġmercan": 4916,
      "Necesit": 4917,
      "Ġduro": 4918,
      "Ġpreten": 4919,
      "tres": 4920,
      "cla": 4921,
      "Ġinfluen": 4922,
      "eclar": 4923,
      "Ġpare": 4924,
      "Ġofrece": 4925,
      "Ġdeseo": 4926,
      "ĠÃ¡rbol": 4927,
      "Ġconv": 4928,
      "Ġpun": 4929,
      "Ġcump": 4930,
      "Ġcarga": 4931,
      "Ġrazones": 4932,
      "erras": 4933,
      "eca": 4934,
      "100": 4935,
      "Ġplane": 4936,
      "Ġobliga": 4937,
      "rez": 4938,
      "geni": 4939,
      "ben": 4940,
      "Ġnegocio": 4941,
      "Ġmayores": 4942,
      "arra": 4943,
      "Ġfuncionarios": 4944,
      "Buenas": 4945,
      "Ġcubier": 4946,
      "Ġmesa": 4947,
      "99": 4948,
      "Ġdemonios": 4949,
      "ĠAh": 4950,
      "ĠMadrid": 4951,
      "fric": 4952,
      "Ġaten": 4953,
      "Ġnegro": 4954,
      "07": 4955,
      "ĠadopciÃ³n": 4956,
      "ins": 4957,
      "06": 4958,
      "Ġmue": 4959,
      "Ġcontemp": 4960,
      "Ġprevisto": 4961,
      "Ġep": 4962,
      "orÃŃa": 4963,
      "Ġtraer": 4964,
      "Ġcualquiera": 4965,
      "Ġ1996": 4966,
      "ĠTu": 4967,
      "olÃ³gico": 4968,
      "LA": 4969,
      "Ġprofesor": 4970,
      "Ġdue": 4971,
      "Ġprobablemente": 4972,
      "ĠoperaciÃ³n": 4973,
      "Ġletra": 4974,
      "ibilidad": 4975,
      "san": 4976,
      "Ġcapaz": 4977,
      "Ġlibros": 4978,
      "Ġps": 4979,
      "Ġaprovech": 4980,
      "portar": 4981,
      "hesiÃ³n": 4982,
      "Ġesco": 4983,
      "rer": 4984,
      "Ġprofesionales": 4985,
      "Hemos": 4986,
      "Don": 4987,
      "Cap": 4988,
      "Ġjuicio": 4989,
      "cripciÃ³n": 4990,
      "88": 4991,
      "Ġreforma": 4992,
      "Ġsecreto": 4993,
      "Ġsalida": 4994,
      "bel": 4995,
      "amor": 4996,
      "ses": 4997,
      "Tan": 4998,
      "pati": 4999,
      "ĠSE": 5000,
      "Ġtransi": 5001,
      "ĠDEL": 5002,
      "ĠQu": 5003,
      "Ġsecund": 5004,
      "Ġ2015": 5005,
      "Haz": 5006,
      "ĠbritÃ¡n": 5007,
      "Ġhechos": 5008,
      "ĠÃ¡n": 5009,
      "Ġexisten": 5010,
      "Ġaguas": 5011,
      "drÃŃa": 5012,
      "Ġidentific": 5013,
      "Ġriesgos": 5014,
      "lido": 5015,
      "Ġsobrevi": 5016,
      "Ġmandato": 5017,
      "Ġtratando": 5018,
      "Ġhumana": 5019,
      "Ġconozco": 5020,
      "Ġenorm": 5021,
      "duca": 5022,
      "Ġapropi": 5023,
      "udades": 5024,
      "Ġarres": 5025,
      "Ġindica": 5026,
      "ĠReal": 5027,
      "Ġdepartamento": 5028,
      "Ju": 5029,
      "Ġplanta": 5030,
      "Ġcomerciales": 5031,
      "Ġnegocios": 5032,
      "Ġdoble": 5033,
      "Ġcoment": 5034,
      "Ġclientes": 5035,
      "gencias": 5036,
      "Ġ1995": 5037,
      "Ġconsumi": 5038,
      "Ġentidad": 5039,
      "Ġdul": 5040,
      "Ġtransmi": 5041,
      "Ġpertinentes": 5042,
      "ĠdesempeÃ±": 5043,
      "97": 5044,
      "Ġunidades": 5045,
      "Ġdetec": 5046,
      "Ġgrab": 5047,
      "Ġexterior": 5048,
      "uelas": 5049,
      "Ã¡ticos": 5050,
      "Toma": 5051,
      "ance": 5052,
      "Ġdigas": 5053,
      "Ġextraordin": 5054,
      "Ġvemos": 5055,
      "Ġpresenta": 5056,
      "olÃ³gica": 5057,
      "Algunos": 5058,
      "ĠdecidiÃ³": 5059,
      "ĠpÃ¡gina": 5060,
      "Ġnecesitamos": 5061,
      "ĠquÃŃm": 5062,
      "Quiere": 5063,
      "eh": 5064,
      "Ġpartidos": 5065,
      "Ġcomerci": 5066,
      "Ġaquel": 5067,
      "Ġhacemos": 5068,
      "irma": 5069,
      "nes": 5070,
      "ĠtÃ©cnicas": 5071,
      "dÃŃgen": 5072,
      "ĠEd": 5073,
      "ĠelecciÃ³n": 5074,
      "Ġrepro": 5075,
      "ĠcafÃ©": 5076,
      "Ġconsumo": 5077,
      "ĠDerecho": 5078,
      "Ġtercera": 5079,
      "Ġenm": 5080,
      "Ġperspec": 5081,
      "iro": 5082,
      "Ġsucede": 5083,
      "ĠDecreto": 5084,
      "Ġdistancia": 5085,
      "diat": 5086,
      "Ġpresentado": 5087,
      "ĠsueÃ±o": 5088,
      "Ġsenci": 5089,
      "ĠSoci": 5090,
      "Ġcrea": 5091,
      "Fran": 5092,
      "Ġdefen": 5093,
      "ulas": 5094,
      "ĠprÃ³xima": 5095,
      "Ġizquierda": 5096,
      "Ġenga": 5097,
      "Ġderecha": 5098,
      "Ġperro": 5099,
      "Ġagente": 5100,
      "Ġreconocimiento": 5101,
      "1999": 5102,
      "diatamente": 5103,
      "ĠIr": 5104,
      "uidos": 5105,
      "quÃŃa": 5106,
      "inte": 5107,
      "Ġidi": 5108,
      "cÃŃa": 5109,
      "Ġincluidos": 5110,
      "denes": 5111,
      "ichael": 5112,
      "ĠÎ": 5113,
      "ĠBru": 5114,
      "Ġlocalidad": 5115,
      "ĠharÃŃa": 5116,
      "III": 5117,
      "Ġiniciativa": 5118,
      "orro": 5119,
      "ĠdiseÃ±o": 5120,
      "Ġ1990": 5121,
      "ĠpresiÃ³n": 5122,
      "rup": 5123,
      "riendo": 5124,
      "Ġmic": 5125,
      "44": 5126,
      "Ob": 5127,
      "Ġocurre": 5128,
      "ĠMil": 5129,
      "cus": 5130,
      "rasil": 5131,
      "Ġrepresentante": 5132,
      "ĠSud": 5133,
      "ĠParÃŃs": 5134,
      "93": 5135,
      "ĠBueno": 5136,
      "Ġincluir": 5137,
      "ĠPolÃŃ": 5138,
      "ĠdiscriminaciÃ³n": 5139,
      "Ġescol": 5140,
      "ienen": 5141,
      "Ġpron": 5142,
      "ĠdeberÃŃan": 5143,
      "MA": 5144,
      "Ġaumentar": 5145,
      "CuÃ¡ndo": 5146,
      "Han": 5147,
      "Ġdedic": 5148,
      "rans": 5149,
      "02": 5150,
      "Ġalterna": 5151,
      "Ġabogado": 5152,
      "ĠVamos": 5153,
      "Ġexistencia": 5154,
      "Ġbatalla": 5155,
      "estructura": 5156,
      "Ġescala": 5157,
      "ĠBur": 5158,
      "Ġconfianza": 5159,
      "ĠPat": 5160,
      "Reglamento": 5161,
      "Ġfamos": 5162,
      "Ġpeti": 5163,
      "Ġdistintas": 5164,
      "como": 5165,
      "Ġsuspen": 5166,
      "Ġconflicto": 5167,
      "Ġrecuerdo": 5168,
      "ĠAli": 5169,
      "Ġconstituye": 5170,
      "Incl": 5171,
      "arle": 5172,
      "ĠoÃŃr": 5173,
      "Ġ1994": 5174,
      "Ġnaturales": 5175,
      "ĠbaÃ±o": 5176,
      "erop": 5177,
      "capaci": 5178,
      "Ġmaravil": 5179,
      "Ġexclusi": 5180,
      "Ġterreno": 5181,
      "Va": 5182,
      "ĠJapÃ³n": 5183,
      "ĠconvirtiÃ³": 5184,
      "Ġacaba": 5185,
      "Ġsala": 5186,
      "ĠcÃ³digo": 5187,
      "mana": 5188,
      "Ġfij": 5189,
      "Ġdep": 5190,
      "ĠEL": 5191,
      "Ġtes": 5192,
      "ĠcapitÃ¡n": 5193,
      "ĠProtocolo": 5194,
      "Ġdeterminar": 5195,
      "Mis": 5196,
      "ĠAdministraciÃ³n": 5197,
      "Fe": 5198,
      "ĠprevenciÃ³n": 5199,
      "Ġ+": 5200,
      "Escucha": 5201,
      "Ġperiodo": 5202,
      "78": 5203,
      "ondres": 5204,
      "Lu": 5205,
      "Ġciudades": 5206,
      "Ġtradu": 5207,
      "ĠtamaÃ±o": 5208,
      "Ġadul": 5209,
      "lip": 5210,
      "Ġinno": 5211,
      "Ġeficaz": 5212,
      "ĠGra": 5213,
      "Ġincluyendo": 5214,
      "DI": 5215,
      "Ġlaboral": 5216,
      "ĠAt": 5217,
      "Ġentra": 5218,
      "ĠChile": 5219,
      "Ġestudiantes": 5220,
      "yan": 5221,
      "bano": 5222,
      "Ġdiscul": 5223,
      "ĠJesÃºs": 5224,
      "http": 5225,
      "ĠmÃŃa": 5226,
      "logÃŃas": 5227,
      "gidos": 5228,
      "92": 5229,
      "Ġpone": 5230,
      "Pas": 5231,
      "licidad": 5232,
      "Ġtex": 5233,
      "ĠHol": 5234,
      "ĠInternet": 5235,
      "Ġcomunitario": 5236,
      "iza": 5237,
      "Ġll": 5238,
      "ĠOh": 5239,
      "ĠquizÃ¡": 5240,
      "Ġestra": 5241,
      "Ġclave": 5242,
      "Ġtab": 5243,
      "PerdÃ³n": 5244,
      "seo": 5245,
      "Ġdig": 5246,
      "igan": 5247,
      "Ġfuente": 5248,
      "Bar": 5249,
      "versiones": 5250,
      "Ġtre": 5251,
      "ĠPi": 5252,
      "TodavÃŃa": 5253,
      "Ġpase": 5254,
      "culaciÃ³n": 5255,
      "ĠespÃŃritu": 5256,
      "Ġqueremos": 5257,
      "PA": 5258,
      "Ġbur": 5259,
      "Ġconsecuencias": 5260,
      "Ġmonet": 5261,
      "ĠJer": 5262,
      "ĠXV": 5263,
      "Ġlab": 5264,
      "All": 5265,
      "Ġacre": 5266,
      "pÃ³": 5267,
      "ĠaviÃ³n": 5268,
      "Ġofrecer": 5269,
      "Ġsalvar": 5270,
      "58": 5271,
      "ĠmÃ©todos": 5272,
      "greso": 5273,
      "Ġvoluntad": 5274,
      "Ġrelacionadas": 5275,
      "Ġantiguo": 5276,
      "Ġalum": 5277,
      "Ġcumple": 5278,
      "ĠcÃ¡r": 5279,
      "ĠprÃ³ximo": 5280,
      "ĠCos": 5281,
      "76": 5282,
      "Ġactivos": 5283,
      "Ġul": 5284,
      "tentes": 5285,
      "dal": 5286,
      "Ġconec": 5287,
      "SerÃ¡": 5288,
      "ĠAyuntamiento": 5289,
      "Ġsede": 5290,
      "we": 5291,
      "Ġast": 5292,
      "Ġsemi": 5293,
      "Ġreserva": 5294,
      "Ġmuertos": 5295,
      "Ġâ": 5296,
      "Ġmedicam": 5297,
      "ames": 5298,
      "Ġvale": 5299,
      "ington": 5300,
      "Ġrequer": 5301,
      "ĠPue": 5302,
      "arma": 5303,
      "Ġdebajo": 5304,
      "tent": 5305,
      "Ġexpertos": 5306,
      "daciÃ³n": 5307,
      "ĠMedio": 5308,
      "ombra": 5309,
      "ĠdirÃ©": 5310,
      "Ġrep": 5311,
      "56": 5312,
      "dremos": 5313,
      "ks": 5314,
      "Ġprensa": 5315,
      "lament": 5316,
      "present": 5317,
      "ĠrecibiÃ³": 5318,
      "Ġpuso": 5319,
      "Ġabrir": 5320,
      "Ġcircunstancias": 5321,
      "Ġescuchar": 5322,
      "ĠincreÃŃble": 5323,
      "Ġpul": 5324,
      "Ġaproximadamente": 5325,
      "Ġverano": 5326,
      "ĠextraÃ±o": 5327,
      "TenÃŃa": 5328,
      "Ġalqui": 5329,
      "identes": 5330,
      "Ġrealizado": 5331,
      "torias": 5332,
      "Ġaqui": 5333,
      "loj": 5334,
      "Ġaceptar": 5335,
      "Ġnecesitas": 5336,
      "ĠmÃ¡xima": 5337,
      "Ġmilitares": 5338,
      "Ġaltura": 5339,
      "ĠquizÃ¡s": 5340,
      "venida": 5341,
      "Ġglobal": 5342,
      "oluciones": 5343,
      "alizada": 5344,
      "Ġmejora": 5345,
      "ĠprÃ©st": 5346,
      "Ġmostrar": 5347,
      "tn": 5348,
      "Ġtiempos": 5349,
      "Ġpudiera": 5350,
      "llate": 5351,
      "Vete": 5352,
      "Ġcuadro": 5353,
      "Ġocul": 5354,
      "ĠÂŃ": 5355,
      "edor": 5356,
      "ĠautorizaciÃ³n": 5357,
      "Ġsiente": 5358,
      "ĠFrank": 5359,
      "taste": 5360,
      "ers": 5361,
      "Ġpermiso": 5362,
      "Ġterrorismo": 5363,
      "ĠBuenos": 5364,
      "ĠfÃºtbol": 5365,
      "ĠPaÃŃs": 5366,
      "dice": 5367,
      "Ġidiota": 5368,
      "ĠMay": 5369,
      "ĠpidiÃ³": 5370,
      "ĠIglesia": 5371,
      "Ġprocesos": 5372,
      "Importe": 5373,
      "ĠCarlos": 5374,
      "ĠdelegaciÃ³n": 5375,
      "ices": 5376,
      "Llam": 5377,
      "Ġdiablos": 5378,
      "Ġposibi": 5379,
      "triz": 5380,
      "ĠEsp": 5381,
      "Ġasesinato": 5382,
      "Ġcomunitaria": 5383,
      "Ġescal": 5384,
      "Ġkil": 5385,
      "ĠmÃ³": 5386,
      "ĠAnton": 5387,
      "Prim": 5388,
      "Dame": 5389,
      "Ġterminar": 5390,
      "Ġmenores": 5391,
      "Ġseguimiento": 5392,
      "Ġreac": 5393,
      "Ġprove": 5394,
      "Ġfundamental": 5395,
      "Ġatrib": 5396,
      "ĠMiembros": 5397,
      "Ġverdadero": 5398,
      "Ġfacili": 5399,
      "Ġnecesarios": 5400,
      "Ġconvers": 5401,
      "yen": 5402,
      "Ã©ase": 5403,
      "ĠaÃ©": 5404,
      "Ġinmediatamente": 5405,
      "Ġgusto": 5406,
      "peonato": 5407,
      "ĠduraciÃ³n": 5408,
      "Ġ1992": 5409,
      "ĠelÃ©ctr": 5410,
      "Ġresulta": 5411,
      "Ġcompleta": 5412,
      "Ġdenom": 5413,
      "misos": 5414,
      "Ġdarle": 5415,
      "ĠactuaciÃ³n": 5416,
      "Ġarqui": 5417,
      "ĠprisiÃ³n": 5418,
      "Ġpec": 5419,
      "Asimismo": 5420,
      "vesti": 5421,
      "ĠNor": 5422,
      "ĠLondres": 5423,
      "Ġ80": 5424,
      "Ġcorte": 5425,
      "Del": 5426,
      "Sobre": 5427,
      "Ġeuropeo": 5428,
      "tilla": 5429,
      "ariamente": 5430,
      "Pos": 5431,
      "ĠSecretarÃŃa": 5432,
      "Ġcaja": 5433,
      "ĠtrÃ¡fico": 5434,
      "Ġacto": 5435,
      "Ġconflictos": 5436,
      "Ġembara": 5437,
      "ĠenseÃ±anza": 5438,
      "eclaraciÃ³n": 5439,
      "sab": 5440,
      "fos": 5441,
      "BI": 5442,
      "Ġaprobado": 5443,
      "Ġvelocidad": 5444,
      "Ġuniversi": 5445,
      "ribe": 5446,
      "ense": 5447,
      "Ġpublicado": 5448,
      "Ã¡bi": 5449,
      "tern": 5450,
      "Ġbarco": 5451,
      "Ġdia": 5452,
      "yn": 5453,
      "tive": 5454,
      "ĠOficial": 5455,
      "Ġregul": 5456,
      "Ġcorrecto": 5457,
      "Ġsexual": 5458,
      "arnos": 5459,
      "Ġrecibido": 5460,
      "Ġiniciativas": 5461,
      "Ġfunciona": 5462,
      "Ġdisposi": 5463,
      "Ġbuenos": 5464,
      "Ġfuentes": 5465,
      "Â´": 5466,
      "Ġverdadera": 5467,
      "Ġbio": 5468,
      "trices": 5469,
      "Ġnecesaria": 5470,
      "Ġcomplement": 5471,
      "Ġllega": 5472,
      "ĠIV": 5473,
      "Ġdiga": 5474,
      "quia": 5475,
      "Ã¶": 5476,
      "Ġjuris": 5477,
      "vieron": 5478,
      "Ġexcel": 5479,
      "yendo": 5480,
      "ĠhacÃŃa": 5481,
      "ĠpÃ©rdida": 5482,
      "ĠCul": 5483,
      "Debo": 5484,
      "Ġdedi": 5485,
      "ĠVic": 5486,
      "Ġvisita": 5487,
      "Ġfinancieras": 5488,
      "vados": 5489,
      "UL": 5490,
      "emente": 5491,
      "ĠevoluciÃ³n": 5492,
      "Ġleer": 5493,
      "Ġnie": 5494,
      "Ġraro": 5495,
      "Ġreno": 5496,
      "Ġdenomin": 5497,
      "Ġterminado": 5498,
      "Ġmarca": 5499,
      "giados": 5500,
      "ĠdÃ©cada": 5501,
      "ĠKa": 5502,
      "ficar": 5503,
      "melo": 5504,
      "titu": 5505,
      "ĠpropÃ³sito": 5506,
      "Nosotros": 5507,
      "Ġreh": 5508,
      "Ġbanco": 5509,
      "Ġllor": 5510,
      "trado": 5511,
      "ĠmodificaciÃ³n": 5512,
      "tador": 5513,
      "ĠintegraciÃ³n": 5514,
      "Actu": 5515,
      "anda": 5516,
      "Ġmaldito": 5517,
      "ĠindÃŃgen": 5518,
      "Ġlarga": 5519,
      "Ġpocos": 5520,
      "cero": 5521,
      "ĠOrden": 5522,
      "Ġile": 5523,
      "Ġvuelto": 5524,
      "Ġpesca": 5525,
      "edro": 5526,
      "Ġresidu": 5527,
      "Ġfle": 5528,
      "ĠexplotaciÃ³n": 5529,
      "Ġespero": 5530,
      "ĠopciÃ³n": 5531,
      "jera": 5532,
      "ĠvehÃŃculos": 5533,
      "Ġincluyen": 5534,
      "nie": 5535,
      "iga": 5536,
      "Ġdescar": 5537,
      "ĠvolviÃ³": 5538,
      "ĠÃ³rdenes": 5539,
      "Ġfinanciero": 5540,
      "Ġ1993": 5541,
      "Ġhubo": 5542,
      "ĠSch": 5543,
      "emen": 5544,
      "ĠSin": 5545,
      "Ġparecer": 5546,
      "Ġaplicable": 5547,
      "usa": 5548,
      "ĠdebÃŃa": 5549,
      "Ġirme": 5550,
      "Ġreglamento": 5551,
      "US": 5552,
      "iel": 5553,
      "mia": 5554,
      "Ġquieras": 5555,
      "Ġsostenible": 5556,
      "Ġredes": 5557,
      "Ġdura": 5558,
      "Ġtierras": 5559,
      "Ġinspec": 5560,
      "ĠDirecciÃ³n": 5561,
      "Ġsuces": 5562,
      "ĠpresentÃ³": 5563,
      "ĠcontinÃº": 5564,
      "portes": 5565,
      "MI": 5566,
      "ĠGa": 5567,
      "Ġoeste": 5568,
      "Ġsensi": 5569,
      "zados": 5570,
      "Ġhambre": 5571,
      "Ġpiel": 5572,
      "echas": 5573,
      "Ġgrad": 5574,
      "Ġcine": 5575,
      "87": 5576,
      "Ġdetener": 5577,
      "Ġvideo": 5578,
      "Venga": 5579,
      "Pien": 5580,
      "91": 5581,
      "ĠBrasil": 5582,
      "Ġdesas": 5583,
      "Ġcliente": 5584,
      "Ġaus": 5585,
      "ĠFrancisco": 5586,
      "Ġplaneta": 5587,
      "Ġvive": 5588,
      "Ã©simo": 5589,
      "ardo": 5590,
      "vada": 5591,
      "Ġdistrito": 5592,
      "Ġubicado": 5593,
      "venir": 5594,
      "ĠDivisiÃ³n": 5595,
      "Ġcaden": 5596,
      "Ġsiguen": 5597,
      "rami": 5598,
      "Ġideas": 5599,
      "Ġespi": 5600,
      "rano": 5601,
      "Ġameric": 5602,
      "Ġencuentro": 5603,
      "edores": 5604,
      "Ġhermanos": 5605,
      "ĠIndia": 5606,
      "abili": 5607,
      "ĠeconÃ³micos": 5608,
      "ĠHan": 5609,
      "Ġorgu": 5610,
      "Ġcomunidades": 5611,
      "xic": 5612,
      "Ġdelante": 5613,
      "Ġvul": 5614,
      "Ġreglas": 5615,
      "ĠpreocupaciÃ³n": 5616,
      "ĠlÃŃneas": 5617,
      "Ġja": 5618,
      "orden": 5619,
      "vela": 5620,
      "2007": 5621,
      "Ġimposible": 5622,
      "Ġalmacen": 5623,
      "ĠÃ¡reas": 5624,
      "guay": 5625,
      "Ġinvol": 5626,
      "Ġimpacto": 5627,
      "guno": 5628,
      "onel": 5629,
      "66": 5630,
      "Ġmotivos": 5631,
      "Ġdios": 5632,
      "ĠintervenciÃ³n": 5633,
      "Ġeduca": 5634,
      "Ġech": 5635,
      "Ġplacer": 5636,
      "57": 5637,
      "Ġliqui": 5638,
      "47": 5639,
      "ĠPartido": 5640,
      "ĠintenciÃ³n": 5641,
      "Ġceleb": 5642,
      "ĠMinistro": 5643,
      "ficacia": 5644,
      "Ġcontiene": 5645,
      "Ġsalva": 5646,
      "Or": 5647,
      "Ġtarje": 5648,
      "Ġavis": 5649,
      "?\"": 5650,
      "ĠCiudad": 5651,
      "rios": 5652,
      "Ġmecanismos": 5653,
      "ME": 5654,
      "ĠsÃ³": 5655,
      "fin": 5656,
      "ĠtÃ©cnico": 5657,
      "talidad": 5658,
      "Ġvidas": 5659,
      "ĠBol": 5660,
      "Ġnervi": 5661,
      "ĠtomÃ³": 5662,
      "ĠsÃŃn": 5663,
      "Ġdur": 5664,
      "Ġplantas": 5665,
      "Ġtocar": 5666,
      "Ġcomunes": 5667,
      "mÃ³": 5668,
      "Ġalcance": 5669,
      "Ġ;": 5670,
      "Ġnegociaciones": 5671,
      "Ġimper": 5672,
      "inta": 5673,
      "ĠobligaciÃ³n": 5674,
      "Ġrequi": 5675,
      "Ġrecibi": 5676,
      "Ġmando": 5677,
      "Ġconforme": 5678,
      "mÃ¡tico": 5679,
      "enda": 5680,
      "Ġcita": 5681,
      "Ġpermanente": 5682,
      "landa": 5683,
      "Ġestablecen": 5684,
      "Ġadministrativo": 5685,
      "estas": 5686,
      "Ġasesino": 5687,
      "Ġparcial": 5688,
      "Ġgeo": 5689,
      "ĠUr": 5690,
      "tional": 5691,
      "Ġcen": 5692,
      "RA": 5693,
      "ĠdiÃ¡logo": 5694,
      "ĠdeberÃŃas": 5695,
      "ensaciÃ³n": 5696,
      "selo": 5697,
      "Ġenamor": 5698,
      "ĠPu": 5699,
      "Ġquisiera": 5700,
      "Ġamiga": 5701,
      "Ãºsque": 5702,
      "Ġben": 5703,
      "Ġmemoria": 5704,
      "Ġconocimientos": 5705,
      "Ġdecirle": 5706,
      "Ġcercan": 5707,
      "Ġcristi": 5708,
      "Ġoportunidades": 5709,
      "ĠRoma": 5710,
      "ficientes": 5711,
      "Ġsolicitudes": 5712,
      "ĠEm": 5713,
      "ĠcientÃŃfic": 5714,
      "ĠDavid": 5715,
      "Ġseleccion": 5716,
      "derÃ¡": 5717,
      "IF": 5718,
      "Debemos": 5719,
      "ĠEste": 5720,
      "Ġrefor": 5721,
      "todo": 5722,
      "Ġgraves": 5723,
      "Ġconse": 5724,
      "Ġesencial": 5725,
      "gadas": 5726,
      "ĠMas": 5727,
      "Ġperf": 5728,
      "Ġdemanda": 5729,
      "ĠelaboraciÃ³n": 5730,
      "Ġdejado": 5731,
      "itales": 5732,
      "Ġestatu": 5733,
      "grantes": 5734,
      "85": 5735,
      "Ġpiensa": 5736,
      "Ġpartida": 5737,
      "Ġfas": 5738,
      "Ġcarretera": 5739,
      "Ok": 5740,
      "Ġposibles": 5741,
      "Ġpies": 5742,
      "43": 5743,
      "ĠTerri": 5744,
      "Ġvuelve": 5745,
      "Ġtrabajador": 5746,
      "ĠOc": 5747,
      "Ġnucleares": 5748,
      "ĠlÃŃmite": 5749,
      "Ġvolumen": 5750,
      "ĠeconÃ³micas": 5751,
      "tidas": 5752,
      "ĠPan": 5753,
      "Ġza": 5754,
      "sÃŃ": 5755,
      "Deja": 5756,
      "Muchas": 5757,
      "Ġdispu": 5758,
      "viendo": 5759,
      "ony": 5760,
      "Ġamplia": 5761,
      "86": 5762,
      "Ġefectivo": 5763,
      "Ġcultural": 5764,
      "Ġinfan": 5765,
      "Ġcoin": 5766,
      "Ġdra": 5767,
      "eth": 5768,
      "mado": 5769,
      "Bo": 5770,
      "Ġfamiliar": 5771,
      "Ġrob": 5772,
      "fas": 5773,
      ".)": 5774,
      "Ġ!": 5775,
      "Ġtuve": 5776,
      "ficiencia": 5777,
      "ds": 5778,
      "Ġactualidad": 5779,
      "Ġopera": 5780,
      "Ġarchivo": 5781,
      "ĠediciÃ³n": 5782,
      "Ġlegal": 5783,
      "ĠÃ³rgano": 5784,
      "Ġcontam": 5785,
      "ĠselecciÃ³n": 5786,
      "Ġgubernamentales": 5787,
      "Ġexistentes": 5788,
      "Ġalimentos": 5789,
      "ÃŃtulos": 5790,
      "Ã³nica": 5791,
      "ĠMat": 5792,
      "Ġran": 5793,
      "ĠkilÃ³": 5794,
      "Ãºmero": 5795,
      "dias": 5796,
      "ĠPrimera": 5797,
      "Ġmotor": 5798,
      "ĠJim": 5799,
      "irÃ¡": 5800,
      "Ġfrecuencia": 5801,
      "Ġ36": 5802,
      "Ġmunicipal": 5803,
      "ĠIng": 5804,
      "gias": 5805,
      "pto": 5806,
      "Ġinicial": 5807,
      "ĠconcesiÃ³n": 5808,
      "grÃ¡fica": 5809,
      "ĠIra": 5810,
      "Ġperiodi": 5811,
      "Ġclasific": 5812,
      "Ġanoche": 5813,
      "Ġconfirm": 5814,
      "Ġpopular": 5815,
      "Ġsegundos": 5816,
      "rueba": 5817,
      "Ġaun": 5818,
      "ĠPortu": 5819,
      "Ġenv": 5820,
      "Ġesperanza": 5821,
      "Ġaspecto": 5822,
      "Ġjorn": 5823,
      "Ġnombres": 5824,
      "Ġseas": 5825,
      "imientos": 5826,
      "ĠgarantÃŃa": 5827,
      "Ġveci": 5828,
      "ĠtendrÃ¡n": 5829,
      "entro": 5830,
      "ociaciÃ³n": 5831,
      "ĠLin": 5832,
      "Ġtareas": 5833,
      "Hi": 5834,
      "Ġrevel": 5835,
      "Ġpub": 5836,
      "Ġregresar": 5837,
      "Ġconsiguiente": 5838,
      "ires": 5839,
      "ĠcapÃŃtulo": 5840,
      "Ġterceros": 5841,
      "ĠColom": 5842,
      "gual": 5843,
      "Cono": 5844,
      "ĠcÃ¡mara": 5845,
      "Ġdoc": 5846,
      "Ġquerido": 5847,
      "amo": 5848,
      "Ġconstante": 5849,
      "pes": 5850,
      "Ġambas": 5851,
      "tat": 5852,
      "cura": 5853,
      "Ġmod": 5854,
      "Ġsacar": 5855,
      "duce": 5856,
      "Ġdeterminados": 5857,
      "Li": 5858,
      "ĠBos": 5859,
      "Somos": 5860,
      "ualmente": 5861,
      "Ġcreado": 5862,
      "Ġpiso": 5863,
      "Ġfundamentales": 5864,
      "Ġ2016": 5865,
      "Ġantigua": 5866,
      "Ġtempera": 5867,
      "Ġlech": 5868,
      "Ġquiera": 5869,
      "Ġbloque": 5870,
      "Ġnovia": 5871,
      "Ġsoldados": 5872,
      "Ġazul": 5873,
      "entado": 5874,
      "CT": 5875,
      "IDA": 5876,
      "ĠWal": 5877,
      "fon": 5878,
      "Ġherrami": 5879,
      "ĠDon": 5880,
      "Ã¡monos": 5881,
      "Ġbancos": 5882,
      "âĢ¦": 5883,
      "Ġmismas": 5884,
      "Ġeficacia": 5885,
      "Ġconocida": 5886,
      "ĠEjecu": 5887,
      "Ġdisponibles": 5888,
      "Ġcosta": 5889,
      "ĠpreparaciÃ³n": 5890,
      "Ġoferta": 5891,
      "ĠHu": 5892,
      "Ġescribir": 5893,
      "Ġcontes": 5894,
      "rÃ¡tica": 5895,
      "cionar": 5896,
      "Ã¡is": 5897,
      "yecto": 5898,
      "Ġvigilancia": 5899,
      "Ġprovisional": 5900,
      "Ġescena": 5901,
      "Ġverlo": 5902,
      "tencias": 5903,
      "pira": 5904,
      "ude": 5905,
      "ĠcÃ¡n": 5906,
      "Ġregreso": 5907,
      "Sol": 5908,
      "PR": 5909,
      "Ġenfoque": 5910,
      "Ġexter": 5911,
      "Ġpilo": 5912,
      "Ġinstrumento": 5913,
      "Todas": 5914,
      "Ġabierto": 5915,
      "Ġdeuda": 5916,
      "Ġtrib": 5917,
      "Ġenf": 5918,
      "Ġmirar": 5919,
      "laterra": 5920,
      "Ġluch": 5921,
      "ĠPas": 5922,
      "Ġperteneci": 5923,
      "Ġinicio": 5924,
      "Ġvel": 5925,
      "Ġdispone": 5926,
      "guas": 5927,
      "tame": 5928,
      "ĠmÃ©todo": 5929,
      "ĠBal": 5930,
      "andante": 5931,
      "telo": 5932,
      "gÃ³n": 5933,
      "Ġadministrativa": 5934,
      "Ãºsqueda": 5935,
      "Ġjustific": 5936,
      "Ġ70": 5937,
      "lle": 5938,
      "Ġpodido": 5939,
      "ock": 5940,
      "Ġsituaciones": 5941,
      "ĠprevÃ©": 5942,
      "aÃ±os": 5943,
      "Ġposibilidades": 5944,
      "Ġexaminar": 5945,
      "Ġexcep": 5946,
      "eropuerto": 5947,
      "Ġfotos": 5948,
      "hab": 5949,
      "cÃŃas": 5950,
      "Ġnecesitan": 5951,
      "ĠXX": 5952,
      "Ter": 5953,
      "ĠasociaciÃ³n": 5954,
      "Ġmiles": 5955,
      "eria": 5956,
      "ĠRE": 5957,
      "........": 5958,
      "Ġasumi": 5959,
      "Ġdichos": 5960,
      "mun": 5961,
      "Ġempie": 5962,
      "Ġtransform": 5963,
      "Ġmoles": 5964,
      "ĠÃºnicamente": 5965,
      "Ġhuel": 5966,
      "Ġcomport": 5967,
      "Ġabierta": 5968,
      "Ġvacaciones": 5969,
      "Ġaparece": 5970,
      "pado": 5971,
      "tidades": 5972,
      "Ġpienso": 5973,
      "Ġtienda": 5974,
      "ÃŃz": 5975,
      "ting": 5976,
      "etas": 5977,
      "ONES": 5978,
      "gunda": 5979,
      "Dime": 5980,
      "ÃŃes": 5981,
      "mpa": 5982,
      "Ġeuropeos": 5983,
      "ablo": 5984,
      "Ġjard": 5985,
      "ĠdÃ©j": 5986,
      "cy": 5987,
      "Ale": 5988,
      "Ġcontrolar": 5989,
      "adable": 5990,
      "ĠAsia": 5991,
      "Realmente": 5992,
      "ĠquedÃ³": 5993,
      "Ġclaramente": 5994,
      "alizados": 5995,
      "uncia": 5996,
      "Ġdesea": 5997,
      "ilar": 5998,
      "Ġdivertido": 5999,
      "lados": 6000,
      "ward": 6001,
      "Ġtraslad": 6002,
      "Ã¡st": 6003,
      "AT": 6004,
      "Ġmentir": 6005,
      "Ġcubri": 6006,
      "ĠjamÃ¡s": 6007,
      "Sabe": 6008,
      "Ġpropias": 6009,
      "Ġrespecta": 6010,
      "Ġequili": 6011,
      "ĠestarÃŃa": 6012,
      "ĠVe": 6013,
      "centa": 6014,
      "vio": 6015,
      "Ġaman": 6016,
      "Incluso": 6017,
      "enos": 6018,
      "Ġfirme": 6019,
      "Ġdimen": 6020,
      "ĠFre": 6021,
      "terrÃ¡n": 6022,
      "Bus": 6023,
      "pertura": 6024,
      "Ġ45": 6025,
      "Ġinvoluc": 6026,
      "Ġamenaza": 6027,
      "Ġ=": 6028,
      "Ġintercambio": 6029,
      "ĠacabÃ³": 6030,
      "Cual": 6031,
      "CH": 6032,
      "dando": 6033,
      "Ġbusca": 6034,
      "Ġsimilar": 6035,
      "Ġocupar": 6036,
      "mate": 6037,
      "Ca": 6038,
      "89": 6039,
      "grÃŃa": 6040,
      "int": 6041,
      "vador": 6042,
      "Ġenerg": 6043,
      "Ġacce": 6044,
      "Ġreservas": 6045,
      "ionado": 6046,
      "ĠCla": 6047,
      "Ġdecirte": 6048,
      "Ġaprender": 6049,
      "Ġdisponible": 6050,
      "ĠVene": 6051,
      "Ġusuarios": 6052,
      "Ġsilen": 6053,
      "Ġbeneficios": 6054,
      "Ġintento": 6055,
      "ĠrevisiÃ³n": 6056,
      "Ġconstit": 6057,
      "Ġencanta": 6058,
      "vera": 6059,
      "tista": 6060,
      "Ġpresupuestaria": 6061,
      "ielo": 6062,
      "ĠrepresentaciÃ³n": 6063,
      "Ġsugi": 6064,
      "ney": 6065,
      "Ġincu": 6066,
      "Ġprecis": 6067,
      "Ġhubier": 6068,
      "Ġmad": 6069,
      "Ġ1991": 6070,
      "Ġlon": 6071,
      "Ġuniversidad": 6072,
      "ĠEstatu": 6073,
      "ĠFern": 6074,
      "Ġestablecidos": 6075,
      "Ġtarea": 6076,
      "Ġcondado": 6077,
      "Ġcans": 6078,
      "Ġhel": 6079,
      "bul": 6080,
      "Ġreda": 6081,
      "pue": 6082,
      "ĠrÃ¡pidamente": 6083,
      "usos": 6084,
      "Ġvincul": 6085,
      "ĠAcciÃ³n": 6086,
      "Ġcarb": 6087,
      "Ġequival": 6088,
      "Ġprohibi": 6089,
      "Ġolvidar": 6090,
      "Ġprima": 6091,
      "Ġetapa": 6092,
      "uidado": 6093,
      "ĠIrlanda": 6094,
      "tecciÃ³n": 6095,
      "Ġdensidad": 6096,
      "Ġindustrial": 6097,
      "Ġcanciones": 6098,
      "ĠCali": 6099,
      "let": 6100,
      "Ġrelativos": 6101,
      "Ġposterior": 6102,
      "Ġdando": 6103,
      "drÃ©": 6104,
      "tagon": 6105,
      "Ġfacul": 6106,
      "ĠdeberÃŃamos": 6107,
      "Ġocasiones": 6108,
      "usto": 6109,
      "Ã©ro": 6110,
      "ĠestratÃ©": 6111,
      "ranqui": 6112,
      "Ġcabe": 6113,
      "ĠcÃ¡rcel": 6114,
      "Ã¡llate": 6115,
      "Ġclases": 6116,
      "Ġtasa": 6117,
      "ĠBre": 6118,
      "Ġmm": 6119,
      "derando": 6120,
      "ĠNew": 6121,
      "lon": 6122,
      "Ġprimeras": 6123,
      "Qu": 6124,
      "ĠClub": 6125,
      "ello": 6126,
      "Ġentorno": 6127,
      "cracia": 6128,
      "Ġpis": 6129,
      "metro": 6130,
      "Ġafirm": 6131,
      "Ġdipu": 6132,
      "Ġinfec": 6133,
      "rist": 6134,
      "culares": 6135,
      "Ġayer": 6136,
      "Ġlabora": 6137,
      "Ġvivi": 6138,
      "ĠalemÃ¡n": 6139,
      "ĠDeclaraciÃ³n": 6140,
      "Ġdirecta": 6141,
      "Ġpagos": 6142,
      "illas": 6143,
      "hor": 6144,
      "ĠsaliÃ³": 6145,
      "Ġtuyo": 6146,
      "ĠLuis": 6147,
      "Ġpales": 6148,
      "Buenos": 6149,
      "Ol": 6150,
      "ĠBill": 6151,
      "ĠAb": 6152,
      "Ġvuelo": 6153,
      "Ġrode": 6154,
      "Ġposteriormente": 6155,
      "Ġindependencia": 6156,
      "ĠcomisiÃ³n": 6157,
      "ĠDel": 6158,
      "geles": 6159,
      "Pon": 6160,
      "Ġfactores": 6161,
      "Ġesfuerzo": 6162,
      "ii": 6163,
      "dÃ©": 6164,
      "Ã¡mica": 6165,
      "ĠempezÃ³": 6166,
      "Ġimpe": 6167,
      "Ġjudicial": 6168,
      "Ġprestar": 6169,
      "gÃ¡n": 6170,
      "ĠbÃºsqueda": 6171,
      "ĠInglaterra": 6172,
      "liam": 6173,
      "ĠConstituciÃ³n": 6174,
      "Ġbille": 6175,
      "omo": 6176,
      "rador": 6177,
      "dencias": 6178,
      "Ġcorto": 6179,
      "Ġroman": 6180,
      "Dijo": 6181,
      "Ġexcepto": 6182,
      "tieron": 6183,
      "rame": 6184,
      "ĠXI": 6185,
      "Ġescuelas": 6186,
      "fre": 6187,
      "Ġcla": 6188,
      "Ġtratado": 6189,
      "Ġperfecto": 6190,
      "Ġemergencia": 6191,
      "ienes": 6192,
      "Ġflo": 6193,
      "ĠLat": 6194,
      "42": 6195,
      "ĠDemoc": 6196,
      "Ġciviles": 6197,
      "Ġ38": 6198,
      "ĠimportaciÃ³n": 6199,
      "Ġdeterminadas": 6200,
      "Ġbases": 6201,
      "Gu": 6202,
      "tinos": 6203,
      "Ġrazon": 6204,
      "Ã©tico": 6205,
      "ĠDar": 6206,
      "ĠHen": 6207,
      "Ġincluidas": 6208,
      "Ġnueve": 6209,
      "Ġfrontera": 6210,
      "Ġdificultades": 6211,
      "Ġrepu": 6212,
      "IB": 6213,
      "âĢĻ": 6214,
      "ĠEconÃ³mico": 6215,
      "rismo": 6216,
      "deros": 6217,
      "Ġadicional": 6218,
      "LE": 6219,
      "Ġinteresante": 6220,
      "Ġcombust": 6221,
      "ĠdocumentaciÃ³n": 6222,
      "anÃŃa": 6223,
      "Ġprac": 6224,
      "jate": 6225,
      "Ġacor": 6226,
      "Ġaveri": 6227,
      "ĠIo": 6228,
      "Ġcocina": 6229,
      "cipe": 6230,
      "ĠCoo": 6231,
      "Fui": 6232,
      "ĠVir": 6233,
      "ĠlÃŃmites": 6234,
      "Ġarmon": 6235,
      "istos": 6236,
      "ĠmercancÃŃas": 6237,
      "rique": 6238,
      "ĠOs": 6239,
      "Ġincluido": 6240,
      "Ġdirecto": 6241,
      "ĠvisiÃ³n": 6242,
      "unes": 6243,
      "Ġtriste": 6244,
      "Ġadicionales": 6245,
      "Ġguer": 6246,
      "Ġinversiones": 6247,
      "ĠcÃ¡l": 6248,
      "Ġros": 6249,
      "ril": 6250,
      "ĠPedro": 6251,
      "landia": 6252,
      "ĠexpresiÃ³n": 6253,
      "Ġfres": 6254,
      "ĠEstoy": 6255,
      "Ġpide": 6256,
      "Ġespal": 6257,
      "entan": 6258,
      "Ġsituado": 6259,
      "Ġhaz": 6260,
      "teca": 6261,
      "ĠdefiniciÃ³n": 6262,
      "Sim": 6263,
      "Ġarru": 6264,
      "ĠllamÃ³": 6265,
      "ĠpelÃŃculas": 6266,
      "jÃ³": 6267,
      "Ġprobar": 6268,
      "ĠganÃ³": 6269,
      "Ġdosis": 6270,
      "Ġconstruir": 6271,
      "Ġreform": 6272,
      "Ġfirma": 6273,
      "ah": 6274,
      "Ġmasa": 6275,
      "SI": 6276,
      "enial": 6277,
      "Ġresponder": 6278,
      "Ġadver": 6279,
      "Ġincon": 6280,
      "Ġaconte": 6281,
      "olucion": 6282,
      "Ġarreglar": 6283,
      "Ġnuclear": 6284,
      "gidas": 6285,
      "Ġtranspar": 6286,
      "Ġrepe": 6287,
      "Ġfiscal": 6288,
      "GC": 6289,
      "amas": 6290,
      "Mir": 6291,
      "Ġalguno": 6292,
      "die": 6293,
      "ĠEuros": 6294,
      "ĠsupervisiÃ³n": 6295,
      "Ġinfluencia": 6296,
      "ĠDra": 6297,
      "ĠChi": 6298,
      "ji": 6299,
      "Ġciencia": 6300,
      "tadora": 6301,
      "Ġjuegos": 6302,
      "ĠmatÃ³": 6303,
      "zz": 6304,
      "Ġdecre": 6305,
      "Ġrevista": 6306,
      "ĠtecnologÃŃas": 6307,
      "Ġnormativa": 6308,
      "Ġlicencia": 6309,
      "Ġromp": 6310,
      "presa": 6311,
      "Ġllamo": 6312,
      "ĠocasiÃ³n": 6313,
      "Ġtomado": 6314,
      "Ġlad": 6315,
      "ĠPeter": 6316,
      "Ġprefer": 6317,
      "ĠhÃ¡bi": 6318,
      "Ġrele": 6319,
      "get": 6320,
      "Ġapoyar": 6321,
      "ĠAra": 6322,
      "Encon": 6323,
      "gico": 6324,
      "izar": 6325,
      "Ġdirigida": 6326,
      "Ġdesaf": 6327,
      "Ġelegido": 6328,
      "Ġpiensas": 6329,
      "49": 6330,
      "itarios": 6331,
      "Ġdirectiva": 6332,
      "Ġperson": 6333,
      "Ġterrible": 6334,
      "Ġanimal": 6335,
      "Ġ\"\"": 6336,
      "Ġimplic": 6337,
      "Ġasesor": 6338,
      "rupciÃ³n": 6339,
      "Ġmaldita": 6340,
      "Ġesposo": 6341,
      "ĠvÃŃctima": 6342,
      "Ġart": 6343,
      "ĠYu": 6344,
      "Ġescapar": 6345,
      "ĠCorte": 6346,
      "CuÃ¡n": 6347,
      "ĠkilÃ³metros": 6348,
      "ĠexcepciÃ³n": 6349,
      "ecciÃ³n": 6350,
      "ies": 6351,
      "primi": 6352,
      "Ġsocio": 6353,
      "Ġhorri": 6354,
      "Ġbrin": 6355,
      "km": 6356,
      "ĠindÃŃgenas": 6357,
      "Ġcuo": 6358,
      "Ġganado": 6359,
      "trib": 6360,
      "ĠpeticiÃ³n": 6361,
      "Ġcontac": 6362,
      "leta": 6363,
      "Ġempleados": 6364,
      "ĠSub": 6365,
      "Ġresoluciones": 6366,
      "Ġexplos": 6367,
      "ĠPaÃŃses": 6368,
      "ortun": 6369,
      "Ġhttp": 6370,
      "grado": 6371,
      "Ġutiliza": 6372,
      "Ġdemoc": 6373,
      "Ġconsulta": 6374,
      "ĠdecÃŃa": 6375,
      "Ġconsiderado": 6376,
      "versal": 6377,
      "Ġincluida": 6378,
      "Ġvosotros": 6379,
      "Adelante": 6380,
      "diste": 6381,
      "Ġdulce": 6382,
      "fron": 6383,
      "Ġestabilidad": 6384,
      "Ãºlti": 6385,
      "DeberÃŃa": 6386,
      "Ġnegativo": 6387,
      "Can": 6388,
      "arÃ¡s": 6389,
      "vale": 6390,
      "Ġsubvenciones": 6391,
      "Ġperci": 6392,
      "ĠvotaciÃ³n": 6393,
      "Ġmadera": 6394,
      "ĠCanadÃ¡": 6395,
      "Ġcerebro": 6396,
      "Ġplenamente": 6397,
      "ĠSim": 6398,
      "Ġrequiere": 6399,
      "ruz": 6400,
      "Ġmecanismo": 6401,
      "Ap": 6402,
      "Ne": 6403,
      "Ġvictoria": 6404,
      "art": 6405,
      "Ti": 6406,
      "caciÃ³n": 6407,
      "identa": 6408,
      "Ġsup": 6409,
      "mbo": 6410,
      "Ġfantas": 6411,
      "ĠacÃ¡": 6412,
      "Ġcrimen": 6413,
      "ĠfÃŃsica": 6414,
      "Ġfen": 6415,
      "ity": 6416,
      "ĠFuer": 6417,
      "Ġluchar": 6418,
      "Ġtrabaja": 6419,
      "enten": 6420,
      "Ġpac": 6421,
      "Otra": 6422,
      "ĠColombia": 6423,
      "Ġobservaciones": 6424,
      "Tienen": 6425,
      "ĠexposiciÃ³n": 6426,
      "guÃ©": 6427,
      "Ġconciencia": 6428,
      "Nin": 6429,
      "Ġrecuerda": 6430,
      "Ġtraje": 6431,
      "rey": 6432,
      "ĠAsociaciÃ³n": 6433,
      "ĠEsc": 6434,
      "ĠÃģn": 6435,
      "pens": 6436,
      "ĠAntonio": 6437,
      "Ġdibu": 6438,
      "Ġaport": 6439,
      "selas": 6440,
      "manes": 6441,
      "ĠcategorÃŃas": 6442,
      "Ġhal": 6443,
      "ĠAC": 6444,
      "ĠvÃŃ": 6445,
      "ĠDef": 6446,
      "ĠlÃŃder": 6447,
      "Ġmuchacho": 6448,
      "59": 6449,
      "Ã¤": 6450,
      "Quien": 6451,
      "timi": 6452,
      "demia": 6453,
      "Ġhermosa": 6454,
      "Ġsupongo": 6455,
      "hol": 6456,
      "Ġace": 6457,
      "ancias": 6458,
      "ĠTim": 6459,
      "09": 6460,
      "Ġcontribuy": 6461,
      "ED": 6462,
      "Ġculp": 6463,
      "Ġcena": 6464,
      "2008": 6465,
      "Ġaquella": 6466,
      "Ġdichas": 6467,
      "Ġproduci": 6468,
      "gitud": 6469,
      "Ġcasas": 6470,
      "Ġater": 6471,
      "brio": 6472,
      "Ġsimilares": 6473,
      "ĠcuÃ¡nto": 6474,
      "Ġfalle": 6475,
      "Ġcomunicaciones": 6476,
      "Ġsubsi": 6477,
      "ĠComer": 6478,
      "ensor": 6479,
      "Ġvender": 6480,
      "Ġproducir": 6481,
      "estiv": 6482,
      "Ġconsejo": 6483,
      "Ġtorn": 6484,
      "forn": 6485,
      "cida": 6486,
      "ĠespecÃŃficas": 6487,
      "Ġpotencial": 6488,
      "ges": 6489,
      "ĠSrta": 6490,
      "Ġjuz": 6491,
      "Ġasimismo": 6492,
      "Ġcomplic": 6493,
      "trol": 6494,
      "Ġferro": 6495,
      "Ġretras": 6496,
      "Ġ500": 6497,
      "ĠLiber": 6498,
      "rabe": 6499,
      "Ġlanz": 6500,
      "ĠencontrÃ³": 6501,
      "Ġcolon": 6502,
      "ĠGeorge": 6503,
      "Ġutilizado": 6504,
      "Ġflu": 6505,
      "Ġaden": 6506,
      "tirÃ¡": 6507,
      "Ġsustitu": 6508,
      "icen": 6509,
      "AP": 6510,
      "Ġsale": 6511,
      "Sa": 6512,
      "Ġconsol": 6513,
      "ĠcÃ¡ncer": 6514,
      "Ġadelan": 6515,
      "dimos": 6516,
      "ld": 6517,
      "Ġargu": 6518,
      "Ġcompetentes": 6519,
      "Ġpobres": 6520,
      "Ġpremio": 6521,
      "contin": 6522,
      "ĠmÃ¡quina": 6523,
      "Ġoficinas": 6524,
      "Ġinsu": 6525,
      "Ġactuar": 6526,
      "41": 6527,
      "ĠrealizÃ³": 6528,
      "brica": 6529,
      "Ġsencillo": 6530,
      "Ġcontratos": 6531,
      "Ġmoneda": 6532,
      "],": 6533,
      "Ġcontinuar": 6534,
      "uras": 6535,
      "ĠvehÃŃculo": 6536,
      "ware": 6537,
      "onda": 6538,
      "Cam": 6539,
      "Ãºcar": 6540,
      "uega": 6541,
      "ralia": 6542,
      "ĠexportaciÃ³n": 6543,
      "menta": 6544,
      "Ġhablas": 6545,
      "ĠcapacitaciÃ³n": 6546,
      "Ġreemp": 6547,
      "ĠRam": 6548,
      "Ġquerida": 6549,
      "ĠoÃŃ": 6550,
      "Ġprogram": 6551,
      "Ġdiario": 6552,
      "Ġeno": 6553,
      "Ġinoc": 6554,
      "ÃŃncipe": 6555,
      "Ves": 6556,
      "ĠEducaciÃ³n": 6557,
      "pio": 6558,
      "Ġloca": 6559,
      "Ġfiguran": 6560,
      "Ġcostes": 6561,
      "Ġmomentos": 6562,
      "uegos": 6563,
      "Hu": 6564,
      "Ġinfi": 6565,
      "ĠFederaciÃ³n": 6566,
      "caso": 6567,
      "Ġperjuicio": 6568,
      "Ġmaterias": 6569,
      "ĠNavi": 6570,
      "Ġordin": 6571,
      "Ġsientes": 6572,
      "sabes": 6573,
      "Ġtropas": 6574,
      "Ġporcenta": 6575,
      "Ġresponsables": 6576,
      "Ġcomienzo": 6577,
      "cro": 6578,
      "Ġdetalles": 6579,
      "inada": 6580,
      "Ġgustan": 6581,
      "73": 6582,
      "rarse": 6583,
      "ĠniÃ±as": 6584,
      "zuela": 6585,
      "Ġtecn": 6586,
      "Ġcorpor": 6587,
      "ĠServicio": 6588,
      "ĠAires": 6589,
      "Ġimpuestos": 6590,
      "500": 6591,
      "mb": 6592,
      "Ġascen": 6593,
      "ĠterminÃ³": 6594,
      "Ġbailar": 6595,
      "Ġcalles": 6596,
      "Ġllevado": 6597,
      "Ġplano": 6598,
      "Ġrestric": 6599,
      "Ġelegir": 6600,
      "Ġcalor": 6601,
      "tios": 6602,
      "peÃ³n": 6603,
      "Ġparque": 6604,
      "bran": 6605,
      "zaje": 6606,
      "HabÃŃa": 6607,
      "ĠengaÃ±": 6608,
      "Ã¡genes": 6609,
      "berg": 6610,
      "tÃºa": 6611,
      "Ġcaer": 6612,
      "ĠHi": 6613,
      "Ġconsiderar": 6614,
      "ore": 6615,
      "geno": 6616,
      "Ayu": 6617,
      "ĠOb": 6618,
      "cturas": 6619,
      "jal": 6620,
      "Ġocupado": 6621,
      "Ġenfermedades": 6622,
      "ĠCongreso": 6623,
      "Otros": 6624,
      "Ġflores": 6625,
      "rump": 6626,
      "ĠPaz": 6627,
      "ĠteorÃŃa": 6628,
      "ĠcirculaciÃ³n": 6629,
      "Da": 6630,
      "bablemente": 6631,
      "Ġgana": 6632,
      "COM": 6633,
      "ĠAD": 6634,
      "mn": 6635,
      "quete": 6636,
      "Ġenorme": 6637,
      "Ġescen": 6638,
      "Ġtratados": 6639,
      "ĠMichael": 6640,
      "ĠperiÃ³dico": 6641,
      "ĠSalud": 6642,
      "Ġpreciso": 6643,
      "Ġtradicional": 6644,
      "2009": 6645,
      "Ġhem": 6646,
      "Necesitamos": 6647,
      "Ġadecuada": 6648,
      "Alguna": 6649,
      "Ġirre": 6650,
      "Ġprevistas": 6651,
      "bio": 6652,
      "ĠprestaciÃ³n": 6653,
      "Ġ---": 6654,
      "eld": 6655,
      "ĠBlan": 6656,
      "Ġdipl": 6657,
      "Ġalco": 6658,
      "lesc": 6659,
      "ficaciones": 6660,
      "abilidades": 6661,
      "Sub": 6662,
      "Ġpaciente": 6663,
      "tz": 6664,
      "ĠimÃ¡genes": 6665,
      "ĠocurriÃ³": 6666,
      "af": 6667,
      "ĠmontÃ³n": 6668,
      "62": 6669,
      "ĠPortugal": 6670,
      "rieron": 6671,
      "Ġaplicables": 6672,
      "ĠirÃ©": 6673,
      "Ġvisitas": 6674,
      "ĠinstituciÃ³n": 6675,
      "ĠTex": 6676,
      "Ġactuales": 6677,
      "Ġexcl": 6678,
      "Ġjornada": 6679,
      "Ġseguros": 6680,
      "sh": 6681,
      "63": 6682,
      "Ġincen": 6683,
      "Ġamplio": 6684,
      "Ġ1989": 6685,
      "Ġnav": 6686,
      "Ġais": 6687,
      "65": 6688,
      "Ġdieron": 6689,
      "Ġcontribuir": 6690,
      "ÃŃda": 6691,
      "verso": 6692,
      "Ġpiedra": 6693,
      "Ġepiso": 6694,
      "ĠWin": 6695,
      "ĠagrÃŃcolas": 6696,
      "ĠCarta": 6697,
      "ĠComunidades": 6698,
      "Ġpareja": 6699,
      "ariciÃ³n": 6700,
      "derÃŃa": 6701,
      "rÃŃ": 6702,
      "68": 6703,
      "ĠPerÃº": 6704,
      "cate": 6705,
      "tÃŃas": 6706,
      "Ġdijeron": 6707,
      "Ġtemporal": 6708,
      "Ġescla": 6709,
      "tique": 6710,
      "lida": 6711,
      "Ġcorresponde": 6712,
      "Ġentrega": 6713,
      "Ġmono": 6714,
      "Ġpuerto": 6715,
      "Ġinforma": 6716,
      "fornia": 6717,
      "Ġodio": 6718,
      "Ġpuertas": 6719,
      "olÃ³gicos": 6720,
      "ĠcuÃ¡l": 6721,
      "ĠBu": 6722,
      "Ġsalv": 6723,
      "Ġje": 6724,
      "Ġpuesta": 6725,
      "incu": 6726,
      "imas": 6727,
      "Mejor": 6728,
      "QuerÃŃa": 6729,
      "ĠClaro": 6730,
      "Ġleche": 6731,
      "Ġdiferencias": 6732,
      "1998": 6733,
      "Ġlongitud": 6734,
      "Ġofrec": 6735,
      "tle": 6736,
      "Siento": 6737,
      "rie": 6738,
      "ÃŃsimo": 6739,
      "61": 6740,
      "Ġquedan": 6741,
      "Ġ00": 6742,
      "ET": 6743,
      "parte": 6744,
      "ernes": 6745,
      "Ġadecuado": 6746,
      "ĠescribiÃ³": 6747,
      "Ġedificios": 6748,
      "Ġ32": 6749,
      "tui": 6750,
      "ĠGeneralidad": 6751,
      "Ġdas": 6752,
      "Ġconsiderable": 6753,
      "Ġregalo": 6754,
      "Ġdesplaz": 6755,
      "Ġvulner": 6756,
      "Ġ37": 6757,
      "Ġdictamen": 6758,
      "Ġcompetencias": 6759,
      "NUD": 6760,
      "Ġtomando": 6761,
      "Ġcorriente": 6762,
      "Ġcompetente": 6763,
      "ĠfrÃŃo": 6764,
      "Ġenemigo": 6765,
      "ĠcontribuciÃ³n": 6766,
      "Ġsacri": 6767,
      "Ġteatro": 6768,
      "Ġclima": 6769,
      "Ġmicro": 6770,
      "ĠCole": 6771,
      "ĠKen": 6772,
      "Ġmover": 6773,
      "ĠcompaÃ±ero": 6774,
      "cidos": 6775,
      "Ġproductores": 6776,
      "Ġapenas": 6777,
      "Ġcuidar": 6778,
      "Ġbarrio": 6779,
      "Ġcrimin": 6780,
      "Tres": 6781,
      "Ġregular": 6782,
      "ĠCristo": 6783,
      "Ġincrement": 6784,
      "Ġcartas": 6785,
      "Ġcaballo": 6786,
      "ĠtendrÃŃa": 6787,
      "Ġcue": 6788,
      "Ġpist": 6789,
      "mamente": 6790,
      "Ġdeclaraciones": 6791,
      "Ġpista": 6792,
      "Ġmaestro": 6793,
      "Ġcambiado": 6794,
      "ĠMari": 6795,
      "Ġhin": 6796,
      "Ġth": 6797,
      "ĠclÃ¡s": 6798,
      "Ġjugador": 6799,
      "toral": 6800,
      "John": 6801,
      "Ġidentidad": 6802,
      "Debes": 6803,
      "Actualmente": 6804,
      "Ġprotagon": 6805,
      "Ġdelito": 6806,
      "Ġculturales": 6807,
      "ĠespaÃ±ola": 6808,
      "Ġpedido": 6809,
      "Ġgor": 6810,
      "ĠUna": 6811,
      "zcan": 6812,
      "Ã§": 6813,
      "ĠCÃ³digo": 6814,
      "vina": 6815,
      "Ġculo": 6816,
      "ĠsucediÃ³": 6817,
      "ĠBob": 6818,
      "gros": 6819,
      "ueso": 6820,
      "Ġconclusiones": 6821,
      "Ġtransferencia": 6822,
      "stedes": 6823,
      "Ġtengas": 6824,
      "Ġverde": 6825,
      "Ġcadena": 6826,
      "talo": 6827,
      "ĠampliaciÃ³n": 6828,
      "Ġadoptado": 6829,
      "Ġpude": 6830,
      "Ġanun": 6831,
      "Ġmeter": 6832,
      "Ġsonido": 6833,
      "ĠCopa": 6834,
      "ĠsÃ¡": 6835,
      "Ġformar": 6836,
      "ĠRom": 6837,
      "Ġrealiza": 6838,
      "Ġbes": 6839,
      "Ġadquisi": 6840,
      "Ġdemocracia": 6841,
      "Direc": 6842,
      "radas": 6843,
      "Reci": 6844,
      "Ġentregar": 6845,
      "Nuestro": 6846,
      "ĠPolÃŃtica": 6847,
      "ENTE": 6848,
      "mpe": 6849,
      "ĠjurÃŃdica": 6850,
      "67": 6851,
      "ĠKe": 6852,
      "ĠDirector": 6853,
      "ĠSui": 6854,
      "Ġign": 6855,
      "Ġzapa": 6856,
      "dalo": 6857,
      "Ġrevi": 6858,
      "ĠdivisiÃ³n": 6859,
      "Donde": 6860,
      "Ġsuma": 6861,
      "ĠFis": 6862,
      "ariz": 6863,
      "Ġelemento": 6864,
      "Ġbote": 6865,
      "Ġconsist": 6866,
      "Ġmexic": 6867,
      "Ġinvestig": 6868,
      "Ġestrella": 6869,
      "teros": 6870,
      "Ġcentrales": 6871,
      "Ġsuici": 6872,
      "Ġactivo": 6873,
      "Ġencontramos": 6874,
      "Ġexce": 6875,
      "Ġago": 6876,
      "Ġnombrado": 6877,
      "Her": 6878,
      "Ã³sitos": 6879,
      "vÃ©ase": 6880,
      "lace": 6881,
      "ĠAf": 6882,
      "Ġrefugiados": 6883,
      "Ġmuerta": 6884,
      "Ġec": 6885,
      "ĠÃºtil": 6886,
      "Ġconferencia": 6887,
      "ĠPon": 6888,
      "Ġboda": 6889,
      "Ġpatr": 6890,
      "ĠAz": 6891,
      "ĠPaul": 6892,
      "teles": 6893,
      "Ġreper": 6894,
      "CIÃĵN": 6895,
      "reo": 6896,
      "Ġintentando": 6897,
      "lÃ¡n": 6898,
      "Ġventana": 6899,
      "Ġapertura": 6900,
      "Ġreciente": 6901,
      "stal": 6902,
      "Ġterritorios": 6903,
      "Ġpreparado": 6904,
      "ĠFlor": 6905,
      "Ġingeni": 6906,
      "Ġvoto": 6907,
      "ĠdaÃ±os": 6908,
      "Ġapa": 6909,
      "Ã©ntate": 6910,
      "Ġmusical": 6911,
      "grÃ¡fic": 6912,
      "Jes": 6913,
      "Ġviven": 6914,
      "Ġmanifi": 6915,
      "Ġconvoca": 6916,
      "Ġciclo": 6917,
      "mm": 6918,
      "Ġapues": 6919,
      "Ġllegue": 6920,
      "ĠNavidad": 6921,
      "Casi": 6922,
      "Ġeliminar": 6923,
      "Ġbosque": 6924,
      "Ġservir": 6925,
      "tones": 6926,
      "uevo": 6927,
      "bÃ©": 6928,
      "ĠSegunda": 6929,
      "Ġconoces": 6930,
      "Ġanteriormente": 6931,
      "ĠestÃ©s": 6932,
      "Ġcantidades": 6933,
      "ashington": 6934,
      "Ġcarajo": 6935,
      "Ġtonto": 6936,
      "Ġrespuestas": 6937,
      "Dej": 6938,
      "ĠNic": 6939,
      "Ġrecientemente": 6940,
      "ĠRepresent": 6941,
      "Ġmate": 6942,
      "ania": 6943,
      "Ġestan": 6944,
      "ĠmÃ©dicos": 6945,
      "Cuidado": 6946,
      "Considerando": 6947,
      "Visto": 6948,
      "Ġprocedentes": 6949,
      "drÃ¡n": 6950,
      "Ã¡bamos": 6951,
      "ĠautÃ©n": 6952,
      "nia": 6953,
      "tismo": 6954,
      "Ġcelebrada": 6955,
      "Ġprivada": 6956,
      "bios": 6957,
      "capacidad": 6958,
      "ith": 6959,
      "celer": 6960,
      "Ġperspectiva": 6961,
      "Ġfras": 6962,
      "Ġinmi": 6963,
      "Ġnovio": 6964,
      "Ġestrategias": 6965,
      "Ġcomienza": 6966,
      "ĠconservaciÃ³n": 6967,
      "Ġrobo": 6968,
      "DÃŃ": 6969,
      "ĠSue": 6970,
      "Ġsustit": 6971,
      "ĠaprobÃ³": 6972,
      "Ġinmediato": 6973,
      "Ġinteresados": 6974,
      "Ġtribunal": 6975,
      "arg": 6976,
      "ade": 6977,
      "ĠFo": 6978,
      "Ġempren": 6979,
      "Ġhumanidad": 6980,
      "Ġpodamos": 6981,
      "DA": 6982,
      "Ġ1988": 6983,
      "Ġproporcionar": 6984,
      "Ġobtuvo": 6985,
      "how": 6986,
      "arial": 6987,
      "Ġorganismo": 6988,
      "Ġconsultas": 6989,
      "ĠcumpleaÃ±os": 6990,
      "llan": 6991,
      "ĠCat": 6992,
      "ĠtÃ©cnicos": 6993,
      "esper": 6994,
      "Disculpe": 6995,
      "tiago": 6996,
      "Ġprevia": 6997,
      "Ġcausas": 6998,
      "Ġexpan": 6999,
      "ĠdÃ©bi": 7000,
      "Ġadoptadas": 7001,
      "bierto": 7002,
      "Ġcompromisos": 7003,
      "umin": 7004,
      "Ã©ramos": 7005,
      "ix": 7006,
      "ĠBas": 7007,
      "dre": 7008,
      "ĠestadÃŃsticas": 7009,
      "Ġcargos": 7010,
      "ĠRich": 7011,
      "Ġmuchachos": 7012,
      "Ġmodelos": 7013,
      "Ġtitular": 7014,
      "Ġabre": 7015,
      "Ġinterna": 7016,
      "Ġ300": 7017,
      "Ġespiritu": 7018,
      "54": 7019,
      "igo": 7020,
      "ĠestÃºpido": 7021,
      "Ġconcer": 7022,
      "ĠnaciÃ³": 7023,
      "uto": 7024,
      "??": 7025,
      "Ġcaballeros": 7026,
      "ciles": 7027,
      "ĠVen": 7028,
      "ĠGol": 7029,
      "AdÃ³nde": 7030,
      "Ġresiduos": 7031,
      "Ġdecirme": 7032,
      "Ġtemperatura": 7033,
      "Ġtuvieron": 7034,
      "ĠnÃºmeros": 7035,
      "mpres": 7036,
      "sal": 7037,
      "Ġmutu": 7038,
      "ĠBajos": 7039,
      "lando": 7040,
      "Ġciertas": 7041,
      "adÃ©m": 7042,
      "Ã¡ndome": 7043,
      "ÃŃsticos": 7044,
      "Â¡Â¿": 7045,
      "baciÃ³n": 7046,
      "Ġinterno": 7047,
      "Ġraza": 7048,
      "berto": 7049,
      "Ġarquitec": 7050,
      "adio": 7051,
      "Ġprotes": 7052,
      "Ġviendo": 7053,
      "ĠVan": 7054,
      "Ġestrellas": 7055,
      "ĠcrÃ©ditos": 7056,
      "Ġadolesc": 7057,
      "cÃ©": 7058,
      "Finalmente": 7059,
      "piraciÃ³n": 7060,
      "Ġdecidir": 7061,
      "Ġusando": 7062,
      "Ġsospech": 7063,
      "ĠorientaciÃ³n": 7064,
      "cimientos": 7065,
      "Ġcompuesto": 7066,
      "ĠFederal": 7067,
      "Ġsirve": 7068,
      "ĠInvesti": 7069,
      "Ġarchivos": 7070,
      "Ġorgullos": 7071,
      "ĠJefe": 7072,
      "Ġmedicamentos": 7073,
      "Ġaprendi": 7074,
      "Ġescrib": 7075,
      "NÃºmero": 7076,
      "Ġcompra": 7077,
      "ciendo": 7078,
      "Ġdepende": 7079,
      "ĠAmbi": 7080,
      "ĠdeterminaciÃ³n": 7081,
      "ĠSanto": 7082,
      "jada": 7083,
      "ĠadhesiÃ³n": 7084,
      "ĠLan": 7085,
      "Ġcerve": 7086,
      "Ġveras": 7087,
      "cionado": 7088,
      "Ġlasti": 7089,
      "Ġpresentes": 7090,
      "ĠPadre": 7091,
      "52": 7092,
      "ĠAustralia": 7093,
      "Ġpuente": 7094,
      "Ġamable": 7095,
      "ĠazÃºcar": 7096,
      "Ġcierta": 7097,
      "ĠCalifornia": 7098,
      "Ġfamiliares": 7099,
      "Ġ..": 7100,
      "Ġreales": 7101,
      "ĠTrans": 7102,
      "Ġmagn": 7103,
      "Ġestablecidas": 7104,
      "Ġcorreo": 7105,
      "Ġninguno": 7106,
      "ĠperÃŃodos": 7107,
      "tab": 7108,
      "ori": 7109,
      "Ġmencionado": 7110,
      "Ġexplor": 7111,
      "uck": 7112,
      "Ġplu": 7113,
      "Ļª": 7114,
      "Ġprobable": 7115,
      "Ho": 7116,
      "CÃ¡llate": 7117,
      "Ġhacerse": 7118,
      "79": 7119,
      "ĠcelebraciÃ³n": 7120,
      "ĠMisiÃ³n": 7121,
      "uelve": 7122,
      "Ġministro": 7123,
      "tarme": 7124,
      "Ġbasado": 7125,
      "Ġaeropuerto": 7126,
      "ĠRegi": 7127,
      "rÃ¡s": 7128,
      "Ġopciones": 7129,
      "Ġafectados": 7130,
      "Ġpersonaje": 7131,
      "pin": 7132,
      "Ġarre": 7133,
      "%)": 7134,
      "Ġvotos": 7135,
      "Ra": 7136,
      "Ġremo": 7137,
      "siva": 7138,
      "Ġtonel": 7139,
      "Ġconqui": 7140,
      "ĠrÃ¡pida": 7141,
      "Ġcaliente": 7142,
      "ĠclÃŃn": 7143,
      "Ġnumerosos": 7144,
      "Ġpropiet": 7145,
      "ĠMedi": 7146,
      "rida": 7147,
      "ĠAlex": 7148,
      "ure": 7149,
      "Ġreconocer": 7150,
      "ĠcuÃ¡ndo": 7151,
      "Ġmodifica": 7152,
      "Gran": 7153,
      "Ġhorrible": 7154,
      "bien": 7155,
      "icepres": 7156,
      "Ġx": 7157,
      "Ġcanal": 7158,
      "bral": 7159,
      "Ustedes": 7160,
      "CON": 7161,
      "ĠAgr": 7162,
      "Ġlocura": 7163,
      "ĠmÃºlti": 7164,
      "Ġflor": 7165,
      "Ġbasura": 7166,
      "ĠhÃ©ro": 7167,
      "Ġlaboratorio": 7168,
      "ĠJames": 7169,
      "AllÃŃ": 7170,
      "ĠPacÃŃfico": 7171,
      "ĠMuy": 7172,
      "Ġactuaciones": 7173,
      "Ġfol": 7174,
      "presiÃ³n": 7175,
      "ĠBla": 7176,
      "ĠCuba": 7177,
      "Probablemente": 7178,
      "Ġemplea": 7179,
      "Fuera": 7180,
      "Ã©li": 7181,
      "tizaciÃ³n": 7182,
      "ĠHun": 7183,
      "ĠÃ¡mbitos": 7184,
      "Ġfues": 7185,
      "Ġestados": 7186,
      "wood": 7187,
      "ĠGrecia": 7188,
      "ĠAlto": 7189,
      "Ġnacimiento": 7190,
      "Ġvienen": 7191,
      "51": 7192,
      "way": 7193,
      "estival": 7194,
      "Ġcomportamiento": 7195,
      "inados": 7196,
      "Ġrecomienda": 7197,
      "Ġcola": 7198,
      "Ġsustancias": 7199,
      "Ġadentro": 7200,
      "Ġmiras": 7201,
      "Ġbasada": 7202,
      "ĠEle": 7203,
      "Ġbib": 7204,
      "Ġdestinados": 7205,
      "ĠNÂº": 7206,
      "Ġ33": 7207,
      "xili": 7208,
      "uta": 7209,
      "Ġagricultura": 7210,
      "Ġdesgra": 7211,
      "Ġnuevamente": 7212,
      "ĠCasa": 7213,
      "Ġreempla": 7214,
      "ĠPr": 7215,
      "ĠrecuperaciÃ³n": 7216,
      "Ġ48": 7217,
      "Ġvoc": 7218,
      "Ġfrancesa": 7219,
      "Ãļ": 7220,
      ".-": 7221,
      "tral": 7222,
      "Ġbeber": 7223,
      "Ġharemos": 7224,
      "ford": 7225,
      "Ġinteligente": 7226,
      "Ġaclar": 7227,
      "fecto": 7228,
      "Ġorient": 7229,
      "Ġhagan": 7230,
      "rores": 7231,
      "Ġinvestigaciones": 7232,
      "Ġartes": 7233,
      "ĠFund": 7234,
      "Ġcombate": 7235,
      "ĠpodrÃŃas": 7236,
      "Ġambiental": 7237,
      "Ġalcal": 7238,
      "Ġliter": 7239,
      "Ġmodos": 7240,
      "Os": 7241,
      "deras": 7242,
      "Ġmantiene": 7243,
      "Ġeras": 7244,
      "ĠelectrÃ³nico": 7245,
      "cerdo": 7246,
      "Ġpersonales": 7247,
      "ĠUS": 7248,
      "laterales": 7249,
      "Ġestudiar": 7250,
      "Ã³p": 7251,
      "Algunas": 7252,
      "Ġpeligroso": 7253,
      "Ġestuviera": 7254,
      "Ġinci": 7255,
      "ĠVie": 7256,
      "augu": 7257,
      "Ġestructuras": 7258,
      "Ġextranjero": 7259,
      "Ġremi": 7260,
      "Pol": 7261,
      "Ġapreci": 7262,
      "tarias": 7263,
      "lico": 7264,
      "ĠespectÃ¡": 7265,
      "53": 7266,
      "Ġtiro": 7267,
      "Ġprisa": 7268,
      "Ġexcelente": 7269,
      "Ġvieja": 7270,
      "Ġbroma": 7271,
      "ella": 7272,
      "ĠNorm": 7273,
      "Ġseres": 7274,
      "strucciÃ³n": 7275,
      "ĠsubvenciÃ³n": 7276,
      "Ġsituada": 7277,
      "Ġcreen": 7278,
      "ĠKar": 7279,
      "ĠseÃ±orita": 7280,
      "Ġrespal": 7281,
      "Sigue": 7282,
      "ement": 7283,
      "Ġdoy": 7284,
      "Ġagradable": 7285,
      "sar": 7286,
      "ĠeliminaciÃ³n": 7287,
      "gios": 7288,
      "dante": 7289,
      "icales": 7290,
      "ĠdifusiÃ³n": 7291,
      "ĠbÃ¡sicos": 7292,
      "tano": 7293,
      "kin": 7294,
      "ĠentrÃ³": 7295,
      "ĠEuropeas": 7296,
      "ENTO": 7297,
      "Ġllamas": 7298,
      "Ġrue": 7299,
      "lice": 7300,
      "undido": 7301,
      "64": 7302,
      "Tranqui": 7303,
      "vÃ¡n": 7304,
      "Ġbrome": 7305,
      "ĠencontrÃ©": 7306,
      "Ġfemen": 7307,
      "Na": 7308,
      "ĠdestrucciÃ³n": 7309,
      "tte": 7310,
      "MÃŃ": 7311,
      "Vol": 7312,
      "Ġacon": 7313,
      "Ġcuali": 7314,
      "EM": 7315,
      "Ġestric": 7316,
      "Ġtitulado": 7317,
      "BC": 7318,
      "ĠCosta": 7319,
      "uti": 7320,
      "ĠconexiÃ³n": 7321,
      "Ġprocede": 7322,
      "Ġprevistos": 7323,
      "ĠMujer": 7324,
      "ĠinterpretaciÃ³n": 7325,
      "71": 7326,
      "Ġpreocupa": 7327,
      "72": 7328,
      "Ġbasta": 7329,
      "Ġrespectivamente": 7330,
      "seguida": 7331,
      "Primero": 7332,
      "Ġasociados": 7333,
      "Ġparticularmente": 7334,
      "reras": 7335,
      "Ġprefi": 7336,
      "uÃ©l": 7337,
      "Ġgira": 7338,
      "ĠPAR": 7339,
      "Ġcomponentes": 7340,
      "Ġvenga": 7341,
      "Ġrei": 7342,
      "Ġdecidido": 7343,
      "caron": 7344,
      "ĠSala": 7345,
      "ĠPrin": 7346,
      "brado": 7347,
      "feras": 7348,
      "Ġplena": 7349,
      "Ġbomba": 7350,
      "Ġporcentaje": 7351,
      "ling": 7352,
      "Ġcompartir": 7353,
      "Ġentiende": 7354,
      "bida": 7355,
      "ĠResoluciÃ³n": 7356,
      "MuÃ©": 7357,
      "Ġproduce": 7358,
      "Buena": 7359,
      "Ġacces": 7360,
      "ĠEr": 7361,
      "Ġhablado": 7362,
      "Ġpiezas": 7363,
      "ĠBruselas": 7364,
      "ĠpÃ¡": 7365,
      "mbre": 7366,
      "llante": 7367,
      "elaciones": 7368,
      "ples": 7369,
      "IM": 7370,
      "ĠorgÃ¡n": 7371,
      "Ġvecinos": 7372,
      "Ġapara": 7373,
      "Ġgracioso": 7374,
      "ĠClar": 7375,
      "Ġ1987": 7376,
      "Ġcontribuciones": 7377,
      "ĠMos": 7378,
      "gular": 7379,
      "Ġubicada": 7380,
      "idencial": 7381,
      "Ġintentar": 7382,
      "Ġautob": 7383,
      "Ġcoches": 7384,
      "ligiÃ³n": 7385,
      "Ġbusc": 7386,
      "amarca": 7387,
      "limin": 7388,
      "Ġmirando": 7389,
      "ĠÃºltimas": 7390,
      "ÃŃna": 7391,
      "Ġdirigir": 7392,
      "ĠinstalaciÃ³n": 7393,
      "Ġsuficientemente": 7394,
      "ĠlogrÃ³": 7395,
      "asas": 7396,
      "Genial": 7397,
      "Ġtemo": 7398,
      "pil": 7399,
      "Ġatre": 7400,
      "vencia": 7401,
      "Ġpoderes": 7402,
      "ĠRed": 7403,
      "Ġprepara": 7404,
      "ĠLiga": 7405,
      "Ġvestido": 7406,
      "ĠMartÃŃn": 7407,
      "ĠcreÃ³": 7408,
      "venido": 7409,
      "ĠVIH": 7410,
      "ĠSon": 7411,
      "uestros": 7412,
      "Ġinfantil": 7413,
      "org": 7414,
      "tarlo": 7415,
      "Ġ1986": 7416,
      "Ġjuez": 7417,
      "Ġconsiste": 7418,
      "Ġvayas": 7419,
      "ĠPresidencia": 7420,
      "Ġplaya": 7421,
      "ĠclasificaciÃ³n": 7422,
      "ĠMis": 7423,
      "ĠGal": 7424,
      "Ġllevan": 7425,
      "ĠplanificaciÃ³n": 7426,
      "Ġ1980": 7427,
      "Ġusa": 7428,
      "ĠWilliam": 7429,
      "Ġlleno": 7430,
      "IÃĵN": 7431,
      "Ġevento": 7432,
      "Ġtemprano": 7433,
      "Ġcolum": 7434,
      "ĠIndust": 7435,
      "ĠpodrÃŃamos": 7436,
      "Ġpeda": 7437,
      "Ġsociedades": 7438,
      "Ġdescen": 7439,
      "ĠordenaciÃ³n": 7440,
      "Muchos": 7441,
      "trÃ³leo": 7442,
      "Ġrojo": 7443,
      "Ġprioridad": 7444,
      "Ġimpuls": 7445,
      "Ã¡ndolo": 7446,
      "ĠgeneraciÃ³n": 7447,
      "ĠPacto": 7448,
[...]
